{
  "version": "1.0",
  "truncation": null,
  "padding": null,
  "added_tokens": [
    {
      "id": 0,
      "content": "<unk>",
      "single_word": false,
      "lstrip": false,
      "rstrip": false,
      "normalized": true,
      "special": true
    },
    {
      "id": 1,
      "content": "<s>",
      "single_word": false,
      "lstrip": false,
      "rstrip": false,
      "normalized": true,
      "special": true
    },
    {
      "id": 2,
      "content": "</s>",
      "single_word": false,
      "lstrip": false,
      "rstrip": false,
      "normalized": true,
      "special": true
    },
    {
      "id": 3,
      "content": "<pad>",
      "single_word": false,
      "lstrip": false,
      "rstrip": false,
      "normalized": true,
      "special": true
    }
  ],
  "normalizer": {
    "type": "Sequence",
    "normalizers": [
      {
        "type": "Prepend",
        "prepend": "▁"
      },
      {
        "type": "Replace",
        "pattern": {
          "String": " "
        },
        "content": "▁"
      }
    ]
  },
  "pre_tokenizer": null,
  "post_processor": {
    "type": "TemplateProcessing",
    "single": [
      {
        "SpecialToken": {
          "id": "<s>",
          "type_id": 0
        }
      },
      {
        "Sequence": {
          "id": "A",
          "type_id": 0
        }
      }
    ],
    "pair": [
      {
        "SpecialToken": {
          "id": "<s>",
          "type_id": 0
        }
      },
      {
        "Sequence": {
          "id": "A",
          "type_id": 0
        }
      },
      {
        "SpecialToken": {
          "id": "<s>",
          "type_id": 1
        }
      },
      {
        "Sequence": {
          "id": "B",
          "type_id": 1
        }
      }
    ],
    "special_tokens": {
      "<s>": {
        "id": "<s>",
        "ids": [
          1
        ],
        "tokens": [
          "<s>"
        ]
      }
    }
  },
  "decoder": {
    "type": "Sequence",
    "decoders": [
      {
        "type": "Replace",
        "pattern": {
          "String": "▁"
        },
        "content": " "
      },
      {
        "type": "ByteFallback"
      },
      {
        "type": "Fuse"
      },
      {
        "type": "Strip",
        "content": " ",
        "start": 1,
        "stop": 0
      }
    ]
  },
  "model": {
    "type": "BPE",
    "dropout": null,
    "unk_token": "<unk>",
    "continuing_subword_prefix": null,
    "end_of_word_suffix": null,
    "fuse_unk": true,
    "byte_fallback": true,
    "vocab": {
      "<unk>": 0,
      "<s>": 1,
      "</s>": 2,
      "<pad>": 3,
      "<0x00>": 4,
      "<0x01>": 5,
      "<0x02>": 6,
      "<0x03>": 7,
      "<0x04>": 8,
      "<0x05>": 9,
      "<0x06>": 10,
      "<0x07>": 11,
      "<0x08>": 12,
      "<0x09>": 13,
      "<0x0A>": 14,
      "<0x0B>": 15,
      "<0x0C>": 16,
      "<0x0D>": 17,
      "<0x0E>": 18,
      "<0x0F>": 19,
      "<0x10>": 20,
      "<0x11>": 21,
      "<0x12>": 22,
      "<0x13>": 23,
      "<0x14>": 24,
      "<0x15>": 25,
      "<0x16>": 26,
      "<0x17>": 27,
      "<0x18>": 28,
      "<0x19>": 29,
      "<0x1A>": 30,
      "<0x1B>": 31,
      "<0x1C>": 32,
      "<0x1D>": 33,
      "<0x1E>": 34,
      "<0x1F>": 35,
      "<0x20>": 36,
      "<0x21>": 37,
      "<0x22>": 38,
      "<0x23>": 39,
      "<0x24>": 40,
      "<0x25>": 41,
      "<0x26>": 42,
      "<0x27>": 43,
      "<0x28>": 44,
      "<0x29>": 45,
      "<0x2A>": 46,
      "<0x2B>": 47,
      "<0x2C>": 48,
      "<0x2D>": 49,
      "<0x2E>": 50,
      "<0x2F>": 51,
      "<0x30>": 52,
      "<0x31>": 53,
      "<0x32>": 54,
      "<0x33>": 55,
      "<0x34>": 56,
      "<0x35>": 57,
      "<0x36>": 58,
      "<0x37>": 59,
      "<0x38>": 60,
      "<0x39>": 61,
      "<0x3A>": 62,
      "<0x3B>": 63,
      "<0x3C>": 64,
      "<0x3D>": 65,
      "<0x3E>": 66,
      "<0x3F>": 67,
      "<0x40>": 68,
      "<0x41>": 69,
      "<0x42>": 70,
      "<0x43>": 71,
      "<0x44>": 72,
      "<0x45>": 73,
      "<0x46>": 74,
      "<0x47>": 75,
      "<0x48>": 76,
      "<0x49>": 77,
      "<0x4A>": 78,
      "<0x4B>": 79,
      "<0x4C>": 80,
      "<0x4D>": 81,
      "<0x4E>": 82,
      "<0x4F>": 83,
      "<0x50>": 84,
      "<0x51>": 85,
      "<0x52>": 86,
      "<0x53>": 87,
      "<0x54>": 88,
      "<0x55>": 89,
      "<0x56>": 90,
      "<0x57>": 91,
      "<0x58>": 92,
      "<0x59>": 93,
      "<0x5A>": 94,
      "<0x5B>": 95,
      "<0x5C>": 96,
      "<0x5D>": 97,
      "<0x5E>": 98,
      "<0x5F>": 99,
      "<0x60>": 100,
      "<0x61>": 101,
      "<0x62>": 102,
      "<0x63>": 103,
      "<0x64>": 104,
      "<0x65>": 105,
      "<0x66>": 106,
      "<0x67>": 107,
      "<0x68>": 108,
      "<0x69>": 109,
      "<0x6A>": 110,
      "<0x6B>": 111,
      "<0x6C>": 112,
      "<0x6D>": 113,
      "<0x6E>": 114,
      "<0x6F>": 115,
      "<0x70>": 116,
      "<0x71>": 117,
      "<0x72>": 118,
      "<0x73>": 119,
      "<0x74>": 120,
      "<0x75>": 121,
      "<0x76>": 122,
      "<0x77>": 123,
      "<0x78>": 124,
      "<0x79>": 125,
      "<0x7A>": 126,
      "<0x7B>": 127,
      "<0x7C>": 128,
      "<0x7D>": 129,
      "<0x7E>": 130,
      "<0x7F>": 131,
      "<0x80>": 132,
      "<0x81>": 133,
      "<0x82>": 134,
      "<0x83>": 135,
      "<0x84>": 136,
      "<0x85>": 137,
      "<0x86>": 138,
      "<0x87>": 139,
      "<0x88>": 140,
      "<0x89>": 141,
      "<0x8A>": 142,
      "<0x8B>": 143,
      "<0x8C>": 144,
      "<0x8D>": 145,
      "<0x8E>": 146,
      "<0x8F>": 147,
      "<0x90>": 148,
      "<0x91>": 149,
      "<0x92>": 150,
      "<0x93>": 151,
      "<0x94>": 152,
      "<0x95>": 153,
      "<0x96>": 154,
      "<0x97>": 155,
      "<0x98>": 156,
      "<0x99>": 157,
      "<0x9A>": 158,
      "<0x9B>": 159,
      "<0x9C>": 160,
      "<0x9D>": 161,
      "<0x9E>": 162,
      "<0x9F>": 163,
      "<0xA0>": 164,
      "<0xA1>": 165,
      "<0xA2>": 166,
      "<0xA3>": 167,
      "<0xA4>": 168,
      "<0xA5>": 169,
      "<0xA6>": 170,
      "<0xA7>": 171,
      "<0xA8>": 172,
      "<0xA9>": 173,
      "<0xAA>": 174,
      "<0xAB>": 175,
      "<0xAC>": 176,
      "<0xAD>": 177,
      "<0xAE>": 178,
      "<0xAF>": 179,
      "<0xB0>": 180,
      "<0xB1>": 181,
      "<0xB2>": 182,
      "<0xB3>": 183,
      "<0xB4>": 184,
      "<0xB5>": 185,
      "<0xB6>": 186,
      "<0xB7>": 187,
      "<0xB8>": 188,
      "<0xB9>": 189,
      "<0xBA>": 190,
      "<0xBB>": 191,
      "<0xBC>": 192,
      "<0xBD>": 193,
      "<0xBE>": 194,
      "<0xBF>": 195,
      "<0xC0>": 196,
      "<0xC1>": 197,
      "<0xC2>": 198,
      "<0xC3>": 199,
      "<0xC4>": 200,
      "<0xC5>": 201,
      "<0xC6>": 202,
      "<0xC7>": 203,
      "<0xC8>": 204,
      "<0xC9>": 205,
      "<0xCA>": 206,
      "<0xCB>": 207,
      "<0xCC>": 208,
      "<0xCD>": 209,
      "<0xCE>": 210,
      "<0xCF>": 211,
      "<0xD0>": 212,
      "<0xD1>": 213,
      "<0xD2>": 214,
      "<0xD3>": 215,
      "<0xD4>": 216,
      "<0xD5>": 217,
      "<0xD6>": 218,
      "<0xD7>": 219,
      "<0xD8>": 220,
      "<0xD9>": 221,
      "<0xDA>": 222,
      "<0xDB>": 223,
      "<0xDC>": 224,
      "<0xDD>": 225,
      "<0xDE>": 226,
      "<0xDF>": 227,
      "<0xE0>": 228,
      "<0xE1>": 229,
      "<0xE2>": 230,
      "<0xE3>": 231,
      "<0xE4>": 232,
      "<0xE5>": 233,
      "<0xE6>": 234,
      "<0xE7>": 235,
      "<0xE8>": 236,
      "<0xE9>": 237,
      "<0xEA>": 238,
      "<0xEB>": 239,
      "<0xEC>": 240,
      "<0xED>": 241,
      "<0xEE>": 242,
      "<0xEF>": 243,
      "<0xF0>": 244,
      "<0xF1>": 245,
      "<0xF2>": 246,
      "<0xF3>": 247,
      "<0xF4>": 248,
      "<0xF5>": 249,
      "<0xF6>": 250,
      "<0xF7>": 251,
      "<0xF8>": 252,
      "<0xF9>": 253,
      "<0xFA>": 254,
      "<0xFB>": 255,
      "<0xFC>": 256,
      "<0xFD>": 257,
      "<0xFE>": 258,
      "<0xFF>": 259,
      "en": 260,
      "er": 261,
      "ch": 262,
      "▁d": 263,
      "ei": 264,
      "un": 265,
      "ie": 266,
      "st": 267,
      "in": 268,
      "▁a": 269,
      "es": 270,
      "ein": 271,
      "ich": 272,
      "▁S": 273,
      "▁un": 274,
      "an": 275,
      "on": 276,
      "▁s": 277,
      "ung": 278,
      "▁w": 279,
      "ge": 280,
      "te": 281,
      "▁die": 282,
      "▁D": 283,
      "▁und": 284,
      "▁v": 285,
      "sch": 286,
      "ten": 287,
      "or": 288,
      "▁der": 289,
      "it": 290,
      "ll": 291,
      "▁z": 292,
      "ar": 293,
      "▁A": 294,
      "▁ein": 295,
      "▁B": 296,
      "der": 297,
      "▁b": 298,
      "ti": 299,
      "▁m": 300,
      "as": 301,
      "▁au": 302,
      "hr": 303,
      "▁zu": 304,
      "al": 305,
      "gen": 306,
      "▁i": 307,
      "den": 308,
      "▁n": 309,
      "em": 310,
      "ter": 311,
      "▁M": 312,
      "et": 313,
      "▁W": 314,
      "▁E": 315,
      "▁f": 316,
      "lich": 317,
      "ur": 318,
      "▁in": 319,
      "▁F": 320,
      "▁I": 321,
      "▁K": 322,
      "au": 323,
      "▁G": 324,
      "▁k": 325,
      "ber": 326,
      "el": 327,
      "ir": 328,
      "▁h": 329,
      "▁P": 330,
      "ür": 331,
      "▁V": 332,
      "eit": 333,
      "at": 334,
      "ach": 335,
      "▁T": 336,
      "de": 337,
      "▁g": 338,
      "▁H": 339,
      "▁o": 340,
      "ut": 341,
      "▁er": 342,
      "ck": 343,
      "ier": 344,
      "▁R": 345,
      "mm": 346,
      "▁den": 347,
      "▁L": 348,
      "▁ge": 349,
      "ra": 350,
      "▁N": 351,
      "ben": 352,
      "ro": 353,
      "▁das": 354,
      "▁Z": 355,
      "▁an": 356,
      "is": 357,
      "▁ver": 358,
      "▁von": 359,
      "re": 360,
      "▁auf": 361,
      "▁mit": 362,
      "us": 363,
      "um": 364,
      "ste": 365,
      "icht": 366,
      "se": 367,
      "▁für": 368,
      "sen": 369,
      "▁ist": 370,
      "nen": 371,
      "isch": 372,
      "ol": 373,
      "▁oder": 374,
      "▁Die": 375,
      "il": 376,
      "rei": 377,
      "ig": 378,
      "tion": 379,
      "▁In": 380,
      "▁wir": 381,
      "ent": 382,
      "le": 383,
      "ser": 384,
      "▁U": 385,
      "▁Ver": 386,
      "am": 387,
      "and": 388,
      "ft": 389,
      "▁be": 390,
      "▁Sie": 391,
      "ann": 392,
      "eich": 393,
      "ungen": 394,
      "▁(": 395,
      "▁aus": 396,
      "▁C": 397,
      "ff": 398,
      "▁nicht": 399,
      "ne": 400,
      "kt": 401,
      "▁Sch": 402,
      "▁sich": 403,
      "▁l": 404,
      "ind": 405,
      "▁so": 406,
      "▁J": 407,
      "▁im": 408,
      "▁des": 409,
      "▁St": 410,
      "sp": 411,
      "utz": 412,
      "über": 413,
      "▁wer": 414,
      "be": 415,
      "ahr": 416,
      "▁An": 417,
      "▁dem": 418,
      "▁eine": 419,
      "ls": 420,
      "ver": 421,
      "▁werden": 422,
      "om": 423,
      "▁p": 424,
      "ri": 425,
      "ing": 426,
      "hal": 427,
      "och": 428,
      "▁bei": 429,
      "▁auch": 430,
      "hl": 431,
      "uch": 432,
      "etz": 433,
      "ation": 434,
      "än": 435,
      "ien": 436,
      "ön": 437,
      "for": 438,
      "▁über": 439,
      "ungs": 440,
      "▁um": 441,
      "ag": 442,
      "hm": 443,
      "ehr": 444,
      "lle": 445,
      "▁O": 446,
      "ik": 447,
      "▁Sp": 448,
      "sten": 449,
      "llen": 450,
      "wei": 451,
      "iel": 452,
      "▁sch": 453,
      "▁es": 454,
      "▁Ein": 455,
      "uf": 456,
      "▁sind": 457,
      "end": 458,
      "▁Re": 459,
      "▁j": 460,
      "ern": 461,
      "eu": 462,
      "▁wie": 463,
      "esch": 464,
      "und": 465,
      "▁Er": 466,
      "eb": 467,
      "enn": 468,
      "▁t": 469,
      "tig": 470,
      "▁als": 471,
      "rü": 472,
      "urch": 473,
      "eil": 474,
      "▁Un": 475,
      "▁Be": 476,
      "ot": 477,
      "▁wird": 478,
      "cht": 479,
      "▁kön": 480,
      "ät": 481,
      "omm": 482,
      "we": 483,
      "hen": 484,
      "▁vor": 485,
      "ort": 486,
      "▁nach": 487,
      "ischen": 488,
      "si": 489,
      "▁Da": 490,
      "▁„": 491,
      "eiten": 492,
      "▁st": 493,
      "lie": 494,
      "rä": 495,
      "▁können": 496,
      "eine": 497,
      "▁ha": 498,
      "▁Zu": 499,
      "▁dass": 500,
      "stell": 501,
      "▁einer": 502,
      "he": 503,
      "zu": 504,
      "hn": 505,
      "eiter": 506,
      "▁Ihr": 507,
      "▁ent": 508,
      "▁da": 509,
      "os": 510,
      "glich": 511,
      "▁hat": 512,
      "ger": 513,
      "aus": 514,
      "ul": 515,
      "aft": 516,
      "▁Pro": 517,
      "gt": 518,
      "imm": 519,
      "igen": 520,
      "ad": 521,
      "chen": 522,
      "tet": 523,
      "ed": 524,
      "▁unser": 525,
      "▁durch": 526,
      "ische": 527,
      "ok": 528,
      "wer": 529,
      "▁Nutz": 530,
      "gel": 531,
      "ati": 532,
      "ör": 533,
      "▁sie": 534,
      "▁ihr": 535,
      "ang": 536,
      "▁einen": 537,
      "zen": 538,
      "og": 539,
      "op": 540,
      "är": 541,
      "▁unter": 542,
      "form": 543,
      "▁zum": 544,
      "ieren": 545,
      "chn": 546,
      "..": 547,
      "▁Mit": 548,
      "▁zur": 549,
      "▁ab": 550,
      "ers": 551,
      "▁Der": 552,
      "ün": 553,
      "rau": 554,
      "▁sein": 555,
      "▁Ar": 556,
      "hmen": 557,
      "▁e": 558,
      "rag": 559,
      "ru": 560,
      "la": 561,
      "fen": 562,
      "all": 563,
      "her": 564,
      "▁wur": 565,
      "▁kann": 566,
      "▁Aus": 567,
      "lichen": 568,
      "fü": 569,
      "schen": 570,
      "▁Jahr": 571,
      "▁–": 572,
      "ab": 573,
      "▁Vor": 574,
      "ht": 575,
      "▁Ge": 576,
      "▁einem": 577,
      "pp": 578,
      "▁all": 579,
      "geb": 580,
      "rit": 581,
      "ick": 582,
      "▁En": 583,
      "▁Das": 584,
      "▁war": 585,
      "eicher": 586,
      "ige": 587,
      "▁haben": 588,
      "lin": 589,
      "▁Web": 590,
      "iert": 591,
      "▁Daten": 592,
      "ark": 593,
      "ktion": 594,
      "tern": 595,
      "▁am": 596,
      "▁-": 597,
      "öglich": 598,
      "ster": 599,
      "liche": 600,
      "schaft": 601,
      "rie": 602,
      "bt": 603,
      "▁dies": 604,
      "art": 605,
      "anz": 606,
      "bl": 607,
      "▁Bet": 608,
      "che": 609,
      "▁sp": 610,
      "pf": 611,
      "tel": 612,
      "arb": 613,
      "▁uns": 614,
      "▁ich": 615,
      "▁re": 616,
      "▁nur": 617,
      "ationen": 618,
      "▁ges": 619,
      "▁mehr": 620,
      "uss": 621,
      "lei": 622,
      "▁Ab": 623,
      "elt": 624,
      "dern": 625,
      "▁Wir": 626,
      "auf": 627,
      "▁Ber": 628,
      "weck": 629,
      "bar": 630,
      "▁bis": 631,
      "kti": 632,
      "keit": 633,
      "heit": 634,
      "stimm": 635,
      "ank": 636,
      "fol": 637,
      "ook": 638,
      "▁je": 639,
      "nis": 640,
      "ahl": 641,
      "ist": 642,
      "wend": 643,
      "▁So": 644,
      "▁Auf": 645,
      "▁ander": 646,
      "▁man": 647,
      "▁noch": 648,
      "iz": 649,
      "ner": 650,
      "▁Nach": 651,
      "ähr": 652,
      "mal": 653,
      "ess": 654,
      "▁ber": 655,
      "▁r": 656,
      "amm": 657,
      "ont": 658,
      "▁Unter": 659,
      "ion": 660,
      "ue": 661,
      "eut": 662,
      "▁Um": 663,
      "▁weiter": 664,
      "fer": 665,
      "ekt": 666,
      "kl": 667,
      "assen": 668,
      "atz": 669,
      "eigen": 670,
      "eben": 671,
      "▁dar": 672,
      "ill": 673,
      "▁Te": 674,
      "ies": 675,
      "schl": 676,
      "ßen": 677,
      "riff": 678,
      "ommen": 679,
      "▁neu": 680,
      "ant": 681,
      "halten": 682,
      "▁te": 683,
      "▁Zweck": 684,
      "▁hin": 685,
      "▁Zug": 686,
      "▁dieser": 687,
      "▁Inform": 688,
      "ze": 689,
      "mmer": 690,
      "ild": 691,
      "ass": 692,
      "ic": 693,
      "oll": 694,
      "eite": 695,
      "reiber": 696,
      "▁Bei": 697,
      "▁diese": 698,
      "ve": 699,
      "forder": 700,
      "▁aber": 701,
      "ges": 702,
      "▁\"": 703,
      "ard": 704,
      "fahr": 705,
      "per": 706,
      "alt": 707,
      "▁Ma": 708,
      "rück": 709,
      "wie": 710,
      "eicherung": 711,
      "mit": 712,
      "ma": 713,
      "▁vom": 714,
      "acht": 715,
      "trag": 716,
      "▁Wer": 717,
      "äl": 718,
      "▁Zeit": 719,
      "onder": 720,
      "▁du": 721,
      "unden": 722,
      "bst": 723,
      "▁wurde": 724,
      "du": 725,
      "▁Cook": 726,
      "▁Speicherung": 727,
      "na": 728,
      "gem": 729,
      "▁Inhal": 730,
      "▁Au": 731,
      "fe": 732,
      "üt": 733,
      "ob": 734,
      "▁bes": 735,
      "hne": 736,
      "▁techn": 737,
      "einen": 738,
      "pl": 739,
      "▁Ü": 740,
      "hnen": 741,
      "ühr": 742,
      "ität": 743,
      "▁Es": 744,
      "▁Ges": 745,
      "▁gen": 746,
      "fl": 747,
      "rund": 748,
      "▁Informationen": 749,
      "ück": 750,
      "ffen": 751,
      "▁Im": 752,
      "▁wenn": 753,
      "ial": 754,
      "zeit": 755,
      "bei": 756,
      "etzt": 757,
      "▁Nutzer": 758,
      "ken": 759,
      "▁Betreiber": 760,
      "▁kl": 761,
      "ler": 762,
      "▁ste": 763,
      "▁hier": 764,
      "▁gew": 765,
      "ss": 766,
      "▁gro": 767,
      "▁eines": 768,
      "id": 769,
      "unktion": 770,
      "schie": 771,
      "att": 772,
      "ragen": 773,
      "leich": 774,
      "kte": 775,
      "war": 776,
      "nehmen": 777,
      "dem": 778,
      "▁technische": 779,
      "dig": 780,
      "sion": 781,
      "ks": 782,
      "▁Inhalte": 783,
      "▁soll": 784,
      "▁wieder": 785,
      "eits": 786,
      "im": 787,
      "▁For": 788,
      "▁Zugriff": 789,
      "tier": 790,
      "ktiv": 791,
      "▁Cookies": 792,
      "▁gegen": 793,
      "▁viel": 794,
      "▁Her": 795,
      "ren": 796,
      "▁Men": 797,
      "▁Über": 798,
      "▁Kl": 799,
      "inden": 800,
      "iele": 801,
      "▁alle": 802,
      "ließ": 803,
      "stellt": 804,
      "▁Bo": 805,
      "eld": 806,
      "ding": 807,
      "...": 808,
      "ap": 809,
      "enden": 810,
      "▁dann": 811,
      "weise": 812,
      "teil": 813,
      "elbst": 814,
      "aten": 815,
      "bes": 816,
      "ho": 817,
      "▁Mark": 818,
      "ga": 819,
      "bie": 820,
      "▁kon": 821,
      "▁sowie": 822,
      "innen": 823,
      "▁Ent": 824,
      "site": 825,
      "▁Drit": 826,
      "▁Ihre": 827,
      "est": 828,
      "ierung": 829,
      "achen": 830,
      "ud": 831,
      "atist": 832,
      "▁Leben": 833,
      "tigen": 834,
      "ibt": 835,
      "▁|": 836,
      "ßer": 837,
      "erson": 838,
      "öff": 839,
      "▁ange": 840,
      "▁et": 841,
      "▁Recht": 842,
      "ast": 843,
      "gesch": 844,
      "ienst": 845,
      "inder": 846,
      "▁Website": 847,
      "▁immer": 848,
      "gan": 849,
      "▁wo": 850,
      "äß": 851,
      "▁Wenn": 852,
      "▁eigen": 853,
      "tige": 854,
      "pt": 855,
      "führ": 856,
      "▁Diese": 857,
      "▁Arb": 858,
      "pro": 859,
      "▁wurden": 860,
      "äch": 861,
      "▁keine": 862,
      "inn": 863,
      "schutz": 864,
      "eln": 865,
      "zt": 866,
      "ell": 867,
      "▁Al": 868,
      "▁her": 869,
      "vor": 870,
      "ichtig": 871,
      "▁Teil": 872,
      "stän": 873,
      "▁Webs": 874,
      "res": 875,
      "▁sehr": 876,
      "▁dir": 877,
      "▁jed": 878,
      "▁lie": 879,
      "▁Se": 880,
      "▁ger": 881,
      "▁Du": 882,
      "▁Beit": 883,
      "▁ins": 884,
      "ammen": 885,
      "gung": 886,
      "▁gibt": 887,
      "sät": 888,
      "ha": 889,
      "▁diesem": 890,
      "adt": 891,
      "▁Or": 892,
      "lo": 893,
      "ße": 894,
      "men": 895,
      "stellen": 896,
      "sche": 897,
      "▁gem": 898,
      "gend": 899,
      "▁Pl": 900,
      "fach": 901,
      "hem": 902,
      "▁Seiten": 903,
      "age": 904,
      "enutz": 905,
      "zeich": 906,
      "iv": 907,
      "▁zwei": 908,
      "richt": 909,
      "▁Gesch": 910,
      "zie": 911,
      "wort": 912,
      "wick": 913,
      "▁Regel": 914,
      "▁möglich": 915,
      "ate": 916,
      "▁bie": 917,
      "reich": 918,
      "amit": 919,
      "ord": 920,
      "▁zw": 921,
      "▁dein": 922,
      "lä": 923,
      "los": 924,
      "ts": 925,
      "▁erforder": 926,
      "geben": 927,
      "ran": 928,
      "wendet": 929,
      "issen": 930,
      "▁was": 931,
      "lung": 932,
      "klär": 933,
      "reis": 934,
      "rin": 935,
      "entlich": 936,
      "▁Ste": 937,
      "▁Für": 938,
      "▁recht": 939,
      "icher": 940,
      "▁ohne": 941,
      "▁verwendet": 942,
      "▁Funktion": 943,
      "lau": 944,
      "ke": 945,
      "üs": 946,
      "atur": 947,
      "schließ": 948,
      "▁Deut": 949,
      "ohn": 950,
      "▁gesch": 951,
      "öch": 952,
      "▁schon": 953,
      "eting": 954,
      "eist": 955,
      "▁ihre": 956,
      "▁gel": 957,
      "bau": 958,
      "spre": 959,
      "▁c": 960,
      "ähl": 961,
      "▁Land": 962,
      "etzung": 963,
      "stand": 964,
      "▁Ä": 965,
      "▁erforderlich": 966,
      "eg": 967,
      "ech": 968,
      "ale": 969,
      ").": 970,
      "▁etw": 971,
      "▁Ihnen": 972,
      "▁beg": 973,
      "agen": 974,
      "recht": 975,
      "▁Kon": 976,
      "ia": 977,
      "spiel": 978,
      "olog": 979,
      "▁Menschen": 980,
      "▁Bes": 981,
      "▁Intern": 982,
      "▁unsere": 983,
      "rank": 984,
      "cken": 985,
      "▁selbst": 986,
      "▁le": 987,
      "osten": 988,
      "kten": 989,
      "▁Was": 990,
      "ail": 991,
      "▁ganz": 992,
      "od": 993,
      "qu": 994,
      "▁Gew": 995,
      "▁unserer": 996,
      "▁erfol": 997,
      "möglich": 998,
      "alen": 999,
      "iger": 1000,
      "▁Aut": 1001,
      "▁Marketing": 1002,
      "rö": 1003,
      "net": 1004,
      "unkt": 1005,
      "▁gesp": 1006,
      "▁wel": 1007,
      "reu": 1008,
      "▁Bl": 1009,
      "eitung": 1010,
      "rach": 1011,
      "▁Q": 1012,
      "hör": 1013,
      "▁Nutzung": 1014,
      "ften": 1015,
      "),": 1016,
      "mäß": 1017,
      "urg": 1018,
      "halb": 1019,
      "▁bet": 1020,
      "esen": 1021,
      "fall": 1022,
      "▁Benutz": 1023,
      "min": 1024,
      "eim": 1025,
      "▁verw": 1026,
      "▁Lin": 1027,
      "▁Komm": 1028,
      "hin": 1029,
      "▁pro": 1030,
      "▁diesen": 1031,
      "bieter": 1032,
      "▁deut": 1033,
      "sam": 1034,
      "▁Ger": 1035,
      "▁anderen": 1036,
      "ov": 1037,
      "rün": 1038,
      "▁Eur": 1039,
      "sätz": 1040,
      "▁Kont": 1041,
      "▁Ur": 1042,
      "nehm": 1043,
      "▁finden": 1044,
      "stem": 1045,
      "unde": 1046,
      "sto": 1047,
      "iken": 1048,
      "ält": 1049,
      "▁Spiel": 1050,
      "▁beim": 1051,
      "ww": 1052,
      "ierte": 1053,
      "halt": 1054,
      "zw": 1055,
      "▁Eine": 1056,
      "oren": 1057,
      "▁bestimm": 1058,
      "▁dazu": 1059,
      "kann": 1060,
      "▁Internet": 1061,
      "ere": 1062,
      "ett": 1063,
      "▁einfach": 1064,
      "etzen": 1065,
      "ele": 1066,
      "ron": 1067,
      "aut": 1068,
      "ust": 1069,
      "▁son": 1070,
      "▁gest": 1071,
      "▁Dies": 1072,
      "mittel": 1073,
      "zeu": 1074,
      "▁Kinder": 1075,
      "sver": 1076,
      "ondere": 1077,
      "▁zwischen": 1078,
      "rem": 1079,
      "stellung": 1080,
      "▁dich": 1081,
      "▁Am": 1082,
      "▁damit": 1083,
      "schieden": 1084,
      "▁Fa": 1085,
      "arten": 1086,
      "itz": 1087,
      "ystem": 1088,
      "▁De": 1089,
      "bild": 1090,
      "omp": 1091,
      "zei": 1092,
      "▁Ich": 1093,
      "▁Seite": 1094,
      "rupp": 1095,
      "▁Ro": 1096,
      "kommen": 1097,
      "▁neue": 1098,
      "▁Durch": 1099,
      "äden": 1100,
      "beding": 1101,
      "satz": 1102,
      "▁Und": 1103,
      "anden": 1104,
      "▁gespeicher": 1105,
      "▁Grund": 1106,
      "ow": 1107,
      "weg": 1108,
      "cher": 1109,
      "▁Hand": 1110,
      "gra": 1111,
      "▁gut": 1112,
      "▁Wie": 1113,
      "▁Produ": 1114,
      "me": 1115,
      "vers": 1116,
      "schließlich": 1117,
      "line": 1118,
      "ktue": 1119,
      "▁müs": 1120,
      "zial": 1121,
      "ug": 1122,
      "▁Geb": 1123,
      "▁Jahren": 1124,
      "ehen": 1125,
      "fern": 1126,
      "▁Weiter": 1127,
      "stehen": 1128,
      "▁Board": 1129,
      "auer": 1130,
      "▁zurück": 1131,
      "▁jedoch": 1132,
      "▁jeder": 1133,
      "zent": 1134,
      "olgen": 1135,
      "▁Mar": 1136,
      "bung": 1137,
      "tem": 1138,
      "ühren": 1139,
      "eute": 1140,
      "our": 1141,
      "uten": 1142,
      "fahren": 1143,
      "ce": 1144,
      "tur": 1145,
      "tag": 1146,
      "amen": 1147,
      "▁Bau": 1148,
      "keiten": 1149,
      "▁frei": 1150,
      "▁Reg": 1151,
      "▁Stadt": 1152,
      "▁All": 1153,
      "hand": 1154,
      "▁Fl": 1155,
      "▁blei": 1156,
      "hält": 1157,
      "lage": 1158,
      "▁Med": 1159,
      "▁Auch": 1160,
      "▁per": 1161,
      "burg": 1162,
      "ations": 1163,
      "stimmung": 1164,
      "mer": 1165,
      "ven": 1166,
      "▁muss": 1167,
      "ition": 1168,
      "▁Ch": 1169,
      "▁Mus": 1170,
      "▁mich": 1171,
      "▁Ra": 1172,
      "▁Benutzer": 1173,
      "aden": 1174,
      "land": 1175,
      "nahm": 1176,
      "▁Tag": 1177,
      "▁ausge": 1178,
      "▁viele": 1179,
      "nte": 1180,
      "▁Unternehmen": 1181,
      "ph": 1182,
      "zahl": 1183,
      "ak": 1184,
      "zug": 1185,
      "ilt": 1186,
      "▁ausschließlich": 1187,
      "▁Verb": 1188,
      "ogen": 1189,
      "▁Person": 1190,
      "stüt": 1191,
      "ander": 1192,
      "ack": 1193,
      "unter": 1194,
      "▁allein": 1195,
      "yp": 1196,
      "itte": 1197,
      "akt": 1198,
      "▁Lie": 1199,
      "uchen": 1200,
      "uer": 1201,
      "io": 1202,
      "ennt": 1203,
      "wir": 1204,
      "▁seine": 1205,
      "öffentlich": 1206,
      "▁Än": 1207,
      "ohl": 1208,
      "einer": 1209,
      "▁wen": 1210,
      "ischer": 1211,
      "resse": 1212,
      "▁habe": 1213,
      "besondere": 1214,
      "rieb": 1215,
      "fil": 1216,
      "▁Mo": 1217,
      "gang": 1218,
      "Mail": 1219,
      "ucht": 1220,
      "ufen": 1221,
      "▁Wei": 1222,
      "tigt": 1223,
      "punkt": 1224,
      "▁dieses": 1225,
      "▁Datenschutz": 1226,
      "▁/": 1227,
      "ay": 1228,
      "fiz": 1229,
      "▁einz": 1230,
      "▁dabei": 1231,
      "undes": 1232,
      "ichte": 1233,
      "ruck": 1234,
      "▁verschieden": 1235,
      "schei": 1236,
      "schland": 1237,
      "isk": 1238,
      "stalt": 1239,
      "ende": 1240,
      "örper": 1241,
      "räge": 1242,
      "pti": 1243,
      "▁bereits": 1244,
      "▁müssen": 1245,
      "amt": 1246,
      "▁Inter": 1247,
      "▁gilt": 1248,
      "“,": 1249,
      "glie": 1250,
      "▁Haus": 1251,
      "xt": 1252,
      "▁Verl": 1253,
      "▁Statist": 1254,
      "sk": 1255,
      "alität": 1256,
      "ehl": 1257,
      "für": 1258,
      "▁Zus": 1259,
      "▁möch": 1260,
      "▁erst": 1261,
      "scha": 1262,
      "sprechen": 1263,
      "▁seit": 1264,
      "▁Gen": 1265,
      "▁Them": 1266,
      "▁machen": 1267,
      "▁Techn": 1268,
      "licher": 1269,
      "▁komm": 1270,
      "▁Arbeit": 1271,
      "antwort": 1272,
      "▁Nutzungs": 1273,
      "▁waren": 1274,
      "▁&": 1275,
      "rain": 1276,
      "ost": 1277,
      "▁Hier": 1278,
      "oten": 1279,
      "ade": 1280,
      "ER": 1281,
      "essen": 1282,
      "▁Jahre": 1283,
      "▁Pf": 1284,
      "In": 1285,
      "äu": 1286,
      "▁geht": 1287,
      "▁verb": 1288,
      "▁Änder": 1289,
      "tschaft": 1290,
      "nahme": 1291,
      "▁ermöglich": 1292,
      "kun": 1293,
      "ember": 1294,
      "▁Als": 1295,
      "▁andere": 1296,
      "ahn": 1297,
      "lieben": 1298,
      "tik": 1299,
      "▁mir": 1300,
      "amil": 1301,
      "ute": 1302,
      "nehmer": 1303,
      "schein": 1304,
      "zer": 1305,
      "▁Ö": 1306,
      "▁Angeb": 1307,
      "▁Qu": 1308,
      "▁sondern": 1309,
      "▁Part": 1310,
      "▁Haft": 1311,
      "▁Hin": 1312,
      "ersön": 1313,
      "▁Dienst": 1314,
      "▁Gem": 1315,
      "▁Rei": 1316,
      "▁Welt": 1317,
      "▁Min": 1318,
      "ald": 1319,
      "eig": 1320,
      "▁zus": 1321,
      "▁Unser": 1322,
      "▁ob": 1323,
      "▁Uhr": 1324,
      "ium": 1325,
      "gangen": 1326,
      "ub": 1327,
      "▁Bild": 1328,
      "▁nutz": 1329,
      "▁Neu": 1330,
      "rage": 1331,
      "ös": 1332,
      "rad": 1333,
      "drück": 1334,
      "▁etwas": 1335,
      "ichten": 1336,
      "▁ersten": 1337,
      "▁Go": 1338,
      "lagen": 1339,
      "ierten": 1340,
      "onnen": 1341,
      "▁Deutschland": 1342,
      "ange": 1343,
      "▁letz": 1344,
      "ware": 1345,
      "olle": 1346,
      "rat": 1347,
      "▁Vertrag": 1348,
      "▁zusammen": 1349,
      "▁Ihrer": 1350,
      "hol": 1351,
      "alis": 1352,
      "ide": 1353,
      "▁Frau": 1354,
      "▁Fahr": 1355,
      "jekt": 1356,
      "fte": 1357,
      "ider": 1358,
      "will": 1359,
      "▁Bereich": 1360,
      "zuf": 1361,
      "erg": 1362,
      "▁bzw": 1363,
      "alten": 1364,
      "St": 1365,
      "pr": 1366,
      "▁Zustimmung": 1367,
      "rän": 1368,
      "anbieter": 1369,
      "▁gleich": 1370,
      "tt": 1371,
      "änder": 1372,
      "sst": 1373,
      "▁jewei": 1374,
      "scht": 1375,
      "äd": 1376,
      "▁Statistiken": 1377,
      "ian": 1378,
      "▁hatte": 1379,
      "undheit": 1380,
      "mäßigen": 1381,
      "▁Schl": 1382,
      "▁lassen": 1383,
      "▁statist": 1384,
      "kannt": 1385,
      "ip": 1386,
      "nung": 1387,
      "igkeit": 1388,
      "ater": 1389,
      "ogle": 1390,
      "▁Art": 1391,
      "▁Bro": 1392,
      "ährend": 1393,
      "berg": 1394,
      "▁Ho": 1395,
      "▁besch": 1396,
      "grund": 1397,
      "atür": 1398,
      "wert": 1399,
      "▁El": 1400,
      "▁seiner": 1401,
      "▁schne": 1402,
      "ehmen": 1403,
      "▁Zwecken": 1404,
      "▁kommen": 1405,
      "kunft": 1406,
      "▁bieten": 1407,
      "▁Mon": 1408,
      "pflich": 1409,
      "▁aller": 1410,
      "▁Verfü": 1411,
      "▁gef": 1412,
      "▁aktue": 1413,
      "▁Man": 1414,
      "sicht": 1415,
      "▁Ser": 1416,
      "schluss": 1417,
      "▁nun": 1418,
      "▁Hau": 1419,
      "aum": 1420,
      "▁Le": 1421,
      "ym": 1422,
      "▁Ex": 1423,
      "▁statistischen": 1424,
      "bet": 1425,
      "▁insbesondere": 1426,
      "▁ihrer": 1427,
      "ubl": 1428,
      "chte": 1429,
      "olit": 1430,
      "raf": 1431,
      "▁Des": 1432,
      "▁eben": 1433,
      "stag": 1434,
      "indet": 1435,
      "riv": 1436,
      "▁Prä": 1437,
      "▁neuen": 1438,
      "under": 1439,
      "gabe": 1440,
      "▁de": 1441,
      "▁Möglich": 1442,
      "▁Vorlieben": 1443,
      "▁außer": 1444,
      "tes": 1445,
      "raum": 1446,
      "Ad": 1447,
      "gramm": 1448,
      "▁denn": 1449,
      "▁erhalten": 1450,
      "▁al": 1451,
      "umen": 1452,
      "▁Besuch": 1453,
      "▁Kunden": 1454,
      "▁rechtmäßigen": 1455,
      "▁opti": 1456,
      "ftware": 1457,
      "▁Kommun": 1458,
      "nit": 1459,
      "folgen": 1460,
      "▁drei": 1461,
      "einsam": 1462,
      "geh": 1463,
      "▁ausdrück": 1464,
      "so": 1465,
      "▁Ad": 1466,
      "eister": 1467,
      "asse": 1468,
      "▁sei": 1469,
      "dienst": 1470,
      "▁Such": 1471,
      "reichen": 1472,
      "▁ihren": 1473,
      "▁ex": 1474,
      "▁persön": 1475,
      "stellungen": 1476,
      "▁ar": 1477,
      "▁el": 1478,
      "gän": 1479,
      "▁sicher": 1480,
      "aly": 1481,
      "mann": 1482,
      "ständ": 1483,
      "▁unseren": 1484,
      "▁Woch": 1485,
      "▁allen": 1486,
      "isches": 1487,
      "▁darauf": 1488,
      "▁Schul": 1489,
      "urz": 1490,
      "▁On": 1491,
      "▁Körper": 1492,
      "▁aktiv": 1493,
      "ffe": 1494,
      "haus": 1495,
      "▁Bundes": 1496,
      "fä": 1497,
      "▁besonder": 1498,
      "▁zusätz": 1499,
      "kehr": 1500,
      "verb": 1501,
      "▁welche": 1502,
      "are": 1503,
      "jahr": 1504,
      "▁erklär": 1505,
      "▁sollte": 1506,
      "ule": 1507,
      "ünst": 1508,
      "man": 1509,
      "▁Ne": 1510,
      "dung": 1511,
      "öl": 1512,
      "▁Google": 1513,
      "▁Ha": 1514,
      "ats": 1515,
      "ite": 1516,
      "nisse": 1517,
      "▁...": 1518,
      "tz": 1519,
      "▁wichtig": 1520,
      "eicht": 1521,
      "ine": 1522,
      "angen": 1523,
      "ringen": 1524,
      "▁ho": 1525,
      "ilfe": 1526,
      "▁Gl": 1527,
      "werk": 1528,
      "▁verl": 1529,
      "leist": 1530,
      "ingen": 1531,
      "ote": 1532,
      "obil": 1533,
      "▁Wasser": 1534,
      "äre": 1535,
      "▁heute": 1536,
      "▁Famil": 1537,
      "ps": 1538,
      "▁Verfügung": 1539,
      "ultur": 1540,
      "▁Gesundheit": 1541,
      "▁erfolgt": 1542,
      "blem": 1543,
      "▁weitere": 1544,
      "▁alles": 1545,
      "▁sol": 1546,
      "prä": 1547,
      "▁Fot": 1548,
      "reten": 1549,
      "▁Rahmen": 1550,
      "▁Stud": 1551,
      "ugend": 1552,
      "ritt": 1553,
      "hau": 1554,
      "▁bietet": 1555,
      "falls": 1556,
      "▁Vers": 1557,
      "▁Sti": 1558,
      "▁verwenden": 1559,
      "ive": 1560,
      "ruch": 1561,
      "gleich": 1562,
      "je": 1563,
      "zogen": 1564,
      "ähn": 1565,
      "▁Lebens": 1566,
      "▁Webseite": 1567,
      "▁Links": 1568,
      "lossen": 1569,
      "gl": 1570,
      "schied": 1571,
      "sel": 1572,
      "▁Frei": 1573,
      "▁Beitrag": 1574,
      "äm": 1575,
      "orden": 1576,
      "ilder": 1577,
      "▁kein": 1578,
      "arbeiter": 1579,
      "inde": 1580,
      "heim": 1581,
      "▁einge": 1582,
      "wicklung": 1583,
      "hän": 1584,
      "▁schnell": 1585,
      "zung": 1586,
      "▁entsprechen": 1587,
      "▁mehrere": 1588,
      "▁Dar": 1589,
      "ice": 1590,
      "▁geb": 1591,
      "▁Mitglie": 1592,
      "▁Fall": 1593,
      "ign": 1594,
      "▁Ihren": 1595,
      "wser": 1596,
      "▁nutzen": 1597,
      "aufen": 1598,
      "▁ermöglichen": 1599,
      "▁jetzt": 1600,
      "▁statt": 1601,
      "mus": 1602,
      "heber": 1603,
      "rift": 1604,
      "arbeit": 1605,
      "kon": 1606,
      "▁stehen": 1607,
      "▁Gro": 1608,
      "▁ausdrücklich": 1609,
      "frei": 1610,
      "weit": 1611,
      "eren": 1612,
      "▁steht": 1613,
      "▁also": 1614,
      "▁letzten": 1615,
      "EN": 1616,
      "ändern": 1617,
      "kung": 1618,
      "eile": 1619,
      "▁Ti": 1620,
      "gaben": 1621,
      "feren": 1622,
      "tifiz": 1623,
      "örder": 1624,
      "▁Zusammen": 1625,
      "rum": 1626,
      "tigkeit": 1627,
      "▁Y": 1628,
      "anstalt": 1629,
      "liches": 1630,
      "▁folgen": 1631,
      "ker": 1632,
      "▁Bür": 1633,
      "äten": 1634,
      "▁doch": 1635,
      "leb": 1636,
      "otwend": 1637,
      "▁mein": 1638,
      "fang": 1639,
      "▁inter": 1640,
      "äft": 1641,
      "▁Wohn": 1642,
      "▁Kommunik": 1643,
      "▁Schäden": 1644,
      "weis": 1645,
      "▁gehör": 1646,
      "▁Stand": 1647,
      "▁voll": 1648,
      "klärung": 1649,
      "co": 1650,
      "bel": 1651,
      "▁Beiträge": 1652,
      "▁Alle": 1653,
      "legen": 1654,
      "aren": 1655,
      "▁deine": 1656,
      "▁Boards": 1657,
      "▁Team": 1658,
      "igung": 1659,
      "▁gemeinsam": 1660,
      "▁natür": 1661,
      "arbeiten": 1662,
      "ünf": 1663,
      "▁grö": 1664,
      "wor": 1665,
      "▁einmal": 1666,
      "icherheit": 1667,
      "▁seinen": 1668,
      "von": 1669,
      "▁allem": 1670,
      "bare": 1671,
      "bend": 1672,
      "▁Ihrem": 1673,
      "wendung": 1674,
      "▁Teilnehmer": 1675,
      "schaften": 1676,
      "▁vers": 1677,
      "▁fest": 1678,
      "▁Lu": 1679,
      "tiert": 1680,
      "asst": 1681,
      "▁Kontakt": 1682,
      "▁teil": 1683,
      "iskus": 1684,
      "--": 1685,
      "▁elekt": 1686,
      "▁mal": 1687,
      "▁en": 1688,
      "▁nie": 1689,
      "raft": 1690,
      "▁Ende": 1691,
      "ruppe": 1692,
      "Adresse": 1693,
      "▁Form": 1694,
      "gar": 1695,
      "▁Online": 1696,
      "▁Browser": 1697,
      "eter": 1698,
      "▁Haftung": 1699,
      "▁Urheber": 1700,
      "▁Fach": 1701,
      "▁lang": 1702,
      "▁Werbung": 1703,
      "sw": 1704,
      "igit": 1705,
      "▁will": 1706,
      "▁hoch": 1707,
      "bedingt": 1708,
      "orgen": 1709,
      "▁Fr": 1710,
      "ergie": 1711,
      "▁gespeichert": 1712,
      "ganis": 1713,
      "▁Hö": 1714,
      "▁Rück": 1715,
      "gew": 1716,
      "unst": 1717,
      "ktur": 1718,
      "▁kommt": 1719,
      "//": 1720,
      "▁Sa": 1721,
      "▁beste": 1722,
      "▁bef": 1723,
      "▁Hoch": 1724,
      "▁em": 1725,
      "agt": 1726,
      "▁[": 1727,
      "amp": 1728,
      "iskussion": 1729,
      "▁Musik": 1730,
      "▁Kar": 1731,
      "▁Berlin": 1732,
      "äuf": 1733,
      "▁Änderungen": 1734,
      "stra": 1735,
      "▁dort": 1736,
      "▁Jugend": 1737,
      "▁wei": 1738,
      "CH": 1739,
      "uß": 1740,
      "▁Sport": 1741,
      "isten": 1742,
      "arbeitung": 1743,
      "▁Euro": 1744,
      "▁person": 1745,
      "▁Stra": 1746,
      "achsen": 1747,
      "▁mus": 1748,
      "ober": 1749,
      "://": 1750,
      "▁Son": 1751,
      "▁deren": 1752,
      "achten": 1753,
      "rist": 1754,
      "ens": 1755,
      "▁Fil": 1756,
      "▁spiel": 1757,
      "▁bleiben": 1758,
      "▁Schw": 1759,
      "inanz": 1760,
      "deu": 1761,
      ".“": 1762,
      "oder": 1763,
      "▁unterstüt": 1764,
      "orf": 1765,
      "▁for": 1766,
      "▁jederzeit": 1767,
      "▁Mitarbeiter": 1768,
      "org": 1769,
      "nungen": 1770,
      "ählen": 1771,
      "▁wür": 1772,
      "▁ähn": 1773,
      "iere": 1774,
      "eitet": 1775,
      "▁Arbeits": 1776,
      "test": 1777,
      "iell": 1778,
      "anzen": 1779,
      "baren": 1780,
      "cker": 1781,
      "els": 1782,
      "▁Gemein": 1783,
      "▁Aber": 1784,
      "▁Verein": 1785,
      "▁hinaus": 1786,
      "▁während": 1787,
      "zieh": 1788,
      "ites": 1789,
      "▁Ph": 1790,
      "iet": 1791,
      "▁dafür": 1792,
      "▁beiden": 1793,
      "üss": 1794,
      "▁Ziel": 1795,
      "ring": 1796,
      "▁geben": 1797,
      "▁Fre": 1798,
      "▁konnte": 1799,
      "rauch": 1800,
      "standen": 1801,
      "▁Europ": 1802,
      "enntnis": 1803,
      "▁hand": 1804,
      "▁Leist": 1805,
      "wohl": 1806,
      "nahmen": 1807,
      "▁notwend": 1808,
      "Sch": 1809,
      "erk": 1810,
      "als": 1811,
      "fon": 1812,
      "itu": 1813,
      "▁Buch": 1814,
      "▁Besch": 1815,
      "itzen": 1816,
      "lex": 1817,
      "reifen": 1818,
      "▁Natur": 1819,
      "▁Rechtsver": 1820,
      "sl": 1821,
      "nten": 1822,
      "▁Projekt": 1823,
      "▁unserem": 1824,
      "voll": 1825,
      "▁eigenen": 1826,
      "▁Beg": 1827,
      "etter": 1828,
      "aktiv": 1829,
      "▁rund": 1830,
      "bereich": 1831,
      "zuführen": 1832,
      "rich": 1833,
      "hop": 1834,
      "▁Funktional": 1835,
      "▁vielen": 1836,
      "tieren": 1837,
      "▁sehen": 1838,
      "allen": 1839,
      "▁gelten": 1840,
      "rieben": 1841,
      "▁näch": 1842,
      "stens": 1843,
      "▁Chr": 1844,
      "▁Funktionen": 1845,
      "▁Technolog": 1846,
      "▁wollen": 1847,
      "com": 1848,
      "feld": 1849,
      "ert": 1850,
      "▁ü": 1851,
      "welt": 1852,
      "rigen": 1853,
      "eint": 1854,
      "gestellt": 1855,
      "IN": 1856,
      "▁Zugang": 1857,
      "av": 1858,
      "▁verfolgen": 1859,
      "▁gerne": 1860,
      "az": 1861,
      "gor": 1862,
      "ellschaft": 1863,
      "▁Weg": 1864,
      "▁Ort": 1865,
      "▁Nov": 1866,
      "urt": 1867,
      "▁Co": 1868,
      "▁bestimmten": 1869,
      "änger": 1870,
      "bildung": 1871,
      "▁Dritten": 1872,
      "det": 1873,
      "▁Vert": 1874,
      "▁ind": 1875,
      "▁direkt": 1876,
      "chten": 1877,
      "▁kosten": 1878,
      "▁Mehr": 1879,
      "gangenen": 1880,
      "▁Verletzung": 1881,
      "uni": 1882,
      "▁Fragen": 1883,
      "ative": 1884,
      "reiben": 1885,
      "▁Br": 1886,
      "▁unbedingt": 1887,
      "__": 1888,
      "iels": 1889,
      "issenschaft": 1890,
      "▁Dritt": 1891,
      "▁Websites": 1892,
      "ativ": 1893,
      "esse": 1894,
      "▁Mann": 1895,
      "ührt": 1896,
      "▁Personen": 1897,
      "senden": 1898,
      "▁elektron": 1899,
      "▁Ob": 1900,
      "uter": 1901,
      "▁Mal": 1902,
      "▁nehmen": 1903,
      "▁entwick": 1904,
      "▁ihm": 1905,
      "▁US": 1906,
      "legt": 1907,
      "▁erstellen": 1908,
      "▁Autor": 1909,
      "▁besser": 1910,
      "ational": 1911,
      "▁Problem": 1912,
      "netz": 1913,
      "▁veröffentlich": 1914,
      "▁macht": 1915,
      "mo": 1916,
      "▁gewün": 1917,
      "▁etwa": 1918,
      "▁Publ": 1919,
      "▁Platz": 1920,
      "▁liegt": 1921,
      "▁Angebot": 1922,
      "einander": 1923,
      "zeug": 1924,
      "itäten": 1925,
      "ühl": 1926,
      "schnit": 1927,
      "mb": 1928,
      "ständig": 1929,
      "ets": 1930,
      "rotz": 1931,
      "▁eigene": 1932,
      "ennen": 1933,
      "icken": 1934,
      "▁denen": 1935,
      "ans": 1936,
      "▁Regelungen": 1937,
      "asser": 1938,
      "▁freiwill": 1939,
      "▁fahr": 1940,
      "vertrag": 1941,
      "▁ben": 1942,
      "▁Nachricht": 1943,
      "▁Vide": 1944,
      "vice": 1945,
      "▁Erfahr": 1946,
      "▁Fol": 1947,
      "▁Thema": 1948,
      "spro": 1949,
      "▁Diskussion": 1950,
      "▁darüber": 1951,
      "▁Kunst": 1952,
      "▁.": 1953,
      "▁on": 1954,
      "▁weil": 1955,
      "ony": 1956,
      "if": 1957,
      "bo": 1958,
      "ame": 1959,
      "An": 1960,
      "führt": 1961,
      "tragung": 1962,
      "ity": 1963,
      "▁bel": 1964,
      "▁lei": 1965,
      "hö": 1966,
      "▁Je": 1967,
      "▁oft": 1968,
      "ott": 1969,
      "urs": 1970,
      "erklärung": 1971,
      "immt": 1972,
      "fluss": 1973,
      "ress": 1974,
      "▁einige": 1975,
      "▁Jan": 1976,
      "zü": 1977,
      "▁The": 1978,
      "walt": 1979,
      "▁erste": 1980,
      "▁keinen": 1981,
      "▁jeweil": 1982,
      "▁Energie": 1983,
      "ivers": 1984,
      "▁Mär": 1985,
      "▁“": 1986,
      "jähr": 1987,
      "▁bin": 1988,
      "▁We": 1989,
      "▁Beispiel": 1990,
      "liegen": 1991,
      "schung": 1992,
      "▁Pass": 1993,
      "▁Frauen": 1994,
      "▁zusätzliche": 1995,
      "gemein": 1996,
      "▁kom": 1997,
      "äter": 1998,
      "des": 1999,
      "▁Eigen": 2000,
      "▁gek": 2001,
      "▁Ober": 2002,
      "iges": 2003,
      "▁meine": 2004,
      "▁or": 2005,
      "enten": 2006,
      "dentifiz": 2007,
      "▁sollten": 2008,
      "▁genau": 2009,
      "▁inner": 2010,
      "▁Ohne": 2011,
      "▁Veranstalt": 2012,
      "▁Jul": 2013,
      "tember": 2014,
      "“.": 2015,
      "▁Li": 2016,
      "▁bereit": 2017,
      "▁erfolg": 2018,
      "zweck": 2019,
      "▁Cor": 2020,
      "lad": 2021,
      "gement": 2022,
      "ac": 2023,
      "▁Sicherheit": 2024,
      "stadt": 2025,
      "▁Grün": 2026,
      "▁besonders": 2027,
      "fort": 2028,
      "laub": 2029,
      "fordert": 2030,
      "rom": 2031,
      "▁große": 2032,
      "▁gestat": 2033,
      "▁großen": 2034,
      "druck": 2035,
      "auft": 2036,
      "▁ihn": 2037,
      "▁Th": 2038,
      "ategor": 2039,
      "euer": 2040,
      "▁Pol": 2041,
      "flä": 2042,
      "▁Kenntnis": 2043,
      "ager": 2044,
      "▁stark": 2045,
      "▁Geschäft": 2046,
      "gerufen": 2047,
      "Ver": 2048,
      "▁Schü": 2049,
      "terial": 2050,
      "▁hei": 2051,
      "▁möchten": 2052,
      "ore": 2053,
      "▁Okt": 2054,
      "▁of": 2055,
      "enk": 2056,
      "▁vert": 2057,
      "▁we": 2058,
      "▁Fir": 2059,
      "up": 2060,
      "▁erteil": 2061,
      "ündig": 2062,
      "li": 2063,
      "▁Analy": 2064,
      "inter": 2065,
      "▁spe": 2066,
      "olz": 2067,
      "▁Möglichkeit": 2068,
      "lebnis": 2069,
      "eichern": 2070,
      "ürfen": 2071,
      "▁ph": 2072,
      "vent": 2073,
      "▁Dr": 2074,
      "spruch": 2075,
      "ose": 2076,
      "▁natürlich": 2077,
      "af": 2078,
      "bedingungen": 2079,
      "besser": 2080,
      "klich": 2081,
      "▁Lei": 2082,
      "▁Inst": 2083,
      "▁gar": 2084,
      "tikel": 2085,
      "▁Sep": 2086,
      "▁Kir": 2087,
      "ister": 2088,
      "unkte": 2089,
      "▁Zahl": 2090,
      "▁zeit": 2091,
      "▁Software": 2092,
      "▁verm": 2093,
      "▁the": 2094,
      "▁einzel": 2095,
      "▁setzen": 2096,
      "llt": 2097,
      "▁Denn": 2098,
      "▁Aug": 2099,
      "kauf": 2100,
      "▁Unsere": 2101,
      "uelle": 2102,
      "▁Einsatz": 2103,
      "▁kannst": 2104,
      "leben": 2105,
      "tlich": 2106,
      "▁Selbst": 2107,
      "sprach": 2108,
      "▁Mai": 2109,
      "▁Ter": 2110,
      "▁gegenüber": 2111,
      "dings": 2112,
      "▁seinem": 2113,
      "folg": 2114,
      "stellten": 2115,
      "ließen": 2116,
      "▁gehen": 2117,
      "sol": 2118,
      "▁vier": 2119,
      "▁empf": 2120,
      "▁Sta": 2121,
      "AN": 2122,
      "▁Prozent": 2123,
      "durch": 2124,
      "▁Wochen": 2125,
      "▁Bilder": 2126,
      "ruppen": 2127,
      "▁November": 2128,
      "setzung": 2129,
      "▁Su": 2130,
      "weisen": 2131,
      "etten": 2132,
      "cke": 2133,
      "etzungen": 2134,
      "▁groß": 2135,
      "▁Gegen": 2136,
      "▁zahl": 2137,
      "▁Dabei": 2138,
      "▁Betrieb": 2139,
      "▁Mill": 2140,
      "▁Kommunikations": 2141,
      "▁Gewinn": 2142,
      "▁Me": 2143,
      "▁identifiz": 2144,
      "teg": 2145,
      "▁Gener": 2146,
      "wahl": 2147,
      "▁Oktober": 2148,
      "mar": 2149,
      "▁findet": 2150,
      "▁Lehr": 2151,
      "sta": 2152,
      "tigung": 2153,
      "herap": 2154,
      "▁jeden": 2155,
      "▁deines": 2156,
      "▁Preis": 2157,
      "antwortlich": 2158,
      "frage": 2159,
      "beg": 2160,
      "ckt": 2161,
      "▁Dez": 2162,
      "iss": 2163,
      "▁Verwendung": 2164,
      "▁bleibt": 2165,
      "zeichnungen": 2166,
      "▁bestimmte": 2167,
      "▁Haupt": 2168,
      "▁Von": 2169,
      "ino": 2170,
      "orn": 2171,
      "▁ihrem": 2172,
      "▁Juni": 2173,
      "bezogen": 2174,
      "ome": 2175,
      "▁Höhe": 2176,
      "▁Met": 2177,
      "▁offen": 2178,
      "tragen": 2179,
      "▁September": 2180,
      "▁Webseiten": 2181,
      "ings": 2182,
      "ionen": 2183,
      "▁Bitte": 2184,
      "▁Par": 2185,
      "lege": 2186,
      "▁lä": 2187,
      "▁hinweg": 2188,
      "anken": 2189,
      "▁Kosten": 2190,
      "▁Verhalten": 2191,
      "prü": 2192,
      "reise": 2193,
      "▁lö": 2194,
      "▁bestehen": 2195,
      "reffen": 2196,
      "▁Landes": 2197,
      "ette": 2198,
      "ys": 2199,
      "▁optimal": 2200,
      "fäl": 2201,
      "▁Doch": 2202,
      "statt": 2203,
      "opf": 2204,
      "ator": 2205,
      "▁Zeitpunkt": 2206,
      "▁arb": 2207,
      "räum": 2208,
      "▁Bed": 2209,
      "▁Auft": 2210,
      "▁Train": 2211,
      "immer": 2212,
      "affen": 2213,
      "licht": 2214,
      "ivid": 2215,
      "ktionen": 2216,
      "▁unterschied": 2217,
      "▁Übertragung": 2218,
      "wand": 2219,
      "ßt": 2220,
      "▁«": 2221,
      "ladung": 2222,
      "▁gestellt": 2223,
      "▁Bel": 2224,
      "▁App": 2225,
      "eigt": 2226,
      "file": 2227,
      "sterreich": 2228,
      "rägen": 2229,
      "▁Einfluss": 2230,
      "gegen": 2231,
      "▁Partner": 2232,
      "▁Schutz": 2233,
      "rakti": 2234,
      "▁deinen": 2235,
      "▁Prof": 2236,
      "▁Schwei": 2237,
      "▁gespeicherten": 2238,
      "▁Rechtsverl": 2239,
      "ase": 2240,
      "▁Dritter": 2241,
      "hle": 2242,
      "heiten": 2243,
      "▁besten": 2244,
      "daten": 2245,
      "▁bitte": 2246,
      "läss": 2247,
      "uell": 2248,
      "aar": 2249,
      "ons": 2250,
      "▁Abonnen": 2251,
      "▁anony": 2252,
      "stoff": 2253,
      "scher": 2254,
      "▁Krank": 2255,
      "ichtige": 2256,
      "racht": 2257,
      "▁sogar": 2258,
      "▁frü": 2259,
      "▁Mittel": 2260,
      "▁Qualität": 2261,
      "▁best": 2262,
      "▁§": 2263,
      "▁vorher": 2264,
      "ruktur": 2265,
      "▁interess": 2266,
      "▁Abonnenten": 2267,
      "zwecken": 2268,
      "zeigt": 2269,
      "▁Ide": 2270,
      "reiche": 2271,
      "one": 2272,
      "üd": 2273,
      "▁bew": 2274,
      "▁Bürger": 2275,
      "▁Entwicklung": 2276,
      "▁na": 2277,
      "▁Ko": 2278,
      "▁versenden": 2279,
      "\",": 2280,
      "anten": 2281,
      "▁Frank": 2282,
      "▁Neben": 2283,
      "gehend": 2284,
      "▁deinem": 2285,
      "atei": 2286,
      "▁Zukunft": 2287,
      "▁Technologien": 2288,
      "▁Wor": 2289,
      "▁bed": 2290,
      "▁abge": 2291,
      "stein": 2292,
      "aß": 2293,
      "“)": 2294,
      "pen": 2295,
      "▁wes": 2296,
      "ferenzen": 2297,
      "ure": 2298,
      "sprech": 2299,
      "▁Ant": 2300,
      "www": 2301,
      "olitik": 2302,
      "▁Tran": 2303,
      "▁speichern": 2304,
      "ona": 2305,
      "ommer": 2306,
      "lichkeit": 2307,
      "▁Cookie": 2308,
      "hof": 2309,
      "▁Viel": 2310,
      "gehen": 2311,
      "▁Schüler": 2312,
      "mbH": 2313,
      "▁verschiedenen": 2314,
      "Die": 2315,
      "▁reg": 2316,
      "▁kleine": 2317,
      "platz": 2318,
      "▁verfü": 2319,
      "▁identifizieren": 2320,
      "▁ähnlichen": 2321,
      "utter": 2322,
      "▁Folgen": 2323,
      "elfen": 2324,
      "▁stellen": 2325,
      "▁gute": 2326,
      "▁Raum": 2327,
      "sport": 2328,
      "▁Geld": 2329,
      "▁Fest": 2330,
      "fre": 2331,
      "▁Vort": 2332,
      "zel": 2333,
      "▁System": 2334,
      "▁abgerufen": 2335,
      "▁www": 2336,
      "▁Apr": 2337,
      "▁lange": 2338,
      "▁inform": 2339,
      "ruf": 2340,
      "▁Hilfe": 2341,
      "▁Seit": 2342,
      "ül": 2343,
      "▁Nicht": 2344,
      "▁davon": 2345,
      "▁aut": 2346,
      "ball": 2347,
      "▁Kultur": 2348,
      "▁mei": 2349,
      "▁priv": 2350,
      "▁Medien": 2351,
      "blick": 2352,
      "führung": 2353,
      "▁individ": 2354,
      "▁htt": 2355,
      "▁kont": 2356,
      "haft": 2357,
      "ente": 2358,
      "Pro": 2359,
      "uar": 2360,
      "▁freiwillige": 2361,
      "▁Dienstes": 2362,
      "reg": 2363,
      "▁Bas": 2364,
      "▁hinter": 2365,
      "sy": 2366,
      "▁Urheberrecht": 2367,
      "▁Ergeb": 2368,
      "ris": 2369,
      "▁anonymen": 2370,
      "▁Erschein": 2371,
      "▁verlin": 2372,
      "▁durchzuführen": 2373,
      "indung": 2374,
      "ffiz": 2375,
      "▁neben": 2376,
      "stelle": 2377,
      "ight": 2378,
      "Ein": 2379,
      "buch": 2380,
      "▁Mün": 2381,
      "▁Titel": 2382,
      "▁brau": 2383,
      "▁lässt": 2384,
      "▁gl": 2385,
      "▁März": 2386,
      "urf": 2387,
      "▁Nutzungsvertrag": 2388,
      "profile": 2389,
      "▁Aufzeichnungen": 2390,
      "▁daher": 2391,
      "▁Zum": 2392,
      "▁Dezember": 2393,
      "▁se": 2394,
      "▁verschiedene": 2395,
      "▁Namen": 2396,
      "▁Nie": 2397,
      "genommen": 2398,
      "▁Per": 2399,
      "ache": 2400,
      "lan": 2401,
      "anbieters": 2402,
      "▁Christ": 2403,
      "▁ja": 2404,
      "▁Richt": 2405,
      "▁tä": 2406,
      "▁August": 2407,
      "▁Weitere": 2408,
      "▁Wirtschaft": 2409,
      "▁New": 2410,
      "▁Anbieter": 2411,
      "izin": 2412,
      "▁GmbH": 2413,
      "ienste": 2414,
      "▁Kategor": 2415,
      "▁angefordert": 2416,
      "BB": 2417,
      "elle": 2418,
      "▁gewünscht": 2419,
      "▁Stelle": 2420,
      "▁Beruf": 2421,
      "▁elektronisches": 2422,
      "ienen": 2423,
      "uren": 2424,
      "arte": 2425,
      "▁Em": 2426,
      "▁abgerufenen": 2427,
      "▁April": 2428,
      "▁alleinigen": 2429,
      "▁ebenfalls": 2430,
      "ählt": 2431,
      "▁€": 2432,
      "aler": 2433,
      "▁gerade": 2434,
      "ession": 2435,
      "▁Internetdienst": 2436,
      "ielt": 2437,
      "elten": 2438,
      "▁heraus": 2439,
      "▁mittel": 2440,
      "▁Programm": 2441,
      "▁entsprechenden": 2442,
      "ix": 2443,
      "▁Weise": 2444,
      "ichtigen": 2445,
      "▁Juli": 2446,
      "gesetzt": 2447,
      "▁Nutzerprofile": 2448,
      "inen": 2449,
      "▁kurz": 2450,
      "stück": 2451,
      "▁persönlichen": 2452,
      "inger": 2453,
      "zept": 2454,
      "▁frem": 2455,
      "yn": 2456,
      "ima": 2457,
      "omati": 2458,
      "▁besteht": 2459,
      "▁Den": 2460,
      "arm": 2461,
      "schul": 2462,
      "arf": 2463,
      "▁prä": 2464,
      "▁hatten": 2465,
      "werb": 2466,
      "angeb": 2467,
      "inal": 2468,
      "zeichnet": 2469,
      "▁berech": 2470,
      "scheiden": 2471,
      "▁Erscheinungs": 2472,
      "▁Zur": 2473,
      "▁schw": 2474,
      "ollen": 2475,
      "sehen": 2476,
      "▁Gewähr": 2477,
      "▁Dir": 2478,
      "ssi": 2479,
      "▁darf": 2480,
      "▁erstellt": 2481,
      "▁Wider": 2482,
      "▁nichts": 2483,
      "▁möchte": 2484,
      "▁Ka": 2485,
      "▁EU": 2486,
      "▁Lös": 2487,
      "brigen": 2488,
      "▁Markt": 2489,
      "▁gab": 2490,
      "reuen": 2491,
      "Sp": 2492,
      "usst": 2493,
      "▁wenig": 2494,
      "mals": 2495,
      "▁öff": 2496,
      "äus": 2497,
      "zep": 2498,
      "▁Kn": 2499,
      "alter": 2500,
      "▁Fä": 2501,
      "istr": 2502,
      "own": 2503,
      "deut": 2504,
      "▁Kom": 2505,
      "▁Geschichte": 2506,
      "▁Eltern": 2507,
      "▁Artikel": 2508,
      "itten": 2509,
      "schule": 2510,
      "▁benö": 2511,
      "▁sofern": 2512,
      "▁Tele": 2513,
      "▁wirklich": 2514,
      "▁Netz": 2515,
      "zeitig": 2516,
      "▁umf": 2517,
      "▁gemacht": 2518,
      "▁ihnen": 2519,
      "▁wohl": 2520,
      "▁später": 2521,
      "▁jede": 2522,
      "▁»": 2523,
      "ib": 2524,
      "▁Hei": 2525,
      "▁aufge": 2526,
      "▁Präferenzen": 2527,
      "▁Plan": 2528,
      "spe": 2529,
      "▁sollen": 2530,
      "▁könnte": 2531,
      "ST": 2532,
      "▁Sk": 2533,
      "spf": 2534,
      "ieb": 2535,
      "spiels": 2536,
      "old": 2537,
      "▁Univers": 2538,
      "▁di": 2539,
      "▁Ins": 2540,
      "▁führen": 2541,
      "▁Kre": 2542,
      "▁get": 2543,
      "akti": 2544,
      "▁Januar": 2545,
      "wehr": 2546,
      "▁kleinen": 2547,
      "▁Vorladung": 2548,
      "änd": 2549,
      "ologie": 2550,
      "geber": 2551,
      "ond": 2552,
      "▁Familien": 2553,
      "▁schwer": 2554,
      "ehm": 2555,
      "komm": 2556,
      "häng": 2557,
      "▁Di": 2558,
      "sätzlich": 2559,
      "bach": 2560,
      "äum": 2561,
      "▁Jahres": 2562,
      "▁tun": 2563,
      "ance": 2564,
      "ment": 2565,
      "▁Bi": 2566,
      "bin": 2567,
      "▁Frage": 2568,
      "roffen": 2569,
      "ächst": 2570,
      "▁deutschen": 2571,
      "amer": 2572,
      "▁Themen": 2573,
      "▁innerhalb": 2574,
      "dent": 2575,
      "ernen": 2576,
      "rax": 2577,
      "▁intern": 2578,
      "ichtet": 2579,
      "▁erz": 2580,
      "▁Bü": 2581,
      "▁genann": 2582,
      "ausch": 2583,
      "lauf": 2584,
      "▁konnten": 2585,
      "▁fast": 2586,
      "entr": 2587,
      "▁folgenden": 2588,
      "▁Vol": 2589,
      "▁wider": 2590,
      "▁helfen": 2591,
      "lichten": 2592,
      "▁bist": 2593,
      "ummer": 2594,
      "ebook": 2595,
      "▁Unterstüt": 2596,
      "eten": 2597,
      "▁Ta": 2598,
      "tiger": 2599,
      "uellen": 2600,
      "zess": 2601,
      "reicht": 2602,
      "Un": 2603,
      "▁Feb": 2604,
      "▁He": 2605,
      "▁Tage": 2606,
      "ry": 2607,
      "▁guten": 2608,
      "▁Fac": 2609,
      "annen": 2610,
      "▁regel": 2611,
      "▁Kind": 2612,
      "unk": 2613,
      "▁Groß": 2614,
      "▁Passwort": 2615,
      "▁Verantwort": 2616,
      "▁ro": 2617,
      "▁u": 2618,
      "arbeitet": 2619,
      "auen": 2620,
      "▁IP": 2621,
      "▁dürfen": 2622,
      "▁Komment": 2623,
      "fest": 2624,
      "▁digit": 2625,
      "▁übern": 2626,
      "▁Sol": 2627,
      "▁Komp": 2628,
      "▁Arch": 2629,
      "▁verk": 2630,
      "▁konk": 2631,
      "besch": 2632,
      "▁jeweiligen": 2633,
      "▁aufgrund": 2634,
      "▁Dieser": 2635,
      "ruar": 2636,
      "▁Maß": 2637,
      "▁Start": 2638,
      "▁gesam": 2639,
      "erin": 2640,
      "▁Blick": 2641,
      "vest": 2642,
      "ellen": 2643,
      "▁nächsten": 2644,
      "eignet": 2645,
      "▁Rad": 2646,
      "werden": 2647,
      "opp": 2648,
      "rechen": 2649,
      "▁Fuß": 2650,
      "▁Ru": 2651,
      "▁handelt": 2652,
      "assung": 2653,
      "▁wahr": 2654,
      "▁Produkte": 2655,
      "▁verlinkten": 2656,
      "▁aktuellen": 2657,
      "▁trotz": 2658,
      "ah": 2659,
      "▁prof": 2660,
      "▁jeweils": 2661,
      "utt": 2662,
      "äte": 2663,
      "▁Gä": 2664,
      "▁ch": 2665,
      "▁personen": 2666,
      "▁Produkt": 2667,
      "▁würde": 2668,
      "pBB": 2669,
      "▁leben": 2670,
      "▁sozial": 2671,
      "▁Suche": 2672,
      "▁zun": 2673,
      "ielleicht": 2674,
      "▁Damit": 2675,
      "▁Dann": 2676,
      "▁zie": 2677,
      "▁Wert": 2678,
      "▁Soll": 2679,
      "cen": 2680,
      "▁schön": 2681,
      "▁Ham": 2682,
      "olf": 2683,
      "▁Region": 2684,
      "ieg": 2685,
      "zlich": 2686,
      "▁Gast": 2687,
      "▁Spe": 2688,
      "▁Fer": 2689,
      "meister": 2690,
      "fernen": 2691,
      "kont": 2692,
      "ände": 2693,
      "▁personenbezogen": 2694,
      "▁phpBB": 2695,
      "▁grob": 2696,
      "duz": 2697,
      "ppen": 2698,
      "jekte": 2699,
      "▁Kat": 2700,
      "▁euch": 2701,
      "spielsweise": 2702,
      "haltung": 2703,
      "▁Februar": 2704,
      "▁Film": 2705,
      "▁Frü": 2706,
      "▁Wahl": 2707,
      "ksam": 2708,
      "▁gesetz": 2709,
      "▁weit": 2710,
      "▁Gut": 2711,
      "ina": 2712,
      "▁Immer": 2713,
      "▁Werk": 2714,
      "ampf": 2715,
      "ool": 2716,
      "ller": 2717,
      "ches": 2718,
      "▁wäre": 2719,
      "tionen": 2720,
      "▁passen": 2721,
      "sätze": 2722,
      "rung": 2723,
      "▁Geschäfts": 2724,
      "▁stellt": 2725,
      "▁weniger": 2726,
      "sor": 2727,
      "▁Inf": 2728,
      "▁Text": 2729,
      "▁zeigt": 2730,
      "othe": 2731,
      "▁Minuten": 2732,
      "formationen": 2733,
      "▁Dem": 2734,
      "fühl": 2735,
      "rik": 2736,
      "fragen": 2737,
      "▁Mein": 2738,
      "▁Dank": 2739,
      "erst": 2740,
      "atung": 2741,
      "reit": 2742,
      "ins": 2743,
      "ären": 2744,
      "▁Familie": 2745,
      "ante": 2746,
      "▁fehl": 2747,
      "▁Lö": 2748,
      "▁and": 2749,
      "gebenen": 2750,
      "▁Alter": 2751,
      "äf": 2752,
      "seh": 2753,
      "forderungen": 2754,
      "▁And": 2755,
      "itter": 2756,
      "▁enthält": 2757,
      "tische": 2758,
      "fäh": 2759,
      "▁weiteren": 2760,
      "tic": 2761,
      "▁meiner": 2762,
      "iter": 2763,
      "inner": 2764,
      "▁Mode": 2765,
      "▁online": 2766,
      "▁Liefer": 2767,
      "▁Einzel": 2768,
      "▁ir": 2769,
      "atten": 2770,
      "▁angeb": 2771,
      "seite": 2772,
      "▁deiner": 2773,
      "▁+": 2774,
      "mäßig": 2775,
      "▁entfernen": 2776,
      "▁erfahren": 2777,
      "▁ca": 2778,
      "▁zeigen": 2779,
      "▁Fe": 2780,
      "ierungs": 2781,
      "▁end": 2782,
      "So": 2783,
      "▁worden": 2784,
      "agement": 2785,
      "▁Angebote": 2786,
      "icherung": 2787,
      "eier": 2788,
      "▁Priv": 2789,
      "▁Ele": 2790,
      "▁Holz": 2791,
      "sprü": 2792,
      "▁Gel": 2793,
      "▁einver": 2794,
      "ison": 2795,
      "artner": 2796,
      "uche": 2797,
      "▁notwendig": 2798,
      "▁Förder": 2799,
      "mel": 2800,
      "▁größ": 2801,
      "▁wissen": 2802,
      "▁sagt": 2803,
      "bert": 2804,
      "wirtschaft": 2805,
      "▁deutlich": 2806,
      "press": 2807,
      "▁bekannt": 2808,
      "▁verbesser": 2809,
      "▁War": 2810,
      "▁geschlossen": 2811,
      "port": 2812,
      "▁bringen": 2813,
      "▁meisten": 2814,
      "▁hät": 2815,
      "▁Kü": 2816,
      "▁Nieder": 2817,
      "▁Luft": 2818,
      "wohn": 2819,
      "▁kam": 2820,
      "▁Gren": 2821,
      "system": 2822,
      "▁Far": 2823,
      "rand": 2824,
      "ko": 2825,
      "urop": 2826,
      "▁funktion": 2827,
      "▁allerdings": 2828,
      "▁richtig": 2829,
      "fläche": 2830,
      "schw": 2831,
      "▁Sal": 2832,
      "grün": 2833,
      "▁Auswahl": 2834,
      "tisch": 2835,
      "zip": 2836,
      "▁einverstanden": 2837,
      "gesamt": 2838,
      "▁Material": 2839,
      "raxis": 2840,
      "ct": 2841,
      "▁Zwei": 2842,
      "vert": 2843,
      "▁ging": 2844,
      "▁Jo": 2845,
      "kungen": 2846,
      "▁enthalten": 2847,
      "da": 2848,
      "▁Sommer": 2849,
      "male": 2850,
      "▁dauer": 2851,
      "▁Foren": 2852,
      "osit": 2853,
      "▁Reise": 2854,
      "ograf": 2855,
      "schrift": 2856,
      "ziehen": 2857,
      "▁Tour": 2858,
      "▁Fern": 2859,
      "▁Umwelt": 2860,
      "artige": 2861,
      "par": 2862,
      "▁verantwortlich": 2863,
      "kreis": 2864,
      "sych": 2865,
      "▁Abend": 2866,
      "ram": 2867,
      "richten": 2868,
      "▁Mitglied": 2869,
      "▁At": 2870,
      "▁löschen": 2871,
      "ock": 2872,
      "▁Erfolg": 2873,
      "▁jedem": 2874,
      "ismus": 2875,
      ".)": 2876,
      "leistung": 2877,
      "▁arbeiten": 2878,
      "ission": 2879,
      "hren": 2880,
      "▁Beiträgen": 2881,
      "ünstler": 2882,
      "meld": 2883,
      "AR": 2884,
      "▁oben": 2885,
      "▁Gerät": 2886,
      "ou": 2887,
      "ums": 2888,
      "▁Tex": 2889,
      "▁Res": 2890,
      "▁Regeln": 2891,
      "▁typ": 2892,
      "schlag": 2893,
      "hein": 2894,
      "▁gehört": 2895,
      "▁Entschei": 2896,
      "▁Interessen": 2897,
      "▁Telefon": 2898,
      "▁erk": 2899,
      "gst": 2900,
      "erweise": 2901,
      "weiter": 2902,
      "▁Facebook": 2903,
      "ativen": 2904,
      "▁Auto": 2905,
      "▁Stunden": 2906,
      "echs": 2907,
      "osition": 2908,
      "▁Les": 2909,
      "wertung": 2910,
      "stö": 2911,
      "▁Pati": 2912,
      "lesen": 2913,
      "agte": 2914,
      "▁qu": 2915,
      "rieden": 2916,
      "▁Kin": 2917,
      "ief": 2918,
      "▁zwar": 2919,
      "▁Bar": 2920,
      "th": 2921,
      "ax": 2922,
      "lungs": 2923,
      "ots": 2924,
      "linie": 2925,
      "bark": 2926,
      "ular": 2927,
      "chnik": 2928,
      "▁entgangenen": 2929,
      "▁Abs": 2930,
      "▁mittelbare": 2931,
      "▁fr": 2932,
      "▁Sam": 2933,
      "▁bekommen": 2934,
      "radition": 2935,
      "dust": 2936,
      "▁umgehend": 2937,
      "▁Heim": 2938,
      "▁freuen": 2939,
      "▁Rechts": 2940,
      "dit": 2941,
      "rauen": 2942,
      "▁Ak": 2943,
      "▁Winter": 2944,
      "▁kennen": 2945,
      "▁Imm": 2946,
      "zeiten": 2947,
      "▁Sitz": 2948,
      "nei": 2949,
      "sent": 2950,
      "▁deutsch": 2951,
      "ain": 2952,
      "▁Feuer": 2953,
      "attform": 2954,
      "▁Aust": 2955,
      "▁fre": 2956,
      "▁unterstützen": 2957,
      "zeichen": 2958,
      "▁Corona": 2959,
      "entlichen": 2960,
      "▁häuf": 2961,
      "▁sowohl": 2962,
      "ügen": 2963,
      "▁Service": 2964,
      "gruppe": 2965,
      "teilt": 2966,
      "üssel": 2967,
      "deutet": 2968,
      "wech": 2969,
      "▁solche": 2970,
      "tiv": 2971,
      "▁Kraft": 2972,
      "▁Bekannt": 2973,
      "▁Verf": 2974,
      "▁bisher": 2975,
      "▁zuge": 2976,
      "herapie": 2977,
      "▁Erk": 2978,
      "▁erf": 2979,
      "▁Dienste": 2980,
      "▁benutz": 2981,
      "sf": 2982,
      "lungen": 2983,
      "gesetz": 2984,
      "unsch": 2985,
      "▁ersch": 2986,
      "▁liegen": 2987,
      "len": 2988,
      "▁Nord": 2989,
      "krä": 2990,
      "geschlossen": 2991,
      "▁Unterstützung": 2992,
      "mitt": 2993,
      "▁Herz": 2994,
      "▁stets": 2995,
      "▁kur": 2996,
      "▁Män": 2997,
      "▁Außer": 2998,
      "zus": 2999,
      "-,": 3000,
      "▁Cl": 3001,
      "▁Dazu": 3002,
      "▁hast": 3003,
      "▁verpflich": 3004,
      "▁wesentlich": 3005,
      "▁Eing": 3006,
      "▁kompl": 3007,
      "▁angezeigt": 3008,
      "rige": 3009,
      "▁Vertrags": 3010,
      "▁Exper": 3011,
      "▁Op": 3012,
      "▁bevor": 3013,
      "▁Sprach": 3014,
      "▁Veröffentlich": 3015,
      "züglich": 3016,
      "▁ö": 3017,
      "▁Augen": 3018,
      "▁Besucher": 3019,
      "assi": 3020,
      "▁Garten": 3021,
      "▁Finanz": 3022,
      "▁Tra": 3023,
      "▁Sozial": 3024,
      "▁Führ": 3025,
      "IT": 3026,
      "hilfe": 3027,
      "▁Anfang": 3028,
      "unt": 3029,
      "ath": 3030,
      "▁Organis": 3031,
      "▁Österreich": 3032,
      "▁halten": 3033,
      "▁Kur": 3034,
      "fin": 3035,
      "▁entscheiden": 3036,
      "wiesen": 3037,
      "▁Design": 3038,
      "gemeinen": 3039,
      "▁unbe": 3040,
      "altet": 3041,
      "alb": 3042,
      "▁Gleich": 3043,
      "▁Herr": 3044,
      "▁Gesellschaft": 3045,
      "▁Deshalb": 3046,
      "▁Klima": 3047,
      "▁automati": 3048,
      "iff": 3049,
      "▁Termin": 3050,
      "setzen": 3051,
      "▁Gra": 3052,
      "▁Woche": 3053,
      "▁Wel": 3054,
      "igkeiten": 3055,
      "▁fünf": 3056,
      "▁erne": 3057,
      "▁woll": 3058,
      "ried": 3059,
      "▁schließ": 3060,
      "handlung": 3061,
      "▁eindeu": 3062,
      "pfen": 3063,
      "ragt": 3064,
      "▁La": 3065,
      "▁bedeutet": 3066,
      "rolle": 3067,
      "▁Dan": 3068,
      "ret": 3069,
      "how": 3070,
      "▁komp": 3071,
      "▁beispielsweise": 3072,
      "kosten": 3073,
      "heb": 3074,
      "steller": 3075,
      "nov": 3076,
      "schließend": 3077,
      "▁Dritte": 3078,
      "▁Mitglieder": 3079,
      "barkeit": 3080,
      "▁berechtigt": 3081,
      "▁paar": 3082,
      "▁Millionen": 3083,
      "▁https": 3084,
      "alien": 3085,
      "▁unver": 3086,
      "klus": 3087,
      "▁optim": 3088,
      "▁anderem": 3089,
      "▁Ged": 3090,
      "verhalten": 3091,
      "▁Voll": 3092,
      "hältnis": 3093,
      "▁Pflege": 3094,
      "ON": 3095,
      "▁Foto": 3096,
      "inge": 3097,
      "laden": 3098,
      "teilung": 3099,
      "▁Verkehr": 3100,
      "tischen": 3101,
      "▁begren": 3102,
      "▁Heraus": 3103,
      "▁Bus": 3104,
      "▁hil": 3105,
      "▁spezie": 3106,
      "▁gehören": 3107,
      "▁Umgang": 3108,
      "▁Licht": 3109,
      "▁Gemeinde": 3110,
      "▁weiterhin": 3111,
      "▁jedes": 3112,
      "▁Ihres": 3113,
      "▁schö": 3114,
      "▁Mich": 3115,
      "ürf": 3116,
      "igt": 3117,
      "▁sofort": 3118,
      "gelt": 3119,
      "bietern": 3120,
      "dete": 3121,
      "geln": 3122,
      "▁Flug": 3123,
      "▁Aktiv": 3124,
      "▁übernehmen": 3125,
      "iti": 3126,
      "▁Stimm": 3127,
      "lässi": 3128,
      "ätze": 3129,
      "oc": 3130,
      "nt": 3131,
      "sph": 3132,
      "gef": 3133,
      "▁klar": 3134,
      "istor": 3135,
      "▁Möglichkeiten": 3136,
      "▁Hinter": 3137,
      "▁irgend": 3138,
      "fahrt": 3139,
      "lang": 3140,
      "plan": 3141,
      "indest": 3142,
      "rieg": 3143,
      "sprechend": 3144,
      "\".": 3145,
      "▁Gäste": 3146,
      "▁Kreis": 3147,
      "▁Tages": 3148,
      "----": 3149,
      "▁Wissen": 3150,
      "▁Erlebnis": 3151,
      "ringt": 3152,
      "▁wegen": 3153,
      "schließen": 3154,
      "▁leicht": 3155,
      "ituation": 3156,
      "verständ": 3157,
      "▁Wind": 3158,
      "ritten": 3159,
      "di": 3160,
      "Wir": 3161,
      "▁Universität": 3162,
      "del": 3163,
      "sa": 3164,
      "ilden": 3165,
      "▁to": 3166,
      "▁Kön": 3167,
      "ücks": 3168,
      "pflicht": 3169,
      "▁übermittel": 3170,
      "▁Kap": 3171,
      "ordnung": 3172,
      "▁Tier": 3173,
      "▁Bay": 3174,
      "▁Lauf": 3175,
      "▁Tä": 3176,
      "markt": 3177,
      "ächlich": 3178,
      "iew": 3179,
      "▁Bad": 3180,
      "achte": 3181,
      "▁Folgenden": 3182,
      "▁General": 3183,
      "▁Schm": 3184,
      "▁hö": 3185,
      "zeigen": 3186,
      "emie": 3187,
      "▁erwar": 3188,
      "unge": 3189,
      "▁Schule": 3190,
      "lassen": 3191,
      "▁Link": 3192,
      "glichen": 3193,
      "▁Klein": 3194,
      "▁welt": 3195,
      "▁führt": 3196,
      "leg": 3197,
      "lö": 3198,
      "▁Merk": 3199,
      "▁Boden": 3200,
      "▁somit": 3201,
      "▁geeignet": 3202,
      "▁Erfahrung": 3203,
      "örter": 3204,
      "IE": 3205,
      "atte": 3206,
      "▁Park": 3207,
      "Te": 3208,
      "räch": 3209,
      "stoßen": 3210,
      "kennen": 3211,
      "▁X": 3212,
      "▁erfolgreich": 3213,
      "▁Druck": 3214,
      "▁stand": 3215,
      "ichts": 3216,
      "Re": 3217,
      "▁Dieses": 3218,
      "▁Nur": 3219,
      "▁Ben": 3220,
      "dustrie": 3221,
      "▁Post": 3222,
      "▁Gesprä": 3223,
      "▁Wald": 3224,
      "▁erhält": 3225,
      "eichen": 3226,
      "▁Sen": 3227,
      "▁Erw": 3228,
      "▁USA": 3229,
      "ritte": 3230,
      "▁Wett": 3231,
      "▁AG": 3232,
      "▁Nä": 3233,
      "▁Außerdem": 3234,
      "▁Comp": 3235,
      "ult": 3236,
      "▁erreichen": 3237,
      "▁abzu": 3238,
      "▁fol": 3239,
      "▁Verantwortung": 3240,
      "▁Kauf": 3241,
      "stellte": 3242,
      "get": 3243,
      "oper": 3244,
      "sb": 3245,
      "fung": 3246,
      "gebung": 3247,
      "▁Schlag": 3248,
      "____": 3249,
      "ownlo": 3250,
      "▁Stri": 3251,
      ".\"": 3252,
      "off": 3253,
      "rechte": 3254,
      "▁ändern": 3255,
      "rägt": 3256,
      "oph": 3257,
      "▁Elekt": 3258,
      "AL": 3259,
      "▁Pau": 3260,
      "▁Hel": 3261,
      "otor": 3262,
      "▁mo": 3263,
      "bb": 3264,
      "kel": 3265,
      "verein": 3266,
      "ID": 3267,
      "▁Fehl": 3268,
      "▁Car": 3269,
      "▁sagte": 3270,
      "▁Publik": 3271,
      "▁hervor": 3272,
      "▁zweiten": 3273,
      "▁Weihn": 3274,
      "ützen": 3275,
      "▁Punkt": 3276,
      "▁spielen": 3277,
      "▁Test": 3278,
      "▁Band": 3279,
      "ünd": 3280,
      "▁Tr": 3281,
      "▁Video": 3282,
      "▁Beitrags": 3283,
      "▁verpflichtet": 3284,
      "▁Betreibers": 3285,
      "▁Det": 3286,
      "haupt": 3287,
      "▁Dort": 3288,
      "▁sinn": 3289,
      "asino": 3290,
      "halte": 3291,
      "wegen": 3292,
      "straße": 3293,
      "▁Durchschnit": 3294,
      "tw": 3295,
      "▁Gruppe": 3296,
      "▁Kindern": 3297,
      "▁suchen": 3298,
      "tels": 3299,
      "▁anzu": 3300,
      "frist": 3301,
      "php": 3302,
      "▁Sor": 3303,
      "▁Log": 3304,
      "▁absol": 3305,
      "▁unber": 3306,
      "▁Hinweis": 3307,
      "▁erklärst": 3308,
      "ument": 3309,
      "▁Inhalt": 3310,
      "▁posit": 3311,
      "▁Darüber": 3312,
      "▁entwickelt": 3313,
      "richtung": 3314,
      "pe": 3315,
      "▁klein": 3316,
      "reib": 3317,
      "▁verwende": 3318,
      "met": 3319,
      "SG": 3320,
      "▁zug": 3321,
      "tler": 3322,
      "▁sieht": 3323,
      "▁Tem": 3324,
      "ka": 3325,
      "urn": 3326,
      "▁Ris": 3327,
      "betreiber": 3328,
      "▁Ac": 3329,
      "med": 3330,
      "▁verarbeiten": 3331,
      "abhäng": 3332,
      "orgt": 3333,
      "▁Bekanntwerden": 3334,
      "▁Basis": 3335,
      "hunder": 3336,
      "reibt": 3337,
      "▁daran": 3338,
      "asen": 3339,
      "▁genommen": 3340,
      "äude": 3341,
      "izei": 3342,
      "▁sonst": 3343,
      "▁Wirkung": 3344,
      "ändert": 3345,
      "schäden": 3346,
      "▁Wieder": 3347,
      "nete": 3348,
      "produ": 3349,
      "▁Wein": 3350,
      "llig": 3351,
      "riften": 3352,
      "▁Prü": 3353,
      "ommun": 3354,
      "Ich": 3355,
      "▁einzu": 3356,
      "ierter": 3357,
      "▁anderer": 3358,
      "▁aktuelle": 3359,
      "▁unterstützt": 3360,
      "▁Haut": 3361,
      "ntag": 3362,
      "▁Mag": 3363,
      "pps": 3364,
      "füll": 3365,
      "öhn": 3366,
      "▁wunder": 3367,
      "▁Schaden": 3368,
      "▁Politik": 3369,
      "▁Eben": 3370,
      "▁vielleicht": 3371,
      "spl": 3372,
      "▁Während": 3373,
      "▁erw": 3374,
      "einträch": 3375,
      "ehn": 3376,
      "ammlung": 3377,
      "▁Digit": 3378,
      "▁deutschsprach": 3379,
      "wasser": 3380,
      "▁zentr": 3381,
      "orm": 3382,
      "umm": 3383,
      "viel": 3384,
      "▁San": 3385,
      "▁Mont": 3386,
      "nach": 3387,
      "▁Wien": 3388,
      "▁ganze": 3389,
      "anbietern": 3390,
      "▁Pfl": 3391,
      "▁Dok": 3392,
      "sichtlich": 3393,
      "▁med": 3394,
      "OR": 3395,
      "dorf": 3396,
      "behör": 3397,
      "staltung": 3398,
      "▁Tor": 3399,
      "▁Eis": 3400,
      "▁Viele": 3401,
      "▁Schweiz": 3402,
      "▁Tür": 3403,
      "ownload": 3404,
      "▁begrenzt": 3405,
      "▁Zw": 3406,
      "▁indem": 3407,
      "▁Falle": 3408,
      "▁eher": 3409,
      "▁größer": 3410,
      "lay": 3411,
      "▁Grö": 3412,
      "▁Zusammenarbeit": 3413,
      "leistungen": 3414,
      "▁Heil": 3415,
      "▁Süd": 3416,
      "▁ID": 3417,
      "▁Wort": 3418,
      "reisen": 3419,
      "▁Haftungs": 3420,
      "geführt": 3421,
      "▁Hamburg": 3422,
      "minister": 3423,
      "ossen": 3424,
      "▁entsp": 3425,
      "▁nachhal": 3426,
      "reude": 3427,
      "ull": 3428,
      "▁Impress": 3429,
      "gessen": 3430,
      "▁Verm": 3431,
      "abel": 3432,
      "ari": 3433,
      "urger": 3434,
      "▁Öff": 3435,
      "tliche": 3436,
      "SS": 3437,
      "alte": 3438,
      "▁Nacht": 3439,
      "▁Rolle": 3440,
      "▁Tagen": 3441,
      "▁,": 3442,
      "por": 3443,
      "▁Standard": 3444,
      "gesehen": 3445,
      "sitzen": 3446,
      "▁dessen": 3447,
      "genann": 3448,
      "▁Liebe": 3449,
      "▁Spaß": 3450,
      "▁Forum": 3451,
      "zte": 3452,
      "▁Stre": 3453,
      "▁angem": 3454,
      "les": 3455,
      "meldung": 3456,
      "do": 3457,
      "▁ak": 3458,
      "▁einzelnen": 3459,
      "ochen": 3460,
      "▁Steuer": 3461,
      "▁München": 3462,
      "▁*": 3463,
      "▁eigentlich": 3464,
      "▁Ausbildung": 3465,
      "▁Auftrag": 3466,
      "ense": 3467,
      "ränkt": 3468,
      "▁heißt": 3469,
      "▁Con": 3470,
      "▁Deutschen": 3471,
      "▁Bon": 3472,
      "▁ur": 3473,
      "▁Patienten": 3474,
      "abe": 3475,
      "▁allgemeinen": 3476,
      "▁übrigen": 3477,
      "▁Fotos": 3478,
      "▁Kopf": 3479,
      "▁Fort": 3480,
      "▁übernimmt": 3481,
      "stattung": 3482,
      "abil": 3483,
      "schinen": 3484,
      "▁Bran": 3485,
      "fel": 3486,
      "steuer": 3487,
      "▁unters": 3488,
      "▁sagen": 3489,
      "▁Spieler": 3490,
      "▁grund": 3491,
      "räger": 3492,
      "▁höher": 3493,
      "tensi": 3494,
      ".,": 3495,
      "iga": 3496,
      "▁polit": 3497,
      "▁minde": 3498,
      "▁Datei": 3499,
      "▁:": 3500,
      "▁Erst": 3501,
      "▁exter": 3502,
      "▁präsen": 3503,
      "▁welches": 3504,
      "hinder": 3505,
      "▁stär": 3506,
      "▁Kolle": 3507,
      "▁SP": 3508,
      "▁deshalb": 3509,
      "▁Schritt": 3510,
      "inne": 3511,
      "ützt": 3512,
      "▁Drittanbietern": 3513,
      "▁Drittanbieter": 3514,
      "▁häufig": 3515,
      "▁unseres": 3516,
      "▁mindestens": 3517,
      "▁meist": 3518,
      "▁werde": 3519,
      "▁End": 3520,
      "▁Innen": 3521,
      "Er": 3522,
      "▁Mensch": 3523,
      "ießen": 3524,
      "ling": 3525,
      "merksam": 3526,
      "falt": 3527,
      "▁verbunden": 3528,
      "tics": 3529,
      "gal": 3530,
      "ormal": 3531,
      "▁Char": 3532,
      "▁Berg": 3533,
      "äischen": 3534,
      "▁unberührt": 3535,
      "mart": 3536,
      "zentrum": 3537,
      "▁Port": 3538,
      "▁meinen": 3539,
      "▁By": 3540,
      "▁weiß": 3541,
      "▁erhö": 3542,
      "wär": 3543,
      "▁Ergebnis": 3544,
      "▁Studien": 3545,
      "lauben": 3546,
      "▁Praxis": 3547,
      "▁Europa": 3548,
      "▁Schne": 3549,
      "out": 3550,
      "akter": 3551,
      "hoben": 3552,
      "▁Besonder": 3553,
      "▁länger": 3554,
      "ppe": 3555,
      "Software": 3556,
      "▁versch": 3557,
      "ationalen": 3558,
      "führer": 3559,
      "▁Mü": 3560,
      "▁Gruppen": 3561,
      "▁optimales": 3562,
      "▁zudem": 3563,
      "▁Ern": 3564,
      "▁Rat": 3565,
      "▁lernen": 3566,
      "alk": 3567,
      "stre": 3568,
      "spiele": 3569,
      "ständen": 3570,
      "itzt": 3571,
      "▁Wo": 3572,
      "▁Stück": 3573,
      "swid": 3574,
      "verband": 3575,
      "alisierung": 3576,
      "EL": 3577,
      "▁Po": 3578,
      "▁Saison": 3579,
      "bahn": 3580,
      "▁moder": 3581,
      "▁informieren": 3582,
      "▁schrift": 3583,
      "▁Impressum": 3584,
      "▁verstoßen": 3585,
      "ktuell": 3586,
      "▁Empf": 3587,
      "▁Produktion": 3588,
      "bringen": 3589,
      "griff": 3590,
      "volle": 3591,
      "▁Wissenschaft": 3592,
      "▁Version": 3593,
      "▁Alt": 3594,
      "utzt": 3595,
      "ael": 3596,
      "▁Home": 3597,
      "blenden": 3598,
      "▁Strom": 3599,
      "▁optimieren": 3600,
      "lose": 3601,
      "▁verbessern": 3602,
      "angebot": 3603,
      "▁ebenso": 3604,
      "▁Public": 3605,
      "ek": 3606,
      "▁Gesetz": 3607,
      "▁fort": 3608,
      "▁Dis": 3609,
      "▁Jetzt": 3610,
      "▁finanz": 3611,
      "UN": 3612,
      "▁Veranstaltung": 3613,
      "ennung": 3614,
      "handen": 3615,
      "pa": 3616,
      "▁Gesamt": 3617,
      "▁Hause": 3618,
      "▁Kategorie": 3619,
      "zeugen": 3620,
      "ktu": 3621,
      "▁Bis": 3622,
      "last": 3623,
      "mitteln": 3624,
      "▁Einstellungen": 3625,
      "▁musste": 3626,
      "waltung": 3627,
      "▁höch": 3628,
      "▁Jahrhunder": 3629,
      "umente": 3630,
      "lock": 3631,
      "▁Schwer": 3632,
      "▁wesentlicher": 3633,
      "eum": 3634,
      "chnung": 3635,
      "▁Interesse": 3636,
      "AT": 3637,
      "eller": 3638,
      "gestellten": 3639,
      "ogra": 3640,
      "▁Sh": 3641,
      "▁Sper": 3642,
      "stieg": 3643,
      "erv": 3644,
      "▁vergangenen": 3645,
      "bieten": 3646,
      "▁Einsch": 3647,
      "spflichten": 3648,
      "▁Blog": 3649,
      "arr": 3650,
      "▁keiner": 3651,
      "▁Don": 3652,
      "▁möglicherweise": 3653,
      "sprüche": 3654,
      "▁Lage": 3655,
      "▁kaum": 3656,
      "zugreifen": 3657,
      "lass": 3658,
      "▁leider": 3659,
      "ja": 3660,
      "steht": 3661,
      "emin": 3662,
      "▁Vergleich": 3663,
      "oss": 3664,
      "ündigung": 3665,
      "▁Privat": 3666,
      "▁beeinträch": 3667,
      "▁ermöglicht": 3668,
      "auber": 3669,
      "▁auszu": 3670,
      "▁erteilst": 3671,
      "▁Durchschnitts": 3672,
      "zimmer": 3673,
      "▁Stellen": 3674,
      "▁Wa": 3675,
      "pfer": 3676,
      "styp": 3677,
      "▁überprü": 3678,
      "▁Angaben": 3679,
      "▁kaufen": 3680,
      "▁erklärt": 3681,
      "▁wün": 3682,
      "kur": 3683,
      "tis": 3684,
      "▁Sonntag": 3685,
      "▁personalis": 3686,
      "ischerweise": 3687,
      "▁entstehen": 3688,
      "fter": 3689,
      "▁Ander": 3690,
      "▁insgesamt": 3691,
      "iko": 3692,
      "schriften": 3693,
      "fft": 3694,
      "▁Hotel": 3695,
      "▁zunächst": 3696,
      "uck": 3697,
      "▁Verbindung": 3698,
      "▁Beim": 3699,
      "▁lin": 3700,
      "bew": 3701,
      "▁Aufgaben": 3702,
      "▁gestattest": 3703,
      "folge": 3704,
      "freund": 3705,
      "hei": 3706,
      "▁Download": 3707,
      "rop": 3708,
      "▁Mil": 3709,
      "ca": 3710,
      "ardinal": 3711,
      "▁Firmen": 3712,
      "abl": 3713,
      "icense": 3714,
      "▁Tre": 3715,
      "uchs": 3716,
      "▁Pap": 3717,
      "gere": 3718,
      "lern": 3719,
      "▁sogenann": 3720,
      "▁führ": 3721,
      "▁Alltag": 3722,
      "▁Folgesch": 3723,
      "reiten": 3724,
      "iker": 3725,
      "innt": 3726,
      "▁schle": 3727,
      "verfahren": 3728,
      "▁Vertragsschluss": 3729,
      "▁Sym": 3730,
      "furt": 3731,
      "immst": 3732,
      "die": 3733,
      "▁Immobil": 3734,
      "▁Folgeschäden": 3735,
      "▁außerhalb": 3736,
      "programm": 3737,
      "▁gestattet": 3738,
      "▁Invest": 3739,
      "▁vertrag": 3740,
      "einformationen": 3741,
      "▁Waren": 3742,
      "quen": 3743,
      "Innen": 3744,
      "▁Detail": 3745,
      "▁res": 3746,
      "nummer": 3747,
      "▁Essen": 3748,
      "pflichten": 3749,
      "▁angeboten": 3750,
      "▁aktuell": 3751,
      "▁Beratung": 3752,
      "▁Gar": 3753,
      "sie": 3754,
      "▁vorherseh": 3755,
      "laf": 3756,
      "ingt": 3757,
      "▁kostenlos": 3758,
      "▁Industrie": 3759,
      "ash": 3760,
      "▁Profil": 3761,
      "▁beachten": 3762,
      "▁Liter": 3763,
      "▁dam": 3764,
      "▁vorhanden": 3765,
      "▁eng": 3766,
      "▁Mutter": 3767,
      "▁fahrlässi": 3768,
      "phpbb": 3769,
      "schau": 3770,
      "▁profession": 3771,
      "▁License": 3772,
      "▁einigen": 3773,
      "Ar": 3774,
      "▁anders": 3775,
      "▁Sex": 3776,
      "▁Ol": 3777,
      "▁Rechte": 3778,
      "fallen": 3779,
      "hel": 3780,
      "▁Gott": 3781,
      "stoffe": 3782,
      "▁Voraus": 3783,
      "peratur": 3784,
      "ali": 3785,
      "zig": 3786,
      "▁typischerweise": 3787,
      "leitung": 3788,
      "▁Sc": 3789,
      "häus": 3790,
      "....": 3791,
      "▁Analytics": 3792,
      "▁verein": 3793,
      "▁Kurz": 3794,
      "▁Verfasser": 3795,
      "▁fühl": 3796,
      "struktur": 3797,
      "▁Not": 3798,
      "Einstellungen": 3799,
      "indlich": 3800,
      "ire": 3801,
      "▁verd": 3802,
      "nü": 3803,
      "stypischen": 3804,
      "▁Sil": 3805,
      "see": 3806,
      "▁Freund": 3807,
      "▁vorhersehbaren": 3808,
      "itut": 3809,
      "▁Veranstaltungen": 3810,
      "▁Folge": 3811,
      "maß": 3812,
      "▁Surf": 3813,
      "wagen": 3814,
      "▁vorsätzlich": 3815,
      "IC": 3816,
      "▁Mobil": 3817,
      "ziehung": 3818,
      "bür": 3819,
      "kor": 3820,
      "▁%": 3821,
      "▁ne": 3822,
      "▁Zudem": 3823,
      "neten": 3824,
      "▁Peter": 3825,
      "achtet": 3826,
      "ffer": 3827,
      "▁prakti": 3828,
      "▁etc": 3829,
      "bed": 3830,
      "eldet": 3831,
      "kommt": 3832,
      "Kardinal": 3833,
      "stär": 3834,
      "▁umfassen": 3835,
      "▁Beginn": 3836,
      "▁schaffen": 3837,
      "ktive": 3838,
      "▁zugän": 3839,
      "park": 3840,
      "Be": 3841,
      "finden": 3842,
      "▁Samstag": 3843,
      "▁(„": 3844,
      "fo": 3845,
      "sein": 3846,
      "▁Ideen": 3847,
      "▁Phil": 3848,
      "cial": 3849,
      "yr": 3850,
      "▁Grenzen": 3851,
      "bli": 3852,
      "▁zustimm": 3853,
      "MG": 3854,
      "such": 3855,
      "dex": 3856,
      "kraft": 3857,
      "isse": 3858,
      "▁Graf": 3859,
      "▁organis": 3860,
      "ftung": 3861,
      "iki": 3862,
      "wegs": 3863,
      "eiger": 3864,
      "▁Polizei": 3865,
      "▁Zahn": 3866,
      "▁meinem": 3867,
      "ätzen": 3868,
      "htt": 3869,
      "▁Regen": 3870,
      "son": 3871,
      "▁Künstler": 3872,
      "▁entsprechende": 3873,
      "▁günst": 3874,
      "konto": 3875,
      "▁fahrlässigem": 3876,
      "eilen": 3877,
      "▁vorsätzlichem": 3878,
      "view": 3879,
      "▁gepl": 3880,
      "▁bl": 3881,
      "▁Maßnahmen": 3882,
      "▁Ind": 3883,
      "▁Registr": 3884,
      "▁Sicht": 3885,
      "▁Information": 3886,
      "▁hohen": 3887,
      "ottes": 3888,
      "decken": 3889,
      "tent": 3890,
      "arch": 3891,
      "▁Bahn": 3892,
      "▁trotzdem": 3893,
      "▁Erfahrungen": 3894,
      "▁Tätigkeit": 3895,
      "▁Geburt": 3896,
      "▁bekann": 3897,
      "möglichkeiten": 3898,
      "vis": 3899,
      "ament": 3900,
      "▁Kommunikation": 3901,
      "▁Wunsch": 3902,
      "liefer": 3903,
      "str": 3904,
      "▁Kirche": 3905,
      "lingen": 3906,
      "hang": 3907,
      "▁Urlaub": 3908,
      "▁Wahr": 3909,
      "minist": 3910,
      "▁CO": 3911,
      "▁gewähr": 3912,
      "▁hätte": 3913,
      "▁außerdem": 3914,
      "▁Probleme": 3915,
      "▁bringt": 3916,
      "ögen": 3917,
      "napp": 3918,
      "▁Bedeut": 3919,
      "gebiet": 3920,
      "▁Unternehmens": 3921,
      "zustellen": 3922,
      "▁Kor": 3923,
      "▁'": 3924,
      "wegung": 3925,
      "▁erklären": 3926,
      "rufen": 3927,
      "ierungen": 3928,
      "▁befindet": 3929,
      "▁Leistung": 3930,
      "Das": 3931,
      "▁sorgen": 3932,
      "▁Name": 3933,
      "▁us": 3934,
      "▁lesen": 3935,
      "ssen": 3936,
      "▁Leistungs": 3937,
      "▁einzelne": 3938,
      "▁aner": 3939,
      "▁tats": 3940,
      "▁verz": 3941,
      "hung": 3942,
      "▁dauerhaft": 3943,
      "▁Technik": 3944,
      "▁Stein": 3945,
      "▁Richtung": 3946,
      "▁Sonnen": 3947,
      "gern": 3948,
      "zeuge": 3949,
      "chter": 3950,
      "uchten": 3951,
      "▁Früh": 3952,
      "oment": 3953,
      "utzung": 3954,
      "▁kontakti": 3955,
      "roll": 3956,
      "ölker": 3957,
      "▁Situation": 3958,
      "gn": 3959,
      "irt": 3960,
      "▁Altern": 3961,
      "▁alten": 3962,
      "▁Wetter": 3963,
      "auch": 3964,
      "ration": 3965,
      "▁hochwer": 3966,
      "▁Änderung": 3967,
      "deck": 3968,
      "▁privaten": 3969,
      "▁hilft": 3970,
      "ütz": 3971,
      "▁hohe": 3972,
      "Vor": 3973,
      "▁hör": 3974,
      "hindern": 3975,
      "▁sel": 3976,
      "▁Männer": 3977,
      "preis": 3978,
      "hnung": 3979,
      "ierenden": 3980,
      "unternehmen": 3981,
      "▁tragen": 3982,
      "▁ganzen": 3983,
      "▁genutzt": 3984,
      "▁beant": 3985,
      "▁deaktiv": 3986,
      "ftet": 3987,
      "▁eingesch": 3988,
      "eitag": 3989,
      "▁Texte": 3990,
      "▁Köl": 3991,
      "schuss": 3992,
      "itze": 3993,
      "richtungen": 3994,
      "▁dadurch": 3995,
      "▁Kranken": 3996,
      "▁Merkmale": 3997,
      "willigung": 3998,
      "▁Michael": 3999,
      "▁automatisch": 4000,
      "losen": 4001,
      "▁schl": 4002,
      "▁Rein": 4003,
      "▁nä": 4004,
      "▁Archite": 4005,
      "anlage": 4006,
      "▁verwendeten": 4007,
      "gruppen": 4008,
      "ube": 4009,
      "▁Ist": 4010,
      "▁Ball": 4011,
      "ement": 4012,
      "hann": 4013,
      "worten": 4014,
      "▁Lösung": 4015,
      "▁Verlin": 4016,
      "▁Smart": 4017,
      "▁Mart": 4018,
      "▁Dom": 4019,
      "IS": 4020,
      "▁Hy": 4021,
      "▁sorg": 4022,
      "▁überw": 4023,
      "uft": 4024,
      "▁bem": 4025,
      "▁wichtige": 4026,
      "stimmt": 4027,
      "hausen": 4028,
      "▁ide": 4029,
      "reibung": 4030,
      "▁Ganz": 4031,
      "▁Mat": 4032,
      "▁Deine": 4033,
      "zi": 4034,
      "iegel": 4035,
      "schlä": 4036,
      "reter": 4037,
      "RE": 4038,
      "zentr": 4039,
      "▁vergessen": 4040,
      "▁wert": 4041,
      "jährige": 4042,
      "▁beeinträchtigt": 4043,
      "atik": 4044,
      "▁König": 4045,
      "▁neues": 4046,
      "bol": 4047,
      "▁derartige": 4048,
      "▁setzt": 4049,
      "spruchs": 4050,
      "▁Glück": 4051,
      "▁Teilnahme": 4052,
      "▁veröffentlicht": 4053,
      "▁Bereichen": 4054,
      "▁Computer": 4055,
      "▁verfüg": 4056,
      "halts": 4057,
      "uster": 4058,
      "zun": 4059,
      "▁verstehen": 4060,
      "br": 4061,
      "zahlen": 4062,
      "▁Bytes": 4063,
      "▁gemäß": 4064,
      "▁Kontrolle": 4065,
      "anger": 4066,
      "▁spannen": 4067,
      "orgung": 4068,
      "▁erreicht": 4069,
      "▁beein": 4070,
      "▁Rom": 4071,
      "▁gefunden": 4072,
      "▁europ": 4073,
      "▁km": 4074,
      "▁Rhein": 4075,
      "▁Ost": 4076,
      "▁Weihnacht": 4077,
      "▁ru": 4078,
      "swidrige": 4079,
      "staur": 4080,
      "elte": 4081,
      "▁Bedeutung": 4082,
      "▁pass": 4083,
      "bank": 4084,
      "▁belieb": 4085,
      "▁fe": 4086,
      "▁derzeit": 4087,
      "▁Verkauf": 4088,
      "ias": 4089,
      "▁geworden": 4090,
      "▁früher": 4091,
      "▁fand": 4092,
      "▁Gesetzen": 4093,
      "▁Freude": 4094,
      "▁gesamte": 4095,
      "▁zehn": 4096,
      "▁braucht": 4097,
      "stru": 4098,
      "▁Sollten": 4099,
      "▁einzig": 4100,
      "▁Entwick": 4101,
      "▁erfü": 4102,
      "AS": 4103,
      "▁Ausnahme": 4104,
      "weile": 4105,
      "▁zuvor": 4106,
      "▁eindeutige": 4107,
      "▁wählen": 4108,
      "stände": 4109,
      "▁dank": 4110,
      "omas": 4111,
      "▁Dach": 4112,
      "▁Versand": 4113,
      "begriff": 4114,
      "▁gleichzeitig": 4115,
      "▁Tro": 4116,
      "bewerb": 4117,
      "▁zuzugreifen": 4118,
      "▁erneut": 4119,
      "bliothe": 4120,
      "▁Zwecke": 4121,
      "kir": 4122,
      "▁Umgebung": 4123,
      "hard": 4124,
      "annt": 4125,
      "▁Wand": 4126,
      "▁Spezial": 4127,
      "▁mittler": 4128,
      "▁Straßen": 4129,
      "▁Mannschaft": 4130,
      "▁Personal": 4131,
      "▁Leistungen": 4132,
      "ta": 4133,
      "▁Städ": 4134,
      "▁Teile": 4135,
      "▁UN": 4136,
      "▁Arbeiten": 4137,
      "▁Media": 4138,
      "▁verhindern": 4139,
      "▁zugänglich": 4140,
      "gemäß": 4141,
      "stä": 4142,
      "▁Bearbeitung": 4143,
      "stimmte": 4144,
      "▁Prin": 4145,
      "raucher": 4146,
      "endet": 4147,
      "▁Dinge": 4148,
      "▁Bern": 4149,
      "sident": 4150,
      "bü": 4151,
      "▁entwickeln": 4152,
      "▁Top": 4153,
      "▁Verlinkung": 4154,
      "▁Freitag": 4155,
      "▁Hil": 4156,
      "ipp": 4157,
      "nern": 4158,
      "▁Straße": 4159,
      "▁pl": 4160,
      "▁zahlreiche": 4161,
      "▁ext": 4162,
      "tierung": 4163,
      "▁entfern": 4164,
      "▁Lim": 4165,
      "▁würden": 4166,
      "ript": 4167,
      "isiert": 4168,
      "▁Nun": 4169,
      "cks": 4170,
      "▁Bank": 4171,
      "▁Ergebnisse": 4172,
      "▁genannten": 4173,
      "elev": 4174,
      "▁Konzer": 4175,
      "zeige": 4176,
      "jen": 4177,
      "RO": 4178,
      "▁sechs": 4179,
      "▁Nutzers": 4180,
      "ährung": 4181,
      "▁Metho": 4182,
      "ars": 4183,
      "gte": 4184,
      "▁Insbesondere": 4185,
      "tegr": 4186,
      "funktion": 4187,
      "▁entsprechend": 4188,
      "reuz": 4189,
      "ited": 4190,
      "▁Forschung": 4191,
      "ital": 4192,
      "▁Pa": 4193,
      "▁Behandlung": 4194,
      "▁Surfverhalten": 4195,
      "▁Event": 4196,
      "schungs": 4197,
      "führen": 4198,
      "garten": 4199,
      "punkte": 4200,
      "zahlung": 4201,
      "gegeben": 4202,
      "▁dan": 4203,
      "zir": 4204,
      "sei": 4205,
      "▁leich": 4206,
      "ikan": 4207,
      "▁>": 4208,
      "▁benötigen": 4209,
      "▁beschäf": 4210,
      "▁Dein": 4211,
      "▁treffen": 4212,
      "älter": 4213,
      "wohner": 4214,
      "▁To": 4215,
      "ika": 4216,
      "▁Abschluss": 4217,
      "schnitt": 4218,
      "chmal": 4219,
      "▁Projekte": 4220,
      "wörter": 4221,
      "▁Verarbeitung": 4222,
      "zwischen": 4223,
      "sse": 4224,
      "jährigen": 4225,
      "▁individuell": 4226,
      "▁Kan": 4227,
      "▁Fen": 4228,
      "▁gegeben": 4229,
      "▁anschließend": 4230,
      "ommunity": 4231,
      "kom": 4232,
      "▁Entscheidung": 4233,
      "ise": 4234,
      "▁Monat": 4235,
      "ES": 4236,
      "hemal": 4237,
      "pack": 4238,
      "▁gestalten": 4239,
      "▁ergän": 4240,
      "▁weg": 4241,
      "haber": 4242,
      "▁Inte": 4243,
      "ichter": 4244,
      "▁Beide": 4245,
      "▁behand": 4246,
      "▁klass": 4247,
      "nehmern": 4248,
      "ffizien": 4249,
      "haben": 4250,
      "ufe": 4251,
      "iziert": 4252,
      "▁Motor": 4253,
      "▁Will": 4254,
      "ammer": 4255,
      "▁Server": 4256,
      "▁Reihe": 4257,
      "▁Plattform": 4258,
      "geg": 4259,
      "▁wollte": 4260,
      "tiges": 4261,
      "▁Krit": 4262,
      "ohlen": 4263,
      "▁unterliegen": 4264,
      "▁Kil": 4265,
      "mark": 4266,
      "▁Gespräch": 4267,
      "▁gelö": 4268,
      "zehn": 4269,
      "▁Gebäude": 4270,
      "▁fl": 4271,
      "▁Gewährleistung": 4272,
      "▁Einwilligung": 4273,
      "wig": 4274,
      "▁nahe": 4275,
      "ierende": 4276,
      "▁Mitte": 4277,
      "kunden": 4278,
      "▁bitten": 4279,
      "▁täglich": 4280,
      "▁ausgew": 4281,
      "▁jem": 4282,
      "stall": 4283,
      "▁regelmäßig": 4284,
      "ammelt": 4285,
      "burger": 4286,
      "fekt": 4287,
      "▁Fin": 4288,
      "▁erkennen": 4289,
      "vol": 4290,
      "▁erteilen": 4291,
      "yer": 4292,
      "▁ged": 4293,
      "technik": 4294,
      "▁durchgeführt": 4295,
      "ändig": 4296,
      "ai": 4297,
      "▁richtigen": 4298,
      "▁Umzug": 4299,
      "raten": 4300,
      "zeichnung": 4301,
      "▁soweit": 4302,
      "▁Andre": 4303,
      "OS": 4304,
      "▁Fußball": 4305,
      "▁IDs": 4306,
      "▁Bedürf": 4307,
      "▁Firma": 4308,
      "▁TMG": 4309,
      "änge": 4310,
      "▁Kop": 4311,
      "▁Do": 4312,
      "zin": 4313,
      "▁Werke": 4314,
      "▁mitge": 4315,
      "▁fer": 4316,
      "▁bestä": 4317,
      "▁Liste": 4318,
      "▁weltweit": 4319,
      "▁los": 4320,
      "▁Vereins": 4321,
      "warz": 4322,
      "zunehmen": 4323,
      "▁Kategorien": 4324,
      "▁brauchen": 4325,
      "▁heu": 4326,
      "mittlung": 4327,
      "▁Che": 4328,
      "▁II": 4329,
      "▁eingeb": 4330,
      "▁Diensteanbieter": 4331,
      "ressen": 4332,
      "▁Dat": 4333,
      "▁Rund": 4334,
      "▁Glas": 4335,
      "**": 4336,
      "▁Feuerwehr": 4337,
      "▁Shop": 4338,
      "▁Tod": 4339,
      "▁Austausch": 4340,
      "▁richtige": 4341,
      "▁neuer": 4342,
      "prochen": 4343,
      "▁Marken": 4344,
      "uden": 4345,
      "Aus": 4346,
      "▁möglichst": 4347,
      "aktivität": 4348,
      "lös": 4349,
      "treten": 4350,
      "▁Anzeige": 4351,
      "lag": 4352,
      "▁Wander": 4353,
      "pfung": 4354,
      "nungs": 4355,
      "▁Oper": 4356,
      "ischt": 4357,
      "bi": 4358,
      "▁Monate": 4359,
      "▁Schau": 4360,
      "eiden": 4361,
      "▁besondere": 4362,
      "▁Bildung": 4363,
      "eien": 4364,
      "▁nimmt": 4365,
      "▁Registrierung": 4366,
      "tete": 4367,
      "▁seien": 4368,
      "▁Index": 4369,
      "rete": 4370,
      "▁Aktion": 4371,
      "▁Fällen": 4372,
      "▁intensi": 4373,
      "▁Kommentar": 4374,
      "Bet": 4375,
      "▁Kooper": 4376,
      "▁Tri": 4377,
      "▁Ku": 4378,
      "geld": 4379,
      "sser": 4380,
      "äußer": 4381,
      "▁Wolf": 4382,
      "▁Lo": 4383,
      "künf": 4384,
      "▁Anforderungen": 4385,
      "rise": 4386,
      "▁Gebrauch": 4387,
      "▁mag": 4388,
      "ungsvor": 4389,
      "Sc": 4390,
      "üsse": 4391,
      "▁y": 4392,
      "!!": 4393,
      "Der": 4394,
      "▁welcher": 4395,
      "laubt": 4396,
      "▁Kombin": 4397,
      "▁Mö": 4398,
      "ündigt": 4399,
      "▁Thomas": 4400,
      "raut": 4401,
      "mehr": 4402,
      "page": 4403,
      "bildungs": 4404,
      "▁Erstellung": 4405,
      "onym": 4406,
      "ET": 4407,
      "material": 4408,
      "log": 4409,
      "▁Welche": 4410,
      "▁Anzahl": 4411,
      "▁Johann": 4412,
      "▁Pflanzen": 4413,
      "klei": 4414,
      "▁klicken": 4415,
      "igten": 4416,
      "▁Aufgabe": 4417,
      "iven": 4418,
      "stimmungen": 4419,
      "▁Training": 4420,
      "ancen": 4421,
      "▁gesamten": 4422,
      "▁Volks": 4423,
      "zufügen": 4424,
      "ferenz": 4425,
      "▁nimmst": 4426,
      "werke": 4427,
      "by": 4428,
      "▁vorbei": 4429,
      "▁Spiele": 4430,
      "aff": 4431,
      "▁beide": 4432,
      "betrieb": 4433,
      "▁Nachrichten": 4434,
      "▁Theater": 4435,
      "flächen": 4436,
      "▁persönlich": 4437,
      "ationale": 4438,
      "▁Modell": 4439,
      "▁Fahrzeug": 4440,
      "ällt": 4441,
      "▁inhalt": 4442,
      "▁nachfolgen": 4443,
      "▁endlich": 4444,
      "orien": 4445,
      "ED": 4446,
      "partner": 4447,
      "▁Sperrung": 4448,
      "▁Bestand": 4449,
      "▁Gottes": 4450,
      "▁CD": 4451,
      "wen": 4452,
      "▁laufen": 4453,
      "▁Natür": 4454,
      "kshop": 4455,
      "▁Get": 4456,
      "rifft": 4457,
      "▁funktioniert": 4458,
      "▁It": 4459,
      "stät": 4460,
      "tigten": 4461,
      "rachten": 4462,
      "▁Live": 4463,
      "▁Mail": 4464,
      "▁Idee": 4465,
      "das": 4466,
      "▁Zeiten": 4467,
      "auftrag": 4468,
      "▁spielt": 4469,
      "▁schwier": 4470,
      "▁Außen": 4471,
      "andemie": 4472,
      "▁Vis": 4473,
      "▁integr": 4474,
      "▁hierzu": 4475,
      "loss": 4476,
      "▁IS": 4477,
      "ohnt": 4478,
      "▁Abl": 4479,
      "▁Kurs": 4480,
      "▁öffentlichen": 4481,
      "▁rein": 4482,
      "verkehr": 4483,
      "▁Nähe": 4484,
      "▁Anfrage": 4485,
      "imal": 4486,
      "go": 4487,
      "▁registr": 4488,
      "ike": 4489,
      "letzt": 4490,
      "▁externen": 4491,
      "ickt": 4492,
      "▁Prozess": 4493,
      "afft": 4494,
      "▁Psych": 4495,
      "▁Sonder": 4496,
      "▁könnten": 4497,
      "Pl": 4498,
      "▁Klei": 4499,
      "ourn": 4500,
      "teilen": 4501,
      "▁eingel": 4502,
      "▁Blut": 4503,
      "▁Auskunft": 4504,
      "▁zusätzlich": 4505,
      "▁Daher": 4506,
      "▁bewusst": 4507,
      "▁Veränder": 4508,
      "▁Fel": 4509,
      "üb": 4510,
      "▁mögliche": 4511,
      "ikal": 4512,
      "▁Betreu": 4513,
      "arian": 4514,
      "ness": 4515,
      "▁Medizin": 4516,
      "▁notwendige": 4517,
      "▁Gold": 4518,
      "geschichte": 4519,
      "dr": 4520,
      "denken": 4521,
      "▁Schwe": 4522,
      "▁zukünf": 4523,
      "▁TV": 4524,
      "▁ehemal": 4525,
      "management": 4526,
      "sphäre": 4527,
      "stat": 4528,
      "ktor": 4529,
      "tif": 4530,
      "chnet": 4531,
      "▁Arten": 4532,
      "▁Wär": 4533,
      "):": 4534,
      "...]": 4535,
      "ient": 4536,
      "anst": 4537,
      "▁laut": 4538,
      "ode": 4539,
      "verständlich": 4540,
      "mitglie": 4541,
      "▁Sprache": 4542,
      "▁Vorstand": 4543,
      "▁histor": 4544,
      "van": 4545,
      "hy": 4546,
      "gut": 4547,
      "▁entfernt": 4548,
      "DF": 4549,
      "US": 4550,
      "▁Meister": 4551,
      "▁Jed": 4552,
      "anlagen": 4553,
      "▁Brand": 4554,
      "▁IT": 4555,
      "▁Mel": 4556,
      "elegen": 4557,
      "ädag": 4558,
      "▁Feld": 4559,
      "▁Mod": 4560,
      "verarbeitung": 4561,
      "▁=": 4562,
      "sletter": 4563,
      "▁beginnt": 4564,
      "▁Mäd": 4565,
      "ieten": 4566,
      "▁daß": 4567,
      "▁junge": 4568,
      "▁fallen": 4569,
      "▁Wohl": 4570,
      "▁Vater": 4571,
      "▁Dich": 4572,
      "▁Monaten": 4573,
      "ikation": 4574,
      "▁gewesen": 4575,
      "▁Trotz": 4576,
      "spir": 4577,
      "▁ledig": 4578,
      "VO": 4579,
      "▁Tipps": 4580,
      "▁Anspruch": 4581,
      "▁ehr": 4582,
      "▁benutzen": 4583,
      "▁selten": 4584,
      "▁Immobilien": 4585,
      "▁tran": 4586,
      "▁vielfäl": 4587,
      "▁West": 4588,
      "äume": 4589,
      "▁Umsetzung": 4590,
      "▁Heute": 4591,
      "▁zweite": 4592,
      "▁Oder": 4593,
      "▁Restaur": 4594,
      "▁Hig": 4595,
      "▁Franz": 4596,
      "Mit": 4597,
      "▁Har": 4598,
      "echsel": 4599,
      "ene": 4600,
      "bauen": 4601,
      "AG": 4602,
      "▁Lager": 4603,
      "▁Menge": 4604,
      "ds": 4605,
      "▁Benutzerkonto": 4606,
      "▁eingesetzt": 4607,
      "kräfte": 4608,
      "▁unten": 4609,
      "▁Erfüll": 4610,
      "▁Herbst": 4611,
      "SV": 4612,
      "▁Verbraucher": 4613,
      "▁National": 4614,
      "ox": 4615,
      "▁Einige": 4616,
      "▁Anmeldung": 4617,
      "blät": 4618,
      "▁Preise": 4619,
      "▁Krieg": 4620,
      "▁Job": 4621,
      "▁großer": 4622,
      "▁Eigent": 4623,
      "dass": 4624,
      "▁lediglich": 4625,
      "▁überhaupt": 4626,
      "▁darin": 4627,
      "▁Literatur": 4628,
      "vielfäl": 4629,
      "wurf": 4630,
      "▁näher": 4631,
      "▁Punkte": 4632,
      "▁ern": 4633,
      "stud": 4634,
      "ande": 4635,
      "▁Ferien": 4636,
      "ständigkeit": 4637,
      "▁tatsächlich": 4638,
      "▁Sach": 4639,
      "▁Är": 4640,
      "▁Rot": 4641,
      "▁übertragen": 4642,
      "▁Aller": 4643,
      "▁Verfahren": 4644,
      "elig": 4645,
      "▁erle": 4646,
      "▁Fried": 4647,
      "▁Baum": 4648,
      "▁Fehler": 4649,
      "völker": 4650,
      "▁Nutzeraktivität": 4651,
      "werte": 4652,
      "itzer": 4653,
      "öffnet": 4654,
      "grö": 4655,
      "▁max": 4656,
      "schafts": 4657,
      "achst": 4658,
      "schine": 4659,
      "▁Community": 4660,
      "▁Ap": 4661,
      "pft": 4662,
      "pper": 4663,
      "werten": 4664,
      "▁Staats": 4665,
      "tigte": 4666,
      "▁Farben": 4667,
      "▁is": 4668,
      "wechsel": 4669,
      "istik": 4670,
      "▁normal": 4671,
      "▁Deutsche": 4672,
      "ielen": 4673,
      "rief": 4674,
      "▁Wün": 4675,
      "rücken": 4676,
      "▁Ansprüche": 4677,
      "uchte": 4678,
      "▁schließlich": 4679,
      "▁Erd": 4680,
      "▁Hochzeit": 4681,
      "▁Jav": 4682,
      "▁geschützt": 4683,
      "▁gekenn": 4684,
      "▁alt": 4685,
      "▁empfehl": 4686,
      "▁Hund": 4687,
      "artet": 4688,
      "▁Beding": 4689,
      "▁Kamer": 4690,
      "itt": 4691,
      "▁Autors": 4692,
      "▁Schu": 4693,
      "▁erleben": 4694,
      "ördert": 4695,
      "▁Bayern": 4696,
      "▁Super": 4697,
      "▁Sinne": 4698,
      "▁Grundlage": 4699,
      "▁by": 4700,
      "▁wissenschaft": 4701,
      "▁vö": 4702,
      "▁ihres": 4703,
      "mittag": 4704,
      "▁räum": 4705,
      "iten": 4706,
      "pel": 4707,
      "bruch": 4708,
      "▁anbieten": 4709,
      "▁kontaktieren": 4710,
      "▁nö": 4711,
      "ücken": 4712,
      "berger": 4713,
      "▁Verk": 4714,
      "▁haftet": 4715,
      "▁Warum": 4716,
      "▁bestehende": 4717,
      "po": 4718,
      "▁Max": 4719,
      "leisch": 4720,
      "▁Begriff": 4721,
      "▁Lösungen": 4722,
      "flug": 4723,
      "▁Falls": 4724,
      "▁Gedanken": 4725,
      "▁genug": 4726,
      "aktion": 4727,
      "amin": 4728,
      "▁deutsche": 4729,
      "▁knapp": 4730,
      "▁unabhäng": 4731,
      "▁folgende": 4732,
      "entrum": 4733,
      "enntnisse": 4734,
      "▁jeweilige": 4735,
      "▁Schlaf": 4736,
      "▁Analyse": 4737,
      "▁Einhaltung": 4738,
      "▁See": 4739,
      "▁beraten": 4740,
      "oppel": 4741,
      "▁warum": 4742,
      "erzie": 4743,
      "▁Soweit": 4744,
      "▁Stell": 4745,
      "▁uner": 4746,
      "▁angep": 4747,
      "▁Dre": 4748,
      "▁reduz": 4749,
      "▁Natürlich": 4750,
      "▁ziehen": 4751,
      "vel": 4752,
      "▁Verbrauch": 4753,
      "▁Aktionen": 4754,
      "▁jähr": 4755,
      "▁beruf": 4756,
      "Ber": 4757,
      "▁Einschrän": 4758,
      "▁gegrün": 4759,
      "lieb": 4760,
      "▁konkrete": 4761,
      "forum": 4762,
      "▁Vier": 4763,
      "▁seines": 4764,
      "▁letzte": 4765,
      "▁dire": 4766,
      "▁Ul": 4767,
      "▁grün": 4768,
      "▁Köln": 4769,
      "▁tradition": 4770,
      "▁Schon": 4771,
      "leiten": 4772,
      "▁perfe": 4773,
      "▁Kommentare": 4774,
      "▁Kirchen": 4775,
      "sprache": 4776,
      "▁Antrag": 4777,
      "unkten": 4778,
      "▁Suchbegriff": 4779,
      "dungen": 4780,
      "▁Berufs": 4781,
      "entliche": 4782,
      "▁erfolgen": 4783,
      "https": 4784,
      "zeugt": 4785,
      "▁[...]": 4786,
      "wirkungen": 4787,
      "▁fahren": 4788,
      "krain": 4789,
      "▁Herzen": 4790,
      "▁Ruhe": 4791,
      "▁vollständig": 4792,
      "▁wirtschaft": 4793,
      "ministrat": 4794,
      "▁Widerruf": 4795,
      "▁Agen": 4796,
      "▁Heimat": 4797,
      "▁bald": 4798,
      "▁Verpflicht": 4799,
      "gagement": 4800,
      "▁Tisch": 4801,
      "▁Tw": 4802,
      "▁Veröffentlicht": 4803,
      "karte": 4804,
      "▁Verbr": 4805,
      "▁hinzu": 4806,
      "ex": 4807,
      "▁Jeder": 4808,
      "▁Na": 4809,
      "etzte": 4810,
      "gien": 4811,
      "▁Schön": 4812,
      "▁umfasst": 4813,
      "▁Werbe": 4814,
      "▁besitzt": 4815,
      "▁anges": 4816,
      "▁beteil": 4817,
      "▁cm": 4818,
      "urm": 4819,
      "IL": 4820,
      "spann": 4821,
      "▁Erwachsen": 4822,
      "▁zeig": 4823,
      "▁Salz": 4824,
      "▁Position": 4825,
      "ennbar": 4826,
      "tive": 4827,
      "▁garan": 4828,
      "ilfen": 4829,
      "band": 4830,
      "▁kommerzie": 4831,
      "▁ad": 4832,
      "immel": 4833,
      "isierung": 4834,
      "igur": 4835,
      "sprün": 4836,
      "cl": 4837,
      "▁besuchen": 4838,
      "zur": 4839,
      "▁Abt": 4840,
      "▁Is": 4841,
      "akte": 4842,
      "vollen": 4843,
      "gelegt": 4844,
      "▁danach": 4845,
      "▁erl": 4846,
      "passen": 4847,
      "▁Versicher": 4848,
      "▁Leute": 4849,
      "wür": 4850,
      "▁Adresse": 4851,
      "▁Karten": 4852,
      "▁Drei": 4853,
      "▁Meer": 4854,
      "▁Bab": 4855,
      "int": 4856,
      "spieler": 4857,
      "▁zer": 4858,
      "▁gener": 4859,
      "ong": 4860,
      "rechten": 4861,
      "▁Pfer": 4862,
      "▁men": 4863,
      "▁unent": 4864,
      "legung": 4865,
      "ara": 4866,
      "▁Frist": 4867,
      "▁gern": 4868,
      "▁aufmerksam": 4869,
      "▁Bezug": 4870,
      "acher": 4871,
      "tierte": 4872,
      "▁SPD": 4873,
      "▁starten": 4874,
      "ution": 4875,
      "▁Übrigen": 4876,
      "▁Nachdem": 4877,
      "▁vergleich": 4878,
      "▁alte": 4879,
      "▁sprechen": 4880,
      "fassung": 4881,
      "▁jungen": 4882,
      "bereitung": 4883,
      "▁sex": 4884,
      "▁Meter": 4885,
      "▁Bru": 4886,
      "▁Sand": 4887,
      "▁Gefühl": 4888,
      "▁hält": 4889,
      "weder": 4890,
      "▁sorgt": 4891,
      "chner": 4892,
      "unsten": 4893,
      "▁Hör": 4894,
      "▁Vervielfäl": 4895,
      "ICH": 4896,
      "▁Fenster": 4897,
      "ink": 4898,
      "▁Kündigung": 4899,
      "▁zeitweise": 4900,
      "ales": 4901,
      "▁damals": 4902,
      "ulti": 4903,
      "eidig": 4904,
      "▁Lang": 4905,
      "▁befinden": 4906,
      "▁mon": 4907,
      "▁umfang": 4908,
      "▁Kampf": 4909,
      "▁Vo": 4910,
      "▁Gestaltung": 4911,
      "▁aktiviert": 4912,
      "irm": 4913,
      "over": 4914,
      "▁Ja": 4915,
      "▁Brem": 4916,
      "▁Kredit": 4917,
      "▁bek": 4918,
      "leitet": 4919,
      "▁Gr": 4920,
      "mode": 4921,
      "▁Elektro": 4922,
      "▁Standort": 4923,
      "▁offiz": 4924,
      "sh": 4925,
      "▁Informations": 4926,
      "▁früh": 4927,
      "text": 4928,
      "aben": 4929,
      "Cook": 4930,
      "▁Satz": 4931,
      "ämlich": 4932,
      "iums": 4933,
      "mack": 4934,
      "agn": 4935,
      "▁Kaffe": 4936,
      "rid": 4937,
      "eid": 4938,
      "▁Martin": 4939,
      "▁min": 4940,
      "obei": 4941,
      "▁genießen": 4942,
      "▁Planung": 4943,
      "▁betroffen": 4944,
      "▁Zusammenhang": 4945,
      "▁x": 4946,
      "testen": 4947,
      "mail": 4948,
      "▁Jung": 4949,
      "▁Ke": 4950,
      "▁erh": 4951,
      "▁besonderen": 4952,
      "▁Montag": 4953,
      "▁Lern": 4954,
      "fähigkeit": 4955,
      "lernen": 4956,
      "ständige": 4957,
      "fs": 4958,
      "▁Schulen": 4959,
      "▁gewinnen": 4960,
      "▁Chance": 4961,
      "publ": 4962,
      "▁Camp": 4963,
      "ielle": 4964,
      "▁stimm": 4965,
      "▁Christian": 4966,
      "Log": 4967,
      "▁herunter": 4968,
      "▁Grü": 4969,
      "▁Umständen": 4970,
      "▁anerkannt": 4971,
      "rill": 4972,
      "▁Freizeit": 4973,
      "▁national": 4974,
      "▁Aktu": 4975,
      "▁nächste": 4976,
      "▁Unterricht": 4977,
      "▁Ama": 4978,
      "zif": 4979,
      "▁Dauer": 4980,
      "▁sodass": 4981,
      "▁Engagement": 4982,
      "▁benötigt": 4983,
      "▁zählen": 4984,
      "hafte": 4985,
      "▁Hunde": 4986,
      "ädagog": 4987,
      "▁Frankfurt": 4988,
      "▁komplett": 4989,
      "▁darum": 4990,
      "stöße": 4991,
      "▁Reich": 4992,
      "wissen": 4993,
      "▁Bal": 4994,
      "Ser": 4995,
      "▁Hintergrund": 4996,
      "fordern": 4997,
      "▁Limited": 4998,
      "▁einger": 4999,
      "räume": 5000,
      "▁gesehen": 5001,
      "▁Initi": 5002,
      "▁mel": 5003,
      "fan": 5004,
      "gewöhn": 5005,
      "schlüssel": 5006,
      "▁Anschluss": 5007,
      "▁völlig": 5008,
      "laufen": 5009,
      "ometer": 5010,
      "schö": 5011,
      "▁Struktur": 5012,
      "gebaut": 5013,
      "▁th": 5014,
      "▁produz": 5015,
      "▁kleiner": 5016,
      "▁Flä": 5017,
      "▁Forschungs": 5018,
      "▁Flü": 5019,
      "▁Zwischen": 5020,
      "▁su": 5021,
      "setzungen": 5022,
      "ates": 5023,
      "▁Schalt": 5024,
      "vention": 5025,
      "ausen": 5026,
      "▁übermittelte": 5027,
      "ördern": 5028,
      "▁Verkehrs": 5029,
      "▁Alles": 5030,
      "▁Tel": 5031,
      "reite": 5032,
      "bs": 5033,
      "linik": 5034,
      "deten": 5035,
      "leiter": 5036,
      "▁Bewegung": 5037,
      "▁verarbeitet": 5038,
      "▁zustimmst": 5039,
      "iellen": 5040,
      "▁Bedarf": 5041,
      "▁Experten": 5042,
      "wählen": 5043,
      "▁Deutsch": 5044,
      "▁Führung": 5045,
      "▁gelöscht": 5046,
      "wald": 5047,
      "ziehst": 5048,
      "ams": 5049,
      "rech": 5050,
      "zähl": 5051,
      "▁entstanden": 5052,
      "▁äußer": 5053,
      "▁Nachhal": 5054,
      "äufer": 5055,
      "dert": 5056,
      "▁ober": 5057,
      "▁sozialen": 5058,
      "▁Sieg": 5059,
      "▁Bildungs": 5060,
      "▁dient": 5061,
      "▁Moder": 5062,
      "▁entgegen": 5063,
      "▁Bücher": 5064,
      "▁Zer": 5065,
      "ograph": 5066,
      "▁Innov": 5067,
      "▁modern": 5068,
      "hause": 5069,
      "▁überprüft": 5070,
      "▁hol": 5071,
      "▁Turn": 5072,
      "▁teilweise": 5073,
      "wind": 5074,
      "▁Alex": 5075,
      "▁zurückziehst": 5076,
      "▁Schweizer": 5077,
      "änden": 5078,
      "▁legen": 5079,
      "zenz": 5080,
      "▁Dass": 5081,
      "▁Dokument": 5082,
      "istischen": 5083,
      "▁Angst": 5084,
      "sex": 5085,
      "▁nämlich": 5086,
      "▁region": 5087,
      "▁Krä": 5088,
      "▁Zimmer": 5089,
      "▁schöne": 5090,
      "▁Neue": 5091,
      "▁gelesen": 5092,
      "▁Gef": 5093,
      "▁Sinn": 5094,
      "▁Vorteile": 5095,
      "ension": 5096,
      "▁Netzwerk": 5097,
      "rt": 5098,
      "bliothek": 5099,
      "▁att": 5100,
      "▁fremden": 5101,
      "▁Restaurant": 5102,
      "fernung": 5103,
      "zon": 5104,
      "ese": 5105,
      "dest": 5106,
      "lligen": 5107,
      "▁aufzu": 5108,
      "wo": 5109,
      "▁scheint": 5110,
      "▁wünschen": 5111,
      "nerstag": 5112,
      "bald": 5113,
      "endes": 5114,
      "▁Schluss": 5115,
      "▁fach": 5116,
      "▁perfekt": 5117,
      "sburg": 5118,
      "▁Tradition": 5119,
      "spar": 5120,
      "▁Bu": 5121,
      "▁Bra": 5122,
      "▁Auff": 5123,
      "▁Alb": 5124,
      "erren": 5125,
      "▁erster": 5126,
      "aun": 5127,
      "▁Halb": 5128,
      "▁Hann": 5129,
      "▁stra": 5130,
      "▁lau": 5131,
      "▁Fäh": 5132,
      "wege": 5133,
      "▁sicht": 5134,
      "liste": 5135,
      "▁erkennbar": 5136,
      "ktiven": 5137,
      "▁dienen": 5138,
      "▁Chin": 5139,
      "▁Trainer": 5140,
      "▁Aktuell": 5141,
      "▁erstellten": 5142,
      "▁Länder": 5143,
      "ama": 5144,
      "öst": 5145,
      "▁teilen": 5146,
      "▁Club": 5147,
      "cess": 5148,
      "setzt": 5149,
      "▁Meinung": 5150,
      "renzung": 5151,
      "▁Organisation": 5152,
      "deckt": 5153,
      "bro": 5154,
      "▁hinweisen": 5155,
      "Ge": 5156,
      "▁Eint": 5157,
      "gesellschaft": 5158,
      "▁zahlreichen": 5159,
      "▁engag": 5160,
      "▁Allgemein": 5161,
      "zesse": 5162,
      "▁Bedingungen": 5163,
      "▁Main": 5164,
      "▁fal": 5165,
      "▁Vielzahl": 5166,
      "▁Inhalten": 5167,
      "▁kamen": 5168,
      "▁Newsletter": 5169,
      "PL": 5170,
      "▁Konzept": 5171,
      "iete": 5172,
      "▁Pal": 5173,
      "▁Back": 5174,
      "▁innov": 5175,
      "eige": 5176,
      "▁gebracht": 5177,
      "▁kor": 5178,
      "alender": 5179,
      "raktion": 5180,
      "▁keinerlei": 5181,
      "▁lok": 5182,
      "▁bein": 5183,
      "▁mehreren": 5184,
      "▁persönliche": 5185,
      "dlich": 5186,
      "▁Bil": 5187,
      "jekten": 5188,
      "Es": 5189,
      "▁unterwegs": 5190,
      "▁Größe": 5191,
      "▁öffentlich": 5192,
      "ateien": 5193,
      "▁Beteil": 5194,
      "iertes": 5195,
      "beitet": 5196,
      "versicherung": 5197,
      "use": 5198,
      "▁Cop": 5199,
      "uhr": 5200,
      "▁internationalen": 5201,
      "▁Ländern": 5202,
      "▁acht": 5203,
      "roh": 5204,
      "▁bilden": 5205,
      "ürt": 5206,
      "klusive": 5207,
      "kul": 5208,
      "▁Therapie": 5209,
      "▁profit": 5210,
      "▁kommenden": 5211,
      "▁angemeldet": 5212,
      "flü": 5213,
      "▁Eind": 5214,
      "▁gesetzt": 5215,
      "▁größten": 5216,
      "▁kre": 5217,
      "▁schreiben": 5218,
      "▁Sign": 5219,
      "▁mobil": 5220,
      "▁Workshop": 5221,
      "eils": 5222,
      "▁Gas": 5223,
      "utbar": 5224,
      "▁Mer": 5225,
      "▁Temperatur": 5226,
      "ädig": 5227,
      "▁Jes": 5228,
      "▁konkreten": 5229,
      "▁Allerdings": 5230,
      "äuft": 5231,
      "hre": 5232,
      "▁Kooperation": 5233,
      "verbot": 5234,
      "▁gesammelt": 5235,
      "▁lo": 5236,
      "ografie": 5237,
      "▁gleichen": 5238,
      "▁dennoch": 5239,
      "ble": 5240,
      "▁Stär": 5241,
      "▁Fü": 5242,
      "▁erhoben": 5243,
      "ena": 5244,
      "▁Klassen": 5245,
      "▁arbeitet": 5246,
      "analy": 5247,
      "▁gewünsch": 5248,
      "▁Risiko": 5249,
      "eisen": 5250,
      "▁Hans": 5251,
      "▁private": 5252,
      "gliche": 5253,
      "abend": 5254,
      "▁Schmer": 5255,
      "▁Anwendung": 5256,
      "lefon": 5257,
      "▁Kontaktdaten": 5258,
      "alz": 5259,
      "rachte": 5260,
      "▁Details": 5261,
      "▁Wohnung": 5262,
      "▁zeitlich": 5263,
      "erlebnis": 5264,
      "▁Tiere": 5265,
      "▁defin": 5266,
      "wart": 5267,
      "▁Meine": 5268,
      "▁Also": 5269,
      "▁Mess": 5270,
      "▁Bew": 5271,
      "▁unbesch": 5272,
      "▁Ausland": 5273,
      "▁Euch": 5274,
      "▁Stutt": 5275,
      "ichtigung": 5276,
      "▁Ton": 5277,
      "ichtigkeit": 5278,
      "▁vorsätz": 5279,
      "▁Wege": 5280,
      "▁Java": 5281,
      "▁erheb": 5282,
      "▁Besonders": 5283,
      "▁Wirtschafts": 5284,
      "▁Option": 5285,
      "cy": 5286,
      "ival": 5287,
      "wesen": 5288,
      "▁Richtlinie": 5289,
      "quem": 5290,
      ".-": 5291,
      "▁Semin": 5292,
      "▁gez": 5293,
      "▁Moment": 5294,
      "▁Block": 5295,
      "▁verlassen": 5296,
      "▁Arzt": 5297,
      "▁http": 5298,
      "▁Presse": 5299,
      "oto": 5300,
      "▁zumutbar": 5301,
      "▁Hol": 5302,
      "▁Ster": 5303,
      "vier": 5304,
      "▁Mädchen": 5305,
      "▁disk": 5306,
      "▁Teams": 5307,
      "▁Untersuch": 5308,
      "ständigen": 5309,
      "▁Ziele": 5310,
      "▁Infos": 5311,
      "▁FC": 5312,
      "üren": 5313,
      "▁sofor": 5314,
      "▁nachfolgenden": 5315,
      "rasch": 5316,
      "▁Ausstellung": 5317,
      "ämtliche": 5318,
      "Unter": 5319,
      "karten": 5320,
      "▁zuletzt": 5321,
      "▁News": 5322,
      "▁Schlüssel": 5323,
      "tegie": 5324,
      "▁wichtigsten": 5325,
      "▁Opti": 5326,
      "▁fahrläss": 5327,
      "formular": 5328,
      "▁Vorsitzen": 5329,
      "▁mittlerweile": 5330,
      "▁Materialien": 5331,
      "▁schließt": 5332,
      "anne": 5333,
      "ikro": 5334,
      "▁Show": 5335,
      "▁psych": 5336,
      "▁Schließ": 5337,
      "halle": 5338,
      "▁gere": 5339,
      "▁versuchen": 5340,
      "▁Bevölker": 5341,
      "fälle": 5342,
      "▁Ir": 5343,
      "ish": 5344,
      "▁Kompeten": 5345,
      "ammeln": 5346,
      "person": 5347,
      "kultur": 5348,
      "▁Küche": 5349,
      "▁verurs": 5350,
      "sverhältnis": 5351,
      "forderung": 5352,
      "▁Leit": 5353,
      "▁Förderung": 5354,
      "▁krit": 5355,
      "▁empfehlen": 5356,
      "Wiki": 5357,
      "▁Freunde": 5358,
      "▁gekennzeichnet": 5359,
      "▁geh": 5360,
      "▁Geist": 5361,
      "▁medizin": 5362,
      "▁Sicherheits": 5363,
      "ildet": 5364,
      "▁wichtiger": 5365,
      "▁Pflichten": 5366,
      "▁erg": 5367,
      "▁Song": 5368,
      "▁Benutzern": 5369,
      "▁Pil": 5370,
      "▁Wild": 5371,
      "steigen": 5372,
      "▁Vorlage": 5373,
      "▁erreich": 5374,
      "▁Konto": 5375,
      "ört": 5376,
      "▁Hof": 5377,
      "iefer": 5378,
      "▁verloren": 5379,
      "gart": 5380,
      "üsseld": 5381,
      "gration": 5382,
      "▁aktivieren": 5383,
      "stellungs": 5384,
      "▁machte": 5385,
      "▁Anlage": 5386,
      "▁Geburtstag": 5387,
      "▁Hor": 5388,
      "▁akzep": 5389,
      "tert": 5390,
      "▁zurückzuführen": 5391,
      "▁Entfernung": 5392,
      "▁Geräte": 5393,
      "▁Videos": 5394,
      "twoch": 5395,
      "▁Aktivitäten": 5396,
      "▁widersprechen": 5397,
      "▁Hersteller": 5398,
      "▁Erstellen": 5399,
      "▁Dafür": 5400,
      "otto": 5401,
      "▁Sofern": 5402,
      "▁Morgen": 5403,
      "▁Kern": 5404,
      "pd": 5405,
      "▁mitgeteilt": 5406,
      "gericht": 5407,
      "▁Bezir": 5408,
      "ags": 5409,
      "▁Nor": 5410,
      "▁Trend": 5411,
      "arzt": 5412,
      "▁Begl": 5413,
      "ordnet": 5414,
      "liga": 5415,
      "▁Hinweise": 5416,
      "linien": 5417,
      "▁Verbreitung": 5418,
      "alifiz": 5419,
      "yright": 5420,
      "▁Klasse": 5421,
      "ournal": 5422,
      "▁Handel": 5423,
      "▁perman": 5424,
      "scheinlich": 5425,
      "▁herr": 5426,
      "▁mussten": 5427,
      "hlen": 5428,
      "--------": 5429,
      "▁beginnen": 5430,
      "UNG": 5431,
      "▁zugunsten": 5432,
      "▁älter": 5433,
      "▁Dadurch": 5434,
      "gten": 5435,
      "▁Abma": 5436,
      "baut": 5437,
      "of": 5438,
      "▁Vertreter": 5439,
      "holen": 5440,
      "▁Sim": 5441,
      "▁tätig": 5442,
      "▁liebe": 5443,
      "▁wobei": 5444,
      "TV": 5445,
      "mut": 5446,
      "▁fremde": 5447,
      "wortet": 5448,
      "▁vorgesehen": 5449,
      "▁solchen": 5450,
      "orte": 5451,
      "▁gefähr": 5452,
      "▁wenigen": 5453,
      "AM": 5454,
      "▁kü": 5455,
      "atoren": 5456,
      "▁Hoff": 5457,
      "▁Weitergabe": 5458,
      "▁Tim": 5459,
      "▁Lebensmittel": 5460,
      "▁he": 5461,
      "werben": 5462,
      "▁hervorragen": 5463,
      "genehm": 5464,
      "rein": 5465,
      "▁reich": 5466,
      "eiern": 5467,
      "▁grundsätzlich": 5468,
      "▁Zeitraum": 5469,
      "ährt": 5470,
      "▁Verbesser": 5471,
      "rachen": 5472,
      "auern": 5473,
      "frieden": 5474,
      "▁Weiterlesen": 5475,
      "▁Casino": 5476,
      "▁berücks": 5477,
      "▁Offen": 5478,
      "▁jün": 5479,
      "▁Zür": 5480,
      "▁schützen": 5481,
      "▁fü": 5482,
      "▁genannt": 5483,
      "Script": 5484,
      "EM": 5485,
      "riere": 5486,
      "▁Betriebs": 5487,
      "ieter": 5488,
      "iegen": 5489,
      "nutzung": 5490,
      "yl": 5491,
      "▁Dorf": 5492,
      "▁Russ": 5493,
      "quenzen": 5494,
      "ektor": 5495,
      "▁schönen": 5496,
      "ologische": 5497,
      "▁pf": 5498,
      "▁Staat": 5499,
      "istische": 5500,
      "▁Schrift": 5501,
      "iveau": 5502,
      "werbe": 5503,
      "▁Donnerstag": 5504,
      "service": 5505,
      "hafen": 5506,
      "▁körper": 5507,
      "▁voraus": 5508,
      "▁Farb": 5509,
      "▁sieben": 5510,
      "▁Alters": 5511,
      "▁Eingabe": 5512,
      "▁verfügbar": 5513,
      "▁Weihnachts": 5514,
      "stellers": 5515,
      "omit": 5516,
      "▁You": 5517,
      "mand": 5518,
      "▁Nachbar": 5519,
      "▁Zeichen": 5520,
      "▁Urs": 5521,
      "verl": 5522,
      "behalt": 5523,
      "▁dur": 5524,
      "▁Gesundheits": 5525,
      "▁Leip": 5526,
      "stößen": 5527,
      "▁miteinander": 5528,
      "▁Homepage": 5529,
      "IG": 5530,
      "qualität": 5531,
      "iness": 5532,
      "▁rie": 5533,
      "▁Quelle": 5534,
      "▁Wochenende": 5535,
      "▁Gefahr": 5536,
      "alisiert": 5537,
      "▁Antwort": 5538,
      "▁fahrlässiges": 5539,
      "ologischen": 5540,
      "▁Orts": 5541,
      "▁vorsätzliches": 5542,
      "▁ausschließen": 5543,
      "iar": 5544,
      "ynam": 5545,
      "▁Fahrrad": 5546,
      "spunkte": 5547,
      "▁Erinner": 5548,
      "▁ausblenden": 5549,
      "▁Trau": 5550,
      "con": 5551,
      "AD": 5552,
      "▁Gelegen": 5553,
      "▁bekommt": 5554,
      "▁Straf": 5555,
      "linge": 5556,
      "▁Smartph": 5557,
      "▁Zentrum": 5558,
      "regierung": 5559,
      "okus": 5560,
      "▁individuellen": 5561,
      "freie": 5562,
      "älfte": 5563,
      "▁Ord": 5564,
      "▁einfaches": 5565,
      "ängt": 5566,
      "▁zugestimmt": 5567,
      "________": 5568,
      "komp": 5569,
      "▁Transport": 5570,
      "▁Kreuz": 5571,
      "riebe": 5572,
      "▁Bereits": 5573,
      "▁unterschiedlich": 5574,
      "▁Betroffen": 5575,
      "▁digitalen": 5576,
      "til": 5577,
      "▁Urheberrechte": 5578,
      "fektion": 5579,
      "▁erlaubt": 5580,
      "▁Italien": 5581,
      "teuer": 5582,
      "▁Af": 5583,
      "▁begann": 5584,
      "▁Orig": 5585,
      "▁diver": 5586,
      "blättern": 5587,
      "rastruktur": 5588,
      "dungs": 5589,
      "▁findest": 5590,
      "▁rei": 5591,
      "▁geboren": 5592,
      "▁kombin": 5593,
      "▁fa": 5594,
      "▁Umfang": 5595,
      "▁Bit": 5596,
      "▁Publikum": 5597,
      "DR": 5598,
      "pfl": 5599,
      "rücke": 5600,
      "gerät": 5601,
      "▁Spam": 5602,
      "System": 5603,
      "setz": 5604,
      "ikt": 5605,
      "aser": 5606,
      "▁plan": 5607,
      "▁Regierung": 5608,
      "▁it": 5609,
      "▁Gründen": 5610,
      "sparen": 5611,
      "wissenschaft": 5612,
      "▁Typ": 5613,
      "▁bas": 5614,
      "▁Pri": 5615,
      "▁hätten": 5616,
      "stern": 5617,
      "omie": 5618,
      "▁wenige": 5619,
      "äng": 5620,
      "▁JavaScript": 5621,
      "ochter": 5622,
      "▁Beweg": 5623,
      "▁Europäischen": 5624,
      "verantwortlich": 5625,
      "▁Chem": 5626,
      "▁tro": 5627,
      "▁wichtigen": 5628,
      "aufnahme": 5629,
      "▁entschieden": 5630,
      "wendungen": 5631,
      "▁Farbe": 5632,
      "mittelt": 5633,
      "▁digitale": 5634,
      "illen": 5635,
      "▁Ker": 5636,
      "▁Erkrank": 5637,
      "box": 5638,
      "▁manchmal": 5639,
      "▁Szen": 5640,
      "▁verbindlich": 5641,
      "▁Kenn": 5642,
      "▁Nachhaltigkeit": 5643,
      "▁Trans": 5644,
      "holz": 5645,
      "AB": 5646,
      "▁Interview": 5647,
      "▁Sohn": 5648,
      "emente": 5649,
      "▁Institut": 5650,
      "▁bede": 5651,
      "aket": 5652,
      "Inhalte": 5653,
      "herr": 5654,
      "auso": 5655,
      "▁Umfragen": 5656,
      "ernt": 5657,
      "TE": 5658,
      "▁weder": 5659,
      "▁Leiter": 5660,
      "▁Persön": 5661,
      "▁rechts": 5662,
      "▁verfügt": 5663,
      "“-": 5664,
      "▁schriftlichen": 5665,
      "ana": 5666,
      "kunde": 5667,
      "▁wenden": 5668,
      "SGVO": 5669,
      "▁Bef": 5670,
      "▁Com": 5671,
      "heits": 5672,
      "▁sperren": 5673,
      "For": 5674,
      "schulen": 5675,
      "▁Baden": 5676,
      "mlich": 5677,
      "zepte": 5678,
      "▁erwartet": 5679,
      "gf": 5680,
      "▁gekommen": 5681,
      "▁Traum": 5682,
      "▁Zahlungs": 5683,
      "▁Studie": 5684,
      "jenigen": 5685,
      "ly": 5686,
      "▁steigen": 5687,
      "▁zwingen": 5688,
      "part": 5689,
      "entwicklung": 5690,
      "▁nachdem": 5691,
      "▁gegründet": 5692,
      "▁entweder": 5693,
      "ile": 5694,
      "bezüglich": 5695,
      "gehö": 5696,
      "▁läuft": 5697,
      "▁Out": 5698,
      "uern": 5699,
      "pfel": 5700,
      "▁Vorteil": 5701,
      "kampf": 5702,
      "atter": 5703,
      "▁selber": 5704,
      "▁Social": 5705,
      "renz": 5706,
      "▁jemand": 5707,
      "▁Sing": 5708,
      "▁Produkten": 5709,
      "▁zumindest": 5710,
      "▁anzeigen": 5711,
      "▁Mittwoch": 5712,
      "zern": 5713,
      "film": 5714,
      "bereit": 5715,
      "▁heutigen": 5716,
      "▁glück": 5717,
      "▁Stunde": 5718,
      "que": 5719,
      "ssystem": 5720,
      "har": 5721,
      "▁Gre": 5722,
      "▁Zusät": 5723,
      "Kon": 5724,
      "▁Klick": 5725,
      "ba": 5726,
      "irn": 5727,
      "maßnahmen": 5728,
      "vic": 5729,
      "▁dür": 5730,
      "▁Vit": 5731,
      "able": 5732,
      "▁Abmahnung": 5733,
      "far": 5734,
      "heben": 5735,
      "▁Büro": 5736,
      "▁verändert": 5737,
      "▁gemeinsamen": 5738,
      "lichkeiten": 5739,
      "ows": 5740,
      "sverl": 5741,
      "▁Sitten": 5742,
      "dauer": 5743,
      "pol": 5744,
      "App": 5745,
      "▁mittels": 5746,
      "▁zufrieden": 5747,
      "▁eingegebenen": 5748,
      "▁Laut": 5749,
      "Al": 5750,
      "▁fällt": 5751,
      "▁Studium": 5752,
      "▁gesetzlichen": 5753,
      "▁Leiden": 5754,
      "▁Löschung": 5755,
      "essour": 5756,
      "▁Stefan": 5757,
      "▁Gemeinsam": 5758,
      "spielen": 5759,
      "▁Herren": 5760,
      "tierten": 5761,
      "▁behalten": 5762,
      "RW": 5763,
      "▁Copyright": 5764,
      "▁Jugendlichen": 5765,
      "▁weisen": 5766,
      "▁wirkt": 5767,
      "▁durchaus": 5768,
      "werbung": 5769,
      "upp": 5770,
      "LE": 5771,
      ".:": 5772,
      "▁tief": 5773,
      "itionen": 5774,
      "▁Prüf": 5775,
      "gänge": 5776,
      "▁leisten": 5777,
      "▁Nachfrage": 5778,
      "▁extrem": 5779,
      "▁Twitter": 5780,
      "▁No": 5781,
      "ions": 5782,
      "▁Lü": 5783,
      "hnt": 5784,
      "▁Ed": 5785,
      "▁erwarten": 5786,
      "▁unentgelt": 5787,
      "▁Sü": 5788,
      "▁Noch": 5789,
      "▁informiert": 5790,
      "rimin": 5791,
      "eilung": 5792,
      "▁Schn": 5793,
      "ampag": 5794,
      "rucken": 5795,
      "eiert": 5796,
      "▁individuelle": 5797,
      "▁Yog": 5798,
      "irus": 5799,
      "▁Grafiken": 5800,
      "▁Verd": 5801,
      "▁spricht": 5802,
      "mes": 5803,
      "ole": 5804,
      "oo": 5805,
      "▁Architektur": 5806,
      "▁Widerspruchs": 5807,
      "▁Lehrer": 5808,
      "▁Hü": 5809,
      "▁erweiter": 5810,
      "▁Pat": 5811,
      "▁effe": 5812,
      "▁Andreas": 5813,
      "▁speziell": 5814,
      "▁Seine": 5815,
      "▁fragen": 5816,
      "▁Öl": 5817,
      "▁kommerziellen": 5818,
      "itär": 5819,
      "▁Tanz": 5820,
      "icro": 5821,
      "▁Bio": 5822,
      "▁Wh": 5823,
      "armon": 5824,
      "▁Schnit": 5825,
      "▁sucht": 5826,
      "▁Öffentlich": 5827,
      "ille": 5828,
      "wä": 5829,
      "▁Party": 5830,
      "▁Wettbewerb": 5831,
      "Cookies": 5832,
      "▁prü": 5833,
      "▁ständig": 5834,
      "holt": 5835,
      "▁Seni": 5836,
      "▁trägt": 5837,
      "ymp": 5838,
      "ork": 5839,
      "ith": 5840,
      "▁personalisieren": 5841,
      "▁fördern": 5842,
      "OL": 5843,
      "fristig": 5844,
      "UR": 5845,
      "▁Anti": 5846,
      "mosphäre": 5847,
      "ane": 5848,
      "▁Aufgrund": 5849,
      "▁Wechsel": 5850,
      "▁wachsen": 5851,
      "▁Hein": 5852,
      "rien": 5853,
      "▁Bö": 5854,
      "▁Doppel": 5855,
      "▁Sonne": 5856,
      "kund": 5857,
      "▁achten": 5858,
      "▁Gerade": 5859,
      "recher": 5860,
      "▁gekündigt": 5861,
      "▁diesbezüglich": 5862,
      "▁international": 5863,
      "▁großes": 5864,
      "▁Ba": 5865,
      "▁links": 5866,
      "▁Terr": 5867,
      "▁install": 5868,
      "ümer": 5869,
      "Betreiber": 5870,
      "beratung": 5871,
      "▁Ukrain": 5872,
      "▁Lernen": 5873,
      "▁Nr": 5874,
      "▁Angabe": 5875,
      "omen": 5876,
      "▁Verbrauchern": 5877,
      "atus": 5878,
      "▁Management": 5879,
      "▁Aufbau": 5880,
      "fahrung": 5881,
      "▁Rechtsverstöße": 5882,
      "▁Vergangen": 5883,
      "▁Rie": 5884,
      "iste": 5885,
      "onn": 5886,
      "▁Berliner": 5887,
      "▁gesellschaft": 5888,
      "▁anderes": 5889,
      "angebote": 5890,
      "▁Gewalt": 5891,
      "omaten": 5892,
      "▁üb": 5893,
      "geschrieben": 5894,
      "▁Leider": 5895,
      "▁beachtet": 5896,
      "▁rel": 5897,
      "▁Wil": 5898,
      "▁bestimmt": 5899,
      "publik": 5900,
      "ction": 5901,
      "▁Jahrhundert": 5902,
      "klasse": 5903,
      "▁Fans": 5904,
      "zut": 5905,
      "verläss": 5906,
      "äische": 5907,
      "▁Lab": 5908,
      "▁Sache": 5909,
      "werks": 5910,
      "▁beträgt": 5911,
      "▁Wärme": 5912,
      "▁technischen": 5913,
      "▁Erfüllungs": 5914,
      "▁räumlich": 5915,
      "▁Integration": 5916,
      "▁Jugendliche": 5917,
      "▁Schritte": 5918,
      "▁verändern": 5919,
      "▁Ernährung": 5920,
      "reichend": 5921,
      "▁Einen": 5922,
      "▁fremder": 5923,
      "ziehungs": 5924,
      "waltungs": 5925,
      "▁Bier": 5926,
      "▁kür": 5927,
      "pflege": 5928,
      "gner": 5929,
      "▁Prakti": 5930,
      "▁Reisen": 5931,
      "▁Stuttgart": 5932,
      "▁abgeschlossen": 5933,
      "▁Verwertung": 5934,
      "▁langsam": 5935,
      "▁Verstößen": 5936,
      "iser": 5937,
      "uh": 5938,
      "▁Haar": 5939,
      "ministratoren": 5940,
      "▁übt": 5941,
      "▁bequem": 5942,
      "Wer": 5943,
      "▁Erde": 5944,
      "dateien": 5945,
      "raucht": 5946,
      "▁größte": 5947,
      "ziplin": 5948,
      "▁Fokus": 5949,
      "Le": 5950,
      "▁langen": 5951,
      "▁stattfinden": 5952,
      "beit": 5953,
      "▁Maschinen": 5954,
      "▁ag": 5955,
      "▁Üb": 5956,
      "gangs": 5957,
      "lack": 5958,
      "▁kultur": 5959,
      "▁Bä": 5960,
      "▁inzwischen": 5961,
      "ordin": 5962,
      "barer": 5963,
      "▁Einkauf": 5964,
      "▁sofortiger": 5965,
      "ages": 5966,
      "▁Vollständigkeit": 5967,
      "häuser": 5968,
      "▁SE": 5969,
      "▁Geh": 5970,
      "▁Gu": 5971,
      "▁unmittel": 5972,
      "▁Erweiter": 5973,
      "▁solcher": 5974,
      "▁gesagt": 5975,
      "Jähr": 5976,
      "▁entsteht": 5977,
      "GB": 5978,
      "▁denken": 5979,
      "▁wechs": 5980,
      "▁mensch": 5981,
      "ischem": 5982,
      "▁Arbeitgeber": 5983,
      "käm": 5984,
      "▁passende": 5985,
      "srecht": 5986,
      "▁Einfach": 5987,
      "anwalt": 5988,
      "▁Danach": 5989,
      "to": 5990,
      "ld": 5991,
      "▁Beschäf": 5992,
      "▁künf": 5993,
      "▁Fla": 5994,
      "▁aufgenommen": 5995,
      "ständnis": 5996,
      "gi": 5997,
      "onen": 5998,
      "▁hören": 5999,
      "▁usw": 6000,
      "▁relev": 6001,
      "▁par": 6002,
      "läuf": 6003,
      "▁Keine": 6004,
      "▁unbestimmte": 6005,
      "▁Impf": 6006,
      "▁verf": 6007,
      "▁dahin": 6008,
      "▁ggf": 6009,
      "▁warten": 6010,
      "okal": 6011,
      "▁Unternehmern": 6012,
      "ory": 6013,
      "▁publ": 6014,
      "tau": 6015,
      "▁Chancen": 6016,
      "ING": 6017,
      "gemeinschaft": 6018,
      "▁vermeiden": 6019,
      "▁Papier": 6020,
      "▁hal": 6021,
      "gül": 6022,
      "▁Miet": 6023,
      "arn": 6024,
      "ängen": 6025,
      "schläge": 6026,
      "▁zeich": 6027,
      "wa": 6028,
      "▁musikal": 6029,
      "▁Nutzungsrecht": 6030,
      "stagram": 6031,
      "▁Insel": 6032,
      "echan": 6033,
      "▁Bedürfnisse": 6034,
      "▁ursprün": 6035,
      "tä": 6036,
      "▁auswählen": 6037,
      "▁geltendes": 6038,
      "leger": 6039,
      "▁reicht": 6040,
      "BN": 6041,
      "pfe": 6042,
      "▁Zusch": 6043,
      "▁Lesen": 6044,
      "daktion": 6045,
      "AC": 6046,
      "krank": 6047,
      "▁könnt": 6048,
      "▁Bot": 6049,
      "runde": 6050,
      "▁darunter": 6051,
      "▁begrü": 6052,
      "▁Behör": 6053,
      "begrenzung": 6054,
      "▁hiermit": 6055,
      "▁Engl": 6056,
      "▁Mass": 6057,
      "▁Damen": 6058,
      "▁Mor": 6059,
      "wirken": 6060,
      "fa": 6061,
      "▁fühlen": 6062,
      "splan": 6063,
      "▁Seitenbetreiber": 6064,
      "▁Angriff": 6065,
      "▁Nutzererlebnis": 6066,
      "▁passt": 6067,
      "▁Anhalt": 6068,
      "▁Vertrauen": 6069,
      "▁Install": 6070,
      "mund": 6071,
      "andid": 6072,
      "▁Kombination": 6073,
      "▁vorber": 6074,
      "▁Downloads": 6075,
      "▁kommun": 6076,
      "▁Pre": 6077,
      "▁Lust": 6078,
      "▁tolle": 6079,
      "▁versucht": 6080,
      "▁Ehe": 6081,
      "▁flex": 6082,
      "▁freund": 6083,
      "▁Bevölkerung": 6084,
      "▁erlischt": 6085,
      "aust": 6086,
      "äne": 6087,
      "▁Interess": 6088,
      "geräte": 6089,
      "!“": 6090,
      "hlt": 6091,
      "rang": 6092,
      "fahrer": 6093,
      "räumung": 6094,
      "▁Prem": 6095,
      "▁Zuf": 6096,
      "▁Schülerinnen": 6097,
      "gehilfen": 6098,
      "ituationen": 6099,
      "▁reag": 6100,
      "▁Wichtig": 6101,
      "▁Verpflichtungen": 6102,
      "freien": 6103,
      "▁Vom": 6104,
      "▁Aktualität": 6105,
      "▁Schaltfläche": 6106,
      "▁begeister": 6107,
      "▁Dro": 6108,
      "▁ruh": 6109,
      "▁Grad": 6110,
      "▁führte": 6111,
      "▁Charakter": 6112,
      "bilder": 6113,
      "bus": 6114,
      "techn": 6115,
      "geord": 6116,
      "▁Coach": 6117,
      "▁stud": 6118,
      "PS": 6119,
      "alog": 6120,
      "▁sogenannten": 6121,
      "uk": 6122,
      "▁Halt": 6123,
      "fr": 6124,
      "iebt": 6125,
      "▁Benutzung": 6126,
      "reut": 6127,
      "▁modernen": 6128,
      "pres": 6129,
      "OC": 6130,
      "▁geschrieben": 6131,
      "▁Düsseld": 6132,
      "▁Poten": 6133,
      "▁Absätze": 6134,
      "▁Bestellung": 6135,
      "▁Kaffee": 6136,
      "▁sprach": 6137,
      "▁Frem": 6138,
      "▁Vergangenheit": 6139,
      "▁Öffentlichkeit": 6140,
      "▁einzigar": 6141,
      "▁lag": 6142,
      "▁Schlagwörter": 6143,
      "▁Schnitt": 6144,
      "enter": 6145,
      "▁Spielen": 6146,
      "ux": 6147,
      "▁überwachen": 6148,
      "edia": 6149,
      "▁Karte": 6150,
      "forschung": 6151,
      "nissen": 6152,
      "▁Group": 6153,
      "ärm": 6154,
      "▁Sein": 6155,
      "▁bezeichnet": 6156,
      "▁Spenden": 6157,
      "▁positiv": 6158,
      "mod": 6159,
      "ränktes": 6160,
      "bas": 6161,
      "▁wirken": 6162,
      "▁interessante": 6163,
      "raining": 6164,
      "▁Wür": 6165,
      "▁untersagen": 6166,
      "räumen": 6167,
      "▁voller": 6168,
      "▁Zustand": 6169,
      "schm": 6170,
      "▁Fo": 6171,
      "▁Gö": 6172,
      "▁Kopien": 6173,
      "▁Open": 6174,
      "denburg": 6175,
      "aat": 6176,
      "ames": 6177,
      "▁inhaltliche": 6178,
      "iden": 6179,
      "ards": 6180,
      "▁beob": 6181,
      "▁Verwaltung": 6182,
      "▁schneller": 6183,
      "▁ausgeschlossen": 6184,
      "▁DSGVO": 6185,
      "schn": 6186,
      "▁herzlich": 6187,
      "sted": 6188,
      "▁IN": 6189,
      "derung": 6190,
      "ählte": 6191,
      "▁analy": 6192,
      "avig": 6193,
      "▁geplant": 6194,
      "▁Auss": 6195,
      "▁sinngemäß": 6196,
      "▁Besuchern": 6197,
      "lecht": 6198,
      "▁Tochter": 6199,
      "hor": 6200,
      "arkt": 6201,
      "seiten": 6202,
      "angs": 6203,
      "▁Hausrecht": 6204,
      "▁Minister": 6205,
      "▁vorbe": 6206,
      "▁Museum": 6207,
      "▁gewonnen": 6208,
      "▁sport": 6209,
      "▁Andere": 6210,
      "wach": 6211,
      "ios": 6212,
      "▁Pan": 6213,
      "▁gelegen": 6214,
      "▁Hälfte": 6215,
      "osoph": 6216,
      "▁Einräumung": 6217,
      "▁stellte": 6218,
      "Ab": 6219,
      "une": 6220,
      "UM": 6221,
      "vid": 6222,
      "▁vertreten": 6223,
      "weite": 6224,
      "▁Nutzungsrechten": 6225,
      "▁dritten": 6226,
      "hoch": 6227,
      "apan": 6228,
      "herige": 6229,
      "ski": 6230,
      "eitete": 6231,
      "▁Kollegen": 6232,
      "▁Gi": 6233,
      "ichtete": 6234,
      "ichtigt": 6235,
      "blei": 6236,
      "omin": 6237,
      "AP": 6238,
      "▁gezeigt": 6239,
      "▁Liebl": 6240,
      "uhl": 6241,
      "formation": 6242,
      "▁abzuändern": 6243,
      "▁erstmals": 6244,
      "▁überall": 6245,
      "▁Pop": 6246,
      "▁Serie": 6247,
      "▁tra": 6248,
      "▁weiterer": 6249,
      "▁entdecken": 6250,
      "essourcen": 6251,
      "▁Mas": 6252,
      "atisch": 6253,
      "▁Änderungsvor": 6254,
      "▁Lese": 6255,
      "▁folgt": 6256,
      "rug": 6257,
      "▁Technologie": 6258,
      "ugen": 6259,
      "▁übernommen": 6260,
      "atungs": 6261,
      "▁Wünsche": 6262,
      "▁drau": 6263,
      "▁Hausverbot": 6264,
      "enz": 6265,
      "fachen": 6266,
      "▁Stress": 6267,
      "▁Zürich": 6268,
      "▁Teilen": 6269,
      "GPL": 6270,
      "▁zuzufügen": 6271,
      "gren": 6272,
      "▁Tabe": 6273,
      "▁PC": 6274,
      "▁Sitzung": 6275,
      "▁Rö": 6276,
      "▁Ehren": 6277,
      "▁gemeinsame": 6278,
      "▁Bach": 6279,
      "▁Unterpunkt": 6280,
      "▁Verband": 6281,
      "▁Span": 6282,
      "▁My": 6283,
      "▁nationalem": 6284,
      "örungen": 6285,
      "maschinen": 6286,
      "enken": 6287,
      "▁Varian": 6288,
      "spartner": 6289,
      "formen": 6290,
      "kö": 6291,
      "▁unbeschränktes": 6292,
      "▁unentgeltliches": 6293,
      "▁Pod": 6294,
      "ählten": 6295,
      "▁soziale": 6296,
      "obby": 6297,
      "▁Dienstag": 6298,
      "▁welchen": 6299,
      "spflicht": 6300,
      "Auf": 6301,
      "▁Fahrt": 6302,
      "▁invest": 6303,
      "▁guter": 6304,
      "▁Frieden": 6305,
      "UT": 6306,
      "▁bezüglich": 6307,
      "ehrt": 6308,
      "älte": 6309,
      "▁zwingendem": 6310,
      "scheine": 6311,
      "▁Rest": 6312,
      "▁Bereit": 6313,
      "▁Gesicht": 6314,
      "▁empfohlen": 6315,
      "▁Hall": 6316,
      "ita": 6317,
      "▁Stil": 6318,
      "abet": 6319,
      "▁gelungen": 6320,
      "▁telefon": 6321,
      "▁genauso": 6322,
      "▁Dres": 6323,
      "▁bedürfen": 6324,
      "splatz": 6325,
      "sem": 6326,
      "▁Jahrzehn": 6327,
      "▁Schwerpunkt": 6328,
      "▁Formen": 6329,
      "▁Archiv": 6330,
      "▁Prüfung": 6331,
      "way": 6332,
      "▁darfst": 6333,
      "▁absolv": 6334,
      "rennen": 6335,
      "▁Auswirkungen": 6336,
      "schaffen": 6337,
      "ders": 6338,
      "▁egal": 6339,
      "▁geführt": 6340,
      "▁Brü": 6341,
      "▁ließ": 6342,
      "aub": 6343,
      "▁dagegen": 6344,
      "MS": 6345,
      "erner": 6346,
      "▁rechtswidrige": 6347,
      "▁fall": 6348,
      "analyse": 6349,
      "▁Gelegenheit": 6350,
      "▁verfügen": 6351,
      "▁Paul": 6352,
      "bad": 6353,
      "▁Eng": 6354,
      "▁Burg": 6355,
      "▁präsentiert": 6356,
      "▁Richtigkeit": 6357,
      "▁Karl": 6358,
      "▁konzentr": 6359,
      "▁Ag": 6360,
      "▁heim": 6361,
      "▁Weil": 6362,
      "▁mark": 6363,
      "äss": 6364,
      "▁Best": 6365,
      "▁Tat": 6366,
      "ubil": 6367,
      "▁Kla": 6368,
      "▁Frankreich": 6369,
      "mon": 6370,
      "digen": 6371,
      "▁erzählt": 6372,
      "▁Schloss": 6373,
      "▁Cont": 6374,
      "▁Bereiche": 6375,
      "▁Vielfalt": 6376,
      "▁Leser": 6377,
      "ieß": 6378,
      "sprozess": 6379,
      "▁dre": 6380,
      "rypt": 6381,
      "itar": 6382,
      "▁neg": 6383,
      "rip": 6384,
      "▁Air": 6385,
      "▁SV": 6386,
      "▁Del": 6387,
      "The": 6388,
      "kan": 6389,
      "ielten": 6390,
      "▁Roman": 6391,
      "kat": 6392,
      "▁bedeuten": 6393,
      "▁hergestellt": 6394,
      "▁Tal": 6395,
      "▁Koch": 6396,
      "▁Mitgliedern": 6397,
      "its": 6398,
      "▁liefer": 6399,
      "▁begleiten": 6400,
      "▁erhältlich": 6401,
      "▁disku": 6402,
      "erseits": 6403,
      "▁bi": 6404,
      "▁Stiftung": 6405,
      "▁Heiz": 6406,
      "▁ziemlich": 6407,
      "▁Anhaltspunkte": 6408,
      "ical": 6409,
      "ühm": 6410,
      "▁Win": 6411,
      "zy": 6412,
      "▁zeigte": 6413,
      "chem": 6414,
      "-)": 6415,
      "▁Perspe": 6416,
      "▁fehlt": 6417,
      "▁sammeln": 6418,
      "▁kennt": 6419,
      "▁Bestimmungen": 6420,
      "Ph": 6421,
      "verwaltung": 6422,
      "▁Motiv": 6423,
      "▁Metall": 6424,
      "zten": 6425,
      "▁Wachst": 6426,
      "▁verst": 6427,
      "▁drin": 6428,
      "verk": 6429,
      "bil": 6430,
      "▁Ukraine": 6431,
      "inu": 6432,
      "▁Streit": 6433,
      "▁Landkreis": 6434,
      "▁Hum": 6435,
      "sprung": 6436,
      "▁Ersatz": 6437,
      "▁komplex": 6438,
      "▁Geschmack": 6439,
      "▁Marke": 6440,
      "▁einzige": 6441,
      "cel": 6442,
      "▁Trainings": 6443,
      "▁käm": 6444,
      "▁grü": 6445,
      "usstsein": 6446,
      "folgt": 6447,
      "ools": 6448,
      "▁NRW": 6449,
      "▁passiert": 6450,
      "▁Unfall": 6451,
      "▁Instagram": 6452,
      "orben": 6453,
      "versorgung": 6454,
      "▁Schließlich": 6455,
      "GN": 6456,
      "stattet": 6457,
      "handlungen": 6458,
      "DE": 6459,
      "▁Bonus": 6460,
      "▁technisch": 6461,
      "haften": 6462,
      "▁berichtet": 6463,
      "reig": 6464,
      "Ne": 6465,
      "▁Tats": 6466,
      "han": 6467,
      "sitz": 6468,
      "▁Play": 6469,
      "▁Zusätzlich": 6470,
      "▁Cas": 6471,
      "▁Zeitschrift": 6472,
      "▁Linie": 6473,
      "IR": 6474,
      "▁Matt": 6475,
      "▁erfüllen": 6476,
      "veranstalt": 6477,
      "liegt": 6478,
      "▁hiervon": 6479,
      "ters": 6480,
      "▁Dial": 6481,
      "▁Runde": 6482,
      "▁Überblick": 6483,
      "▁liefern": 6484,
      "züge": 6485,
      "vin": 6486,
      "▁Mikro": 6487,
      "melden": 6488,
      "ther": 6489,
      "speicherung": 6490,
      "▁essen": 6491,
      "▁gutes": 6492,
      "▁Aben": 6493,
      "ffekt": 6494,
      "▁Roll": 6495,
      "▁fertig": 6496,
      "▁ausgeb": 6497,
      "IM": 6498,
      "cast": 6499,
      "back": 6500,
      "▁treten": 6501,
      "▁europäischen": 6502,
      "tigkeiten": 6503,
      "ostet": 6504,
      "▁Aufent": 6505,
      "▁Pe": 6506,
      "▁Empfehl": 6507,
      "▁Daniel": 6508,
      "▁Kompon": 6509,
      "▁gül": 6510,
      "▁Unterschied": 6511,
      "gestaltung": 6512,
      "üse": 6513,
      "▁Han": 6514,
      "▁Stoff": 6515,
      "▁kurze": 6516,
      "▁§§": 6517,
      "endung": 6518,
      "▁erleich": 6519,
      "kre": 6520,
      "ungsbereich": 6521,
      "▁Vielleicht": 6522,
      "▁Belieb": 6523,
      "udenten": 6524,
      "gelassen": 6525,
      "weil": 6526,
      "länd": 6527,
      "▁Russland": 6528,
      "bericht": 6529,
      "▁Namens": 6530,
      "musik": 6531,
      "▁unverb": 6532,
      "▁beschäftigt": 6533,
      "▁Ext": 6534,
      "etzten": 6535,
      "▁nutzt": 6536,
      "hlight": 6537,
      "▁Milliar": 6538,
      "▁Bühne": 6539,
      "gerech": 6540,
      "handel": 6541,
      "▁Kant": 6542,
      "inos": 6543,
      "▁daraus": 6544,
      "▁Sachen": 6545,
      "▁Textdateien": 6546,
      "▁Macht": 6547,
      "▁eingeben": 6548,
      "▁Bett": 6549,
      "▁Verlag": 6550,
      "emit": 6551,
      "plätze": 6552,
      "▁zählt": 6553,
      "gesprä": 6554,
      "temberg": 6555,
      "Man": 6556,
      "▁begleitet": 6557,
      "osen": 6558,
      "lösung": 6559,
      "▁Mund": 6560,
      "▁bisschen": 6561,
      "▁Insgesamt": 6562,
      "▁Bor": 6563,
      "▁Klaus": 6564,
      "zum": 6565,
      "▁Einrichtung": 6566,
      "KW": 6567,
      "▁Übersicht": 6568,
      "▁Leipzig": 6569,
      "▁profitieren": 6570,
      "Ex": 6571,
      "Im": 6572,
      "▁Ablauf": 6573,
      "▁ISBN": 6574,
      "▁zuerst": 6575,
      "anzös": 6576,
      "istanz": 6577,
      "▁obwohl": 6578,
      "▁Gemeinschaft": 6579,
      "▁Rücken": 6580,
      "▁Jur": 6581,
      "▁Micro": 6582,
      "▁Ange": 6583,
      "erien": 6584,
      "▁teilnehmen": 6585,
      "▁Sw": 6586,
      "▁forschen": 6587,
      "▁Prot": 6588,
      "▁Kilometer": 6589,
      "▁Einblick": 6590,
      "leit": 6591,
      "▁Vorder": 6592,
      "▁Beziehung": 6593,
      "▁Sachsen": 6594,
      "paratur": 6595,
      "▁land": 6596,
      "▁entspricht": 6597,
      "▁Bürgermeister": 6598,
      "greifen": 6599,
      "EG": 6600,
      "sorge": 6601,
      "iren": 6602,
      "▁Fit": 6603,
      "▁Dateien": 6604,
      "▁Nahr": 6605,
      "▁Werte": 6606,
      "achtung": 6607,
      "▁Blumen": 6608,
      "vangel": 6609,
      "▁Amazon": 6610,
      "sthe": 6611,
      "üten": 6612,
      "▁Ereig": 6613,
      "»,": 6614,
      "▁Anliegen": 6615,
      "▁Möbel": 6616,
      "app": 6617,
      "▁sämtliche": 6618,
      "igungs": 6619,
      "▁lieber": 6620,
      "▁Konzert": 6621,
      "bieren": 6622,
      "▁Business": 6623,
      "ied": 6624,
      "▁Atmosphäre": 6625,
      "▁Kein": 6626,
      "▁passenden": 6627,
      "mme": 6628,
      "Ges": 6629,
      "meter": 6630,
      "▁mm": 6631,
      "scheint": 6632,
      "▁permanente": 6633,
      "▁angegebenen": 6634,
      "reif": 6635,
      "alisieren": 6636,
      "▁kompeten": 6637,
      "▁beeinfl": 6638,
      "▁behandelt": 6639,
      "▁Agentur": 6640,
      "▁Energ": 6641,
      "IV": 6642,
      "ängst": 6643,
      "zellen": 6644,
      "▁san": 6645,
      "▁Zahlen": 6646,
      "▁Betreuung": 6647,
      "▁China": 6648,
      "inst": 6649,
      "▁erinner": 6650,
      "▁gemüt": 6651,
      "▁benutzt": 6652,
      "medizin": 6653,
      "ces": 6654,
      "▁Autoren": 6655,
      "▁at": 6656,
      "va": 6657,
      "verbrauch": 6658,
      "▁Methoden": 6659,
      "▁einblenden": 6660,
      "▁Messe": 6661,
      "▁gebe": 6662,
      "▁einfache": 6663,
      "▁bestmöglich": 6664,
      "▁herum": 6665,
      "dy": 6666,
      "ata": 6667,
      "▁ausreichend": 6668,
      "politik": 6669,
      "oche": 6670,
      "▁Union": 6671,
      "▁Inner": 6672,
      "erei": 6673,
      "▁Acht": 6674,
      "▁Hack": 6675,
      "sweise": 6676,
      "▁Strand": 6677,
      "▁verstär": 6678,
      "unn": 6679,
      "▁allgemein": 6680,
      "indungen": 6681,
      "▁angenehm": 6682,
      "▁Anlagen": 6683,
      "▁Freiheit": 6684,
      "änn": 6685,
      "projekt": 6686,
      "▁Fleisch": 6687,
      "▁Qual": 6688,
      "weist": 6689,
      "teile": 6690,
      "▁ernst": 6691,
      "▁Spann": 6692,
      "▁Zentr": 6693,
      "IP": 6694,
      "▁Zuge": 6695,
      "▁Himmel": 6696,
      "loud": 6697,
      "▁Herrn": 6698,
      "▁Amer": 6699,
      "▁ergeben": 6700,
      "▁Plug": 6701,
      "▁Sollte": 6702,
      "▁gra": 6703,
      "▁Motto": 6704,
      "▁Geträn": 6705,
      "swert": 6706,
      "▁erscheint": 6707,
      "▁form": 6708,
      "angebotes": 6709,
      "ffizienz": 6710,
      "Tube": 6711,
      "▁Deb": 6712,
      "fällen": 6713,
      "▁Bade": 6714,
      "▁Str": 6715,
      "▁Einführung": 6716,
      "besuch": 6717,
      "▁Geschichten": 6718,
      "▁gespeicherte": 6719,
      "▁kurzen": 6720,
      "▁Rett": 6721,
      "▁gewählt": 6722,
      "▁li": 6723,
      "▁trifft": 6724,
      "dessen": 6725,
      "kap": 6726,
      "▁Deutschlands": 6727,
      "▁Verständnis": 6728,
      "▁Off": 6729,
      "▁Bur": 6730,
      "▁toll": 6731,
      "▁Laufe": 6732,
      "aupt": 6733,
      "▁Ren": 6734,
      "▁sogenannte": 6735,
      "▁Word": 6736,
      "reibe": 6737,
      "▁Ansprech": 6738,
      "▁Städte": 6739,
      "▁gegebenen": 6740,
      "▁starke": 6741,
      "▁beschrieben": 6742,
      "▁gemein": 6743,
      "bern": 6744,
      "▁Original": 6745,
      "▁nahm": 6746,
      "leistet": 6747,
      "bedarf": 6748,
      "gefähr": 6749,
      "rim": 6750,
      "▁Digitalisierung": 6751,
      "▁Umsatz": 6752,
      "▁Leitung": 6753,
      "stoffen": 6754,
      "lehr": 6755,
      "▁musst": 6756,
      "▁schließen": 6757,
      "▁ans": 6758,
      "▁Veränderungen": 6759,
      "▁Pu": 6760,
      "ones": 6761,
      "izieren": 6762,
      "▁deaktivieren": 6763,
      "zusetzen": 6764,
      "▁Mig": 6765,
      "▁buchen": 6766,
      "ause": 6767,
      "äck": 6768,
      "▁starken": 6769,
      "zahlt": 6770,
      "▁geschaffen": 6771,
      "▁dargestellt": 6772,
      "▁Denk": 6773,
      "empf": 6774,
      "▁morgen": 6775,
      "▁Eisen": 6776,
      "▁Herausforderung": 6777,
      "▁lieben": 6778,
      "▁CDU": 6779,
      "▁Fähigkeiten": 6780,
      "▁laden": 6781,
      "ester": 6782,
      "▁glob": 6783,
      "▁Vertrieb": 6784,
      "▁Somit": 6785,
      "▁Zit": 6786,
      "▁perfekte": 6787,
      "▁virt": 6788,
      "▁sichtbar": 6789,
      "üch": 6790,
      "count": 6791,
      "▁ausgestattet": 6792,
      "▁Jede": 6793,
      "▁Bildsch": 6794,
      "▁Bericht": 6795,
      "▁Minute": 6796,
      "▁Formular": 6797,
      "▁senden": 6798,
      "orten": 6799,
      "▁Kol": 6800,
      "folgung": 6801,
      "ulation": 6802,
      "sum": 6803,
      "▁Nachver": 6804,
      "▁Krankheit": 6805,
      "▁lebt": 6806,
      "gest": 6807,
      "itel": 6808,
      "▁Flor": 6809,
      "▁Beob": 6810,
      "▁unabhängig": 6811,
      "ec": 6812,
      "▁österreich": 6813,
      "▁Düsseldorf": 6814,
      "luss": 6815,
      "▁ung": 6816,
      "▁Kö": 6817,
      "▁Jose": 6818,
      "▁Grundstück": 6819,
      "▁Symbol": 6820,
      "mmern": 6821,
      "▁Termine": 6822,
      "Zu": 6823,
      "assten": 6824,
      "▁Friedrich": 6825,
      "azin": 6826,
      "icke": 6827,
      "▁Schreib": 6828,
      "En": 6829,
      "▁Stripper": 6830,
      "▁leist": 6831,
      "▁Gründe": 6832,
      "okrat": 6833,
      "▁Einrichtungen": 6834,
      "▁präsentieren": 6835,
      "sc": 6836,
      "pass": 6837,
      "▁Gebiet": 6838,
      "▁super": 6839,
      "berech": 6840,
      "rechts": 6841,
      "acken": 6842,
      "▁moderne": 6843,
      "▁Rob": 6844,
      "▁Tick": 6845,
      "steiger": 6846,
      "leisten": 6847,
      "▁maximal": 6848,
      "▁Zuschauer": 6849,
      "▁Press": 6850,
      "▁wann": 6851,
      "▁Rä": 6852,
      "▁Sei": 6853,
      "wenden": 6854,
      "versammlung": 6855,
      "hebung": 6856,
      "fangen": 6857,
      "▁Sl": 6858,
      "▁Verfüg": 6859,
      "iefen": 6860,
      "▁hingegen": 6861,
      "kohol": 6862,
      "▁absolut": 6863,
      "▁ök": 6864,
      "▁prüfen": 6865,
      "▁Ressourcen": 6866,
      "▁ausführ": 6867,
      "rhein": 6868,
      "kler": 6869,
      "▁Roh": 6870,
      "gro": 6871,
      "▁diesbezügliche": 6872,
      "▁Spitzen": 6873,
      "rick": 6874,
      "▁sinnvoll": 6875,
      "▁Pandemie": 6876,
      "▁verkaufen": 6877,
      "schauen": 6878,
      "▁gering": 6879,
      "▁nieder": 6880,
      "vo": 6881,
      "▁bele": 6882,
      "▁Geschenk": 6883,
      "▁Stamm": 6884,
      "▁analys": 6885,
      "hte": 6886,
      "▁Schiff": 6887,
      "äger": 6888,
      "ius": 6889,
      "▁Robert": 6890,
      "▁genü": 6891,
      "ica": 6892,
      "▁politischen": 6893,
      "▁wechseln": 6894,
      "▁internationale": 6895,
      "ged": 6896,
      "▁Bunde": 6897,
      "▁Pfarr": 6898,
      "▁Häus": 6899,
      "ulen": 6900,
      "▁Smartphone": 6901,
      "▁Zurück": 6902,
      "örderung": 6903,
      "▁Gerne": 6904,
      "▁Master": 6905,
      "▁Milliarden": 6906,
      "▁gesonder": 6907,
      "ierend": 6908,
      "▁Eigenschaften": 6909,
      "▁Nutzen": 6910,
      "herapeu": 6911,
      "ärzt": 6912,
      "▁geprä": 6913,
      "sverletzung": 6914,
      "▁gestaltet": 6915,
      "▁diejenigen": 6916,
      "▁vertrau": 6917,
      "▁Stad": 6918,
      "ktoren": 6919,
      "▁Schwarz": 6920,
      "erven": 6921,
      "ACH": 6922,
      "▁Bud": 6923,
      "essor": 6924,
      "▁relativ": 6925,
      "▁casino": 6926,
      "▁Kart": 6927,
      "ubiläum": 6928,
      "▁Milch": 6929,
      "ahren": 6930,
      "▁vorge": 6931,
      "▁exist": 6932,
      "Daten": 6933,
      "pon": 6934,
      "wertet": 6935,
      "kunst": 6936,
      "Funktion": 6937,
      "eta": 6938,
      "▁Herstellung": 6939,
      "oth": 6940,
      "▁Kunde": 6941,
      "▁Bitco": 6942,
      "▁inklusive": 6943,
      "▁Egal": 6944,
      "▁rück": 6945,
      "GNU": 6946,
      "ühlen": 6947,
      "spekt": 6948,
      "prüfung": 6949,
      "▁Servic": 6950,
      "▁überzeugt": 6951,
      "ollar": 6952,
      "▁besitzen": 6953,
      "neider": 6954,
      "spannung": 6955,
      "▁Windows": 6956,
      "▁weiteres": 6957,
      "▁wahrscheinlich": 6958,
      "▁alleine": 6959,
      "DER": 6960,
      "▁beit": 6961,
      "▁nötig": 6962,
      "▁CH": 6963,
      "▁Yoga": 6964,
      "▁YouTube": 6965,
      "▁NE": 6966,
      "bindung": 6967,
      "▁Gegner": 6968,
      "▁Fisch": 6969,
      "▁melden": 6970,
      "▁Sä": 6971,
      "▁Angel": 6972,
      "▁stabil": 6973,
      "▁Darstellung": 6974,
      "▁ehemaligen": 6975,
      "gig": 6976,
      "▁Brief": 6977,
      "▁Konfl": 6978,
      "ichert": 6979,
      "ws": 6980,
      "famil": 6981,
      "antie": 6982,
      "▁German": 6983,
      "▁Volk": 6984,
      "stimmen": 6985,
      "▁Fein": 6986,
      "▁eigenes": 6987,
      "▁Baby": 6988,
      "organis": 6989,
      "▁Beratungs": 6990,
      "gewicht": 6991,
      "ürttemberg": 6992,
      "▁schauen": 6993,
      "sendung": 6994,
      "▁entlang": 6995,
      "ace": 6996,
      "▁Flücht": 6997,
      "▁Rock": 6998,
      "ener": 6999,
      "ines": 7000,
      "soft": 7001,
      "▁Voraussetzungen": 7002,
      "rika": 7003,
      "▁Müller": 7004,
      "▁vieles": 7005,
      "▁Umfeld": 7006,
      "▁Belast": 7007,
      "tzlich": 7008,
      "nitten": 7009,
      "▁Urheberrechtes": 7010,
      "▁bestellen": 7011,
      "▁event": 7012,
      "▁via": 7013,
      "pliz": 7014,
      "▁Zeu": 7015,
      "rig": 7016,
      "volution": 7017,
      "▁Muse": 7018,
      "▁Nachw": 7019,
      "ICHT": 7020,
      "▁Sto": 7021,
      "▁geeig": 7022,
      "ivil": 7023,
      "▁Rechnung": 7024,
      "lament": 7025,
      "▁maß": 7026,
      "▁letzt": 7027,
      "▁besucht": 7028,
      "scheidet": 7029,
      "▁Ank": 7030,
      "▁korre": 7031,
      "▁Rechtswidrige": 7032,
      "agd": 7033,
      "▁gehalten": 7034,
      "ussen": 7035,
      "▁erfüllt": 7036,
      "▁Weiterhin": 7037,
      "▁Gefahren": 7038,
      "hindert": 7039,
      "boden": 7040,
      "▁Erstellers": 7041,
      "▁bessere": 7042,
      "blatt": 7043,
      "funktionen": 7044,
      "hü": 7045,
      "▁Antworten": 7046,
      "beck": 7047,
      "▁Mittag": 7048,
      "Logbuch": 7049,
      "melde": 7050,
      "▁Hochschule": 7051,
      "rüst": 7052,
      "umenten": 7053,
      "za": 7054,
      "▁weiterlesen": 7055,
      "▁Lieferung": 7056,
      "▁Gemeinden": 7057,
      "▁UND": 7058,
      "timent": 7059,
      "▁schlecht": 7060,
      "▁Ausbildungs": 7061,
      "▁Löschen": 7062,
      "▁Hu": 7063,
      "▁Landschaft": 7064,
      "alle": 7065,
      "▁kontroll": 7066,
      "metho": 7067,
      "▁live": 7068,
      "▁Lux": 7069,
      "▁inspir": 7070,
      "▁Stern": 7071,
      "▁Verz": 7072,
      "▁ausger": 7073,
      "▁Sel": 7074,
      "▁beschreibt": 7075,
      "aszin": 7076,
      "▁ST": 7077,
      "▁beziehen": 7078,
      "iversität": 7079,
      "▁Aspe": 7080,
      "anner": 7081,
      "alerie": 7082,
      "▁sorgfäl": 7083,
      "▁Versorgung": 7084,
      "▁Relig": 7085,
      "aul": 7086,
      "▁Obwohl": 7087,
      "▁Stimme": 7088,
      "▁Highlight": 7089,
      "▁qualifiz": 7090,
      "üssen": 7091,
      "▁Partei": 7092,
      "machen": 7093,
      "▁Studenten": 7094,
      "▁angegeben": 7095,
      "▁Zuhause": 7096,
      "▁Glauben": 7097,
      "▁jährlich": 7098,
      "▁Por": 7099,
      "ritts": 7100,
      "agentur": 7101,
      "▁Ep": 7102,
      "▁Medik": 7103,
      "iner": 7104,
      "▁erhöht": 7105,
      "mü": 7106,
      "▁Mir": 7107,
      "stes": 7108,
      "unterricht": 7109,
      "▁Gül": 7110,
      "▁bewegen": 7111,
      "gemeinde": 7112,
      "▁Zut": 7113,
      "▁anhand": 7114,
      "gemeine": 7115,
      "▁weitergegeben": 7116,
      "▁anonym": 7117,
      "▁Journal": 7118,
      "▁Lud": 7119,
      "windigkeit": 7120,
      "werken": 7121,
      "stands": 7122,
      "rechnung": 7123,
      "ademie": 7124,
      "▁niemand": 7125,
      "bu": 7126,
      "▁Anzeigen": 7127,
      "okumente": 7128,
      "urer": 7129,
      "enkt": 7130,
      "maschine": 7131,
      "falen": 7132,
      "▁Mand": 7133,
      "▁hinein": 7134,
      "▁Ausdruck": 7135,
      "ranche": 7136,
      "▁Zun": 7137,
      "▁Schnell": 7138,
      "ads": 7139,
      "ric": 7140,
      "senz": 7141,
      "ruhe": 7142,
      "▁Leidenschaft": 7143,
      "▁vorstellen": 7144,
      "auschen": 7145,
      "▁David": 7146,
      "▁öffnen": 7147,
      "▁Infrastruktur": 7148,
      "utton": 7149,
      "rument": 7150,
      "▁Fahrer": 7151,
      "▁Gewicht": 7152,
      "▁Kamera": 7153,
      "figur": 7154,
      "▁Kreativ": 7155,
      "▁Durchführung": 7156,
      "▁blieb": 7157,
      "zeichnen": 7158,
      "plo": 7159,
      "ors": 7160,
      "▁zentralen": 7161,
      "oge": 7162,
      "regen": 7163,
      "iö": 7164,
      "▁irgendw": 7165,
      "play": 7166,
      "okra": 7167,
      "▁Dresden": 7168,
      "geschäft": 7169,
      "▁festgelegt": 7170,
      "▁Senioren": 7171,
      "▁Versicherungs": 7172,
      "pften": 7173,
      "▁Initiative": 7174,
      "▁Anleitung": 7175,
      "▁genauer": 7176,
      "▁Pet": 7177,
      "▁Statistik": 7178,
      "▁Führungs": 7179,
      "▁Aufnahme": 7180,
      "▁wor": 7181,
      "▁Klicken": 7182,
      "▁ehren": 7183,
      "▁Handy": 7184,
      "ischung": 7185,
      "oster": 7186,
      "bürger": 7187,
      "▁Sind": 7188,
      "sichts": 7189,
      "mäßige": 7190,
      "▁Landwirtschaft": 7191,
      "▁Verbesserung": 7192,
      "▁bemü": 7193,
      "▁französ": 7194,
      "ics": 7195,
      "▁Cre": 7196,
      "ziehungen": 7197,
      "▁zugleich": 7198,
      "▁plö": 7199,
      "▁willkommen": 7200,
      "▁Treffen": 7201,
      "mierung": 7202,
      "▁Advent": 7203,
      "hören": 7204,
      "äh": 7205,
      "reitet": 7206,
      "denk": 7207,
      "digt": 7208,
      "▁ant": 7209,
      "▁Geschäftsführer": 7210,
      "▁spezielle": 7211,
      "▁garantiert": 7212,
      "entwick": 7213,
      "weiten": 7214,
      "▁aufs": 7215,
      "▁Trin": 7216,
      "▁Dennoch": 7217,
      "▁stamm": 7218,
      "▁erhielt": 7219,
      "konzept": 7220,
      "sprogramm": 7221,
      "▁Fra": 7222,
      "▁widerrufen": 7223,
      "▁Sorg": 7224,
      "▁Pflicht": 7225,
      "▁Cha": 7226,
      "holung": 7227,
      "krieg": 7228,
      "▁Zusatz": 7229,
      "Kl": 7230,
      "▁erscheinen": 7231,
      "▁ko": 7232,
      "▁Aufmerksam": 7233,
      "▁Händ": 7234,
      "▁Gericht": 7235,
      "indust": 7236,
      "neiden": 7237,
      "++": 7238,
      "Team": 7239,
      "ieur": 7240,
      "▁sparen": 7241,
      "▁Hard": 7242,
      "▁Gutscheine": 7243,
      "sionen": 7244,
      "▁breit": 7245,
      "▁Star": 7246,
      "▁russ": 7247,
      "▁gegensei": 7248,
      "▁gegebenenfalls": 7249,
      "loser": 7250,
      "▁trocken": 7251,
      "▁Genau": 7252,
      "▁Email": 7253,
      "▁Gemüse": 7254,
      "▁eingeladen": 7255,
      "▁planen": 7256,
      "maßen": 7257,
      "▁zieht": 7258,
      "▁Generation": 7259,
      "▁verlangen": 7260,
      "▁finde": 7261,
      "▁As": 7262,
      "▁Jesus": 7263,
      "gesp": 7264,
      "▁Entwurf": 7265,
      "▁Wunder": 7266,
      "▁Alternative": 7267,
      "▁motiv": 7268,
      "▁wollten": 7269,
      "wechs": 7270,
      "▁Eindruck": 7271,
      "▁fehler": 7272,
      "▁Schö": 7273,
      "▁Maria": 7274,
      "▁jahr": 7275,
      "rock": 7276,
      "atischen": 7277,
      "▁ähnlich": 7278,
      "▁Karriere": 7279,
      "▁Apple": 7280,
      "▁künstler": 7281,
      "▁flexi": 7282,
      "▁nachhaltig": 7283,
      "▁Stahl": 7284,
      "▁Ansprechpartner": 7285,
      "funk": 7286,
      "einstellungen": 7287,
      "▁günstig": 7288,
      "tiere": 7289,
      "legten": 7290,
      "ses": 7291,
      "▁Schei": 7292,
      "▁Nummer": 7293,
      "laube": 7294,
      "ras": 7295,
      "liefert": 7296,
      "angt": 7297,
      "▁Ausgabe": 7298,
      "▁schreibt": 7299,
      "▁interessant": 7300,
      "▁betreiben": 7301,
      "▁ergänzen": 7302,
      "▁Karls": 7303,
      "▁Imp": 7304,
      "wander": 7305,
      "▁Muster": 7306,
      "▁Wes": 7307,
      "rät": 7308,
      "▁bildet": 7309,
      "▁Beste": 7310,
      "▁wid": 7311,
      "Nach": 7312,
      "▁Edel": 7313,
      "▁berühm": 7314,
      "unkel": 7315,
      "üst": 7316,
      "atische": 7317,
      "▁wiederum": 7318,
      "val": 7319,
      "▁gefragt": 7320,
      "▁intensiv": 7321,
      "▁staat": 7322,
      "olden": 7323,
      "OM": 7324,
      "▁größere": 7325,
      "andern": 7326,
      "▁Hannover": 7327,
      "▁Mut": 7328,
      "heil": 7329,
      "▁überzeugen": 7330,
      "▁Kritik": 7331,
      "freiheit": 7332,
      "antas": 7333,
      "▁vern": 7334,
      "▁notwendigen": 7335,
      "industrie": 7336,
      "ministerium": 7337,
      "▁getroffen": 7338,
      "win": 7339,
      "schu": 7340,
      "▁klassischen": 7341,
      "reff": 7342,
      "▁Bildern": 7343,
      "▁Anlass": 7344,
      "▁Pla": 7345,
      "▁train": 7346,
      "höhe": 7347,
      "DP": 7348,
      "▁einsch": 7349,
      "▁welchem": 7350,
      "▁Anteil": 7351,
      "▁süd": 7352,
      "▁Allein": 7353,
      "enke": 7354,
      "▁kleines": 7355,
      "iefe": 7356,
      "▁geist": 7357,
      "De": 7358,
      "Mails": 7359,
      "erischen": 7360,
      "▁brachte": 7361,
      "▁Alten": 7362,
      "▁neun": 7363,
      "▁Kleine": 7364,
      "▁möchtest": 7365,
      "▁Halle": 7366,
      "low": 7367,
      "arif": 7368,
      "▁Laden": 7369,
      "▁gespielt": 7370,
      "▁tot": 7371,
      "ola": 7372,
      "▁Opfer": 7373,
      "termin": 7374,
      "▁leichter": 7375,
      "wärts": 7376,
      "dis": 7377,
      "▁bekannten": 7378,
      "▁Geheim": 7379,
      "▁schafft": 7380,
      "▁Reparatur": 7381,
      "▁seiten": 7382,
      "▁Jedoch": 7383,
      "▁Stimmung": 7384,
      "▁umgesetzt": 7385,
      "▁hierbei": 7386,
      "las": 7387,
      "richtlinie": 7388,
      "iat": 7389,
      "▁Mittelpunkt": 7390,
      "▁endgül": 7391,
      "no": 7392,
      "▁Album": 7393,
      "▁Aufmerksamkeit": 7394,
      "spor": 7395,
      "▁Notwend": 7396,
      "▁bauen": 7397,
      "ku": 7398,
      "cking": 7399,
      "stoß": 7400,
      "bilden": 7401,
      "▁Behörden": 7402,
      "▁Nik": 7403,
      "ymbol": 7404,
      "ämm": 7405,
      "nas": 7406,
      "▁tut": 7407,
      "▁akzeptieren": 7408,
      "▁AR": 7409,
      "Her": 7410,
      "▁Branchen": 7411,
      "▁John": 7412,
      "▁bestätigt": 7413,
      "sm": 7414,
      "▁Fran": 7415,
      "▁Freunden": 7416,
      "▁Entscheidungen": 7417,
      "vorsitzen": 7418,
      "▁Johannes": 7419,
      "▁Schmid": 7420,
      "▁Vorbereitung": 7421,
      "▁Ass": 7422,
      "▁Obst": 7423,
      "läuter": 7424,
      "▁gefallen": 7425,
      "▁bislang": 7426,
      "imension": 7427,
      "▁Besitz": 7428,
      "Diskussion": 7429,
      "▁geprü": 7430,
      "▁Wol": 7431,
      "ätzung": 7432,
      ");": 7433,
      "sicherheit": 7434,
      "▁Datenüber": 7435,
      "dat": 7436,
      "▁Strecke": 7437,
      "▁feiern": 7438,
      "sive": 7439,
      "▁Feier": 7440,
      "ual": 7441,
      "▁Kann": 7442,
      "▁Publikationen": 7443,
      "kirche": 7444,
      "stock": 7445,
      "▁sicherlich": 7446,
      "länder": 7447,
      "▁Glücks": 7448,
      "rab": 7449,
      "rael": 7450,
      "here": 7451,
      "▁International": 7452,
      "Land": 7453,
      "▁Behinder": 7454,
      "▁Schmuck": 7455,
      "felder": 7456,
      "▁etabl": 7457,
      "▁Präsident": 7458,
      "▁Wolfgang": 7459,
      "SCH": 7460,
      "”,": 7461,
      "fertigt": 7462,
      "rate": 7463,
      "Reg": 7464,
      "Press": 7465,
      "▁Pause": 7466,
      "stechnik": 7467,
      "▁dest": 7468,
      "▁Oft": 7469,
      "▁stärker": 7470,
      "zit": 7471,
      "iente": 7472,
      "wirkt": 7473,
      "▁Kühl": 7474,
      "sal": 7475,
      "▁politische": 7476,
      "▁Syn": 7477,
      "örung": 7478,
      "▁Wal": 7479,
      "▁Gewerbe": 7480,
      "▁professionelle": 7481,
      "ätestens": 7482,
      "fehl": 7483,
      "▁Einstellung": 7484,
      "modell": 7485,
      "gefühl": 7486,
      "▁Net": 7487,
      "inuier": 7488,
      "▁Alexander": 7489,
      "▁Mitarbeitern": 7490,
      "Ger": 7491,
      "▁Begeg": 7492,
      "▁lohnt": 7493,
      "▁Multi": 7494,
      "brechen": 7495,
      "▁gewährleisten": 7496,
      "▁verab": 7497,
      "▁Sorgfalt": 7498,
      "stätte": 7499,
      "tifik": 7500,
      "▁Ebenso": 7501,
      "▁interessiert": 7502,
      "bildungen": 7503,
      "West": 7504,
      "informationen": 7505,
      "istisch": 7506,
      "▁ergänzt": 7507,
      "▁Miss": 7508,
      "▁Samm": 7509,
      "fällt": 7510,
      "▁Radio": 7511,
      "ml": 7512,
      "▁Fahrzeuge": 7513,
      "baum": 7514,
      "▁problem": 7515,
      "▁einschließlich": 7516,
      "▁raus": 7517,
      "▁erhöhen": 7518,
      "achr": 7519,
      "▁Hal": 7520,
      "▁vorbehalten": 7521,
      "behörden": 7522,
      "▁Sicher": 7523,
      "▁inte": 7524,
      "▁übrigens": 7525,
      "fle": 7526,
      "▁Mindest": 7527,
      "▁freien": 7528,
      "▁niedr": 7529,
      "▁Markus": 7530,
      "kehren": 7531,
      "SC": 7532,
      "▁deaktiviert": 7533,
      "chester": 7534,
      "iver": 7535,
      "▁Wohnungs": 7536,
      "gas": 7537,
      "▁Internetseite": 7538,
      "▁Report": 7539,
      "helm": 7540,
      "OT": 7541,
      "▁Wall": 7542,
      "▁handeln": 7543,
      "Gesch": 7544,
      "▁EUR": 7545,
      "azier": 7546,
      "▁echt": 7547,
      "▁Bir": 7548,
      "▁verschw": 7549,
      "okratie": 7550,
      "▁leiden": 7551,
      "angriff": 7552,
      "▁hochwertige": 7553,
      "lafen": 7554,
      "▁Bauern": 7555,
      "▁Hon": 7556,
      "▁Sound": 7557,
      "▁stren": 7558,
      "igungen": 7559,
      "▁falls": 7560,
      "▁Rem": 7561,
      "▁Klinik": 7562,
      "▁Flex": 7563,
      "▁nahezu": 7564,
      "▁Frühjahr": 7565,
      "▁öffentliche": 7566,
      "▁Krypt": 7567,
      "anke": 7568,
      "chern": 7569,
      "endete": 7570,
      "ächer": 7571,
      "▁begeistert": 7572,
      "bücher": 7573,
      "▁Kä": 7574,
      "kannte": 7575,
      "▁Optionen": 7576,
      "▁Institu": 7577,
      "▁Sehen": 7578,
      "▁Mobilität": 7579,
      "▁eure": 7580,
      "▁Jahrhunderts": 7581,
      "eichert": 7582,
      "▁Gültigkeit": 7583,
      "▁lösen": 7584,
      "kurs": 7585,
      "▁Hart": 7586,
      "▁Silber": 7587,
      "Teil": 7588,
      "ieller": 7589,
      "▁Schwar": 7590,
      "▁gelang": 7591,
      "▁EN": 7592,
      "eldete": 7593,
      "▁Redaktion": 7594,
      "sti": 7595,
      "▁Sänger": 7596,
      "lassung": 7597,
      "ichteten": 7598,
      "kün": 7599,
      "▁Branche": 7600,
      "OP": 7601,
      "▁Atem": 7602,
      "▁Bund": 7603,
      "▁sauber": 7604,
      "ilien": 7605,
      "▁Musiker": 7606,
      "uel": 7607,
      "▁tem": 7608,
      "▁Qualitäts": 7609,
      "seits": 7610,
      "bul": 7611,
      "▁offenen": 7612,
      "▁Bundestag": 7613,
      "▁Fremd": 7614,
      "gebracht": 7615,
      "anze": 7616,
      "▁Tipp": 7617,
      "pekt": 7618,
      "▁geöffnet": 7619,
      "▁erklärte": 7620,
      "uropa": 7621,
      "schlossen": 7622,
      "▁stärken": 7623,
      "otion": 7624,
      "▁ser": 7625,
      "▁zugreifen": 7626,
      "orie": 7627,
      "▁Sekunden": 7628,
      "ungsverfahren": 7629,
      "schreiben": 7630,
      "▁optimale": 7631,
      "▁elektr": 7632,
      "ender": 7633,
      "▁Power": 7634,
      "Ch": 7635,
      "zieht": 7636,
      "▁Seele": 7637,
      "▁Verwaltungs": 7638,
      "▁Kür": 7639,
      "richtet": 7640,
      "verm": 7641,
      "üh": 7642,
      "Produ": 7643,
      "▁freue": 7644,
      "▁Box": 7645,
      "▁vermitteln": 7646,
      "▁Chor": 7647,
      "▁Mos": 7648,
      "AF": 7649,
      "▁Gegensatz": 7650,
      "schlie": 7651,
      "▁Vortrag": 7652,
      "▁Münster": 7653,
      "tlichen": 7654,
      "Em": 7655,
      "-/": 7656,
      "▁möglichen": 7657,
      "ymnas": 7658,
      "▁Küchen": 7659,
      "▁Gal": 7660,
      "▁PDF": 7661,
      "▁verste": 7662,
      "stücke": 7663,
      "▁Krankenhaus": 7664,
      "▁haupt": 7665,
      "▁vorgestellt": 7666,
      "▁ausgezeichnet": 7667,
      "wiegend": 7668,
      "▁Handwerk": 7669,
      "berater": 7670,
      "▁Ware": 7671,
      "▁überra": 7672,
      "▁Cam": 7673,
      "▁Gir": 7674,
      "▁tollen": 7675,
      "barung": 7676,
      "▁Ast": 7677,
      "▁angemessen": 7678,
      "Pf": 7679,
      "Sie": 7680,
      "▁starte": 7681,
      "▁Studierenden": 7682,
      "station": 7683,
      "▁direkten": 7684,
      "Württemberg": 7685,
      "▁wären": 7686,
      "▁fein": 7687,
      "stätten": 7688,
      "▁Fitness": 7689,
      "Sti": 7690,
      "▁Autom": 7691,
      "worben": 7692,
      "▁MediaWiki": 7693,
      "behörde": 7694,
      "▁nachhaltige": 7695,
      "▁Wasch": 7696,
      "▁gesundheit": 7697,
      "▁Eigentümer": 7698,
      "TM": 7699,
      "▁Kör": 7700,
      "▁beschlossen": 7701,
      "▁Prinzip": 7702,
      "▁kontinuier": 7703,
      "▁Ferner": 7704,
      "▁Rang": 7705,
      "▁Wart": 7706,
      "sbe": 7707,
      "strahl": 7708,
      "▁ille": 7709,
      "▁Vermögen": 7710,
      "▁schnelle": 7711,
      "▁preis": 7712,
      "Bild": 7713,
      "ral": 7714,
      "▁Disk": 7715,
      "ader": 7716,
      "▁Ebene": 7717,
      "▁Quellen": 7718,
      "▁Ludwig": 7719,
      "▁Wachstum": 7720,
      "▁geändert": 7721,
      "▁Amt": 7722,
      "▁angepasst": 7723,
      "usste": 7724,
      "▁Worte": 7725,
      "▁könne": 7726,
      "▁rechtlichen": 7727,
      "▁Klass": 7728,
      "wertungen": 7729,
      "▁kostenlose": 7730,
      "ausschuss": 7731,
      "▁Projekten": 7732,
      "the": 7733,
      "rainer": 7734,
      "▁Hände": 7735,
      "▁freut": 7736,
      "▁aktu": 7737,
      "▁Fass": 7738,
      "Um": 7739,
      "yle": 7740,
      "▁Methode": 7741,
      "▁Flughafen": 7742,
      "▁nennen": 7743,
      "▁einst": 7744,
      "▁Ach": 7745,
      "▁spezial": 7746,
      "▁bundes": 7747,
      "▁Administratoren": 7748,
      "▁poten": 7749,
      "▁Dreh": 7750,
      "handlungs": 7751,
      "▁verlieren": 7752,
      "▁verbinden": 7753,
      "▁Weiß": 7754,
      "siden": 7755,
      "▁orien": 7756,
      "▁Digital": 7757,
      "▁Festival": 7758,
      "▁engl": 7759,
      "▁verg": 7760,
      "▁Flächen": 7761,
      "▁jung": 7762,
      "▁erteilt": 7763,
      "orts": 7764,
      "▁Nieders": 7765,
      "apier": 7766,
      "▁vieler": 7767,
      "▁Georg": 7768,
      "▁sah": 7769,
      "▁verlie": 7770,
      "▁Rosen": 7771,
      "▁Neubau": 7772,
      "▁Ros": 7773,
      "▁Wen": 7774,
      "▁sichern": 7775,
      "▁behält": 7776,
      "▁Beliebig": 7777,
      "▁Fab": 7778,
      "aming": 7779,
      "▁verwand": 7780,
      "führten": 7781,
      "▁natürliche": 7782,
      "SP": 7783,
      "gänger": 7784,
      "▁ren": 7785,
      "▁Zeitung": 7786,
      "üre": 7787,
      "liegenden": 7788,
      "sträger": 7789,
      "▁Turnier": 7790,
      "▁speziellen": 7791,
      "cam": 7792,
      "▁positive": 7793,
      "▁Zucker": 7794,
      "▁Inhalts": 7795,
      "▁Grundlagen": 7796,
      "▁Sem": 7797,
      "▁überprüfen": 7798,
      "▁auseinander": 7799,
      "IA": 7800,
      "▁ehrenamt": 7801,
      "▁Präsent": 7802,
      "▁Fischer": 7803,
      "ürn": 7804,
      "▁zugeordnet": 7805,
      "▁Cro": 7806,
      "lösen": 7807,
      "▁Beschreibung": 7808,
      "▁unge": 7809,
      "▁Installation": 7810,
      "▁erwähn": 7811,
      "dler": 7812,
      "hes": 7813,
      "▁Seminar": 7814,
      "kret": 7815,
      "▁Att": 7816,
      "roid": 7817,
      "▁Ingen": 7818,
      "öffnung": 7819,
      "auftragte": 7820,
      "beginn": 7821,
      "kirchen": 7822,
      "Shop": 7823,
      "azz": 7824,
      "▁Anf": 7825,
      "geht": 7826,
      "ftig": 7827,
      "astian": 7828,
      "▁Anschließend": 7829,
      "▁Auge": 7830,
      "down": 7831,
      "haltet": 7832,
      "▁Nachmittag": 7833,
      "INE": 7834,
      "isieren": 7835,
      "illa": 7836,
      "ächs": 7837,
      "produktion": 7838,
      "igner": 7839,
      "▁funktionieren": 7840,
      "▁Gleichzeitig": 7841,
      "▁Schwier": 7842,
      "▁monat": 7843,
      "▁Bewegungs": 7844,
      "eise": 7845,
      "rol": 7846,
      "▁Klimaschutz": 7847,
      "ffel": 7848,
      "▁massi": 7849,
      "▁info": 7850,
      "▁Orte": 7851,
      "▁mer": 7852,
      "produkte": 7853,
      "▁kostet": 7854,
      "zeichnis": 7855,
      "reiter": 7856,
      "▁glauben": 7857,
      "▁begonnen": 7858,
      "griffen": 7859,
      "▁zweit": 7860,
      "▁Unternehmer": 7861,
      "ürzt": 7862,
      "▁steuer": 7863,
      "▁einiger": 7864,
      "▁Angehö": 7865,
      "▁Gelände": 7866,
      "▁pol": 7867,
      "▁standen": 7868,
      "▁Neues": 7869,
      "▁Veranstaltungs": 7870,
      "▁Gründung": 7871,
      "LAN": 7872,
      "ässer": 7873,
      "▁Entwicklungs": 7874,
      "heimer": 7875,
      "▁Haben": 7876,
      "▁eingetragen": 7877,
      "▁eröffnet": 7878,
      "▁zahlen": 7879,
      "▁Microsoft": 7880,
      "▁kurzer": 7881,
      "▁verhindert": 7882,
      "teln": 7883,
      "dient": 7884,
      "▁Ther": 7885,
      "ehmend": 7886,
      "▁Bestandteil": 7887,
      "▁einiges": 7888,
      "▁Sobald": 7889,
      "▁Schwimm": 7890,
      "▁stimmen": 7891,
      "▁durchführen": 7892,
      "ada": 7893,
      "issionen": 7894,
      "Spiel": 7895,
      "▁Erwachsene": 7896,
      "spart": 7897,
      "▁Vogel": 7898,
      "▁Wörter": 7899,
      "▁dürfte": 7900,
      "▁gewünschten": 7901,
      "▁Schnee": 7902,
      "▁Abenteuer": 7903,
      "▁AN": 7904,
      "sper": 7905,
      "▁Erklärung": 7906,
      "lässlich": 7907,
      "ini": 7908,
      "▁seitens": 7909,
      "uchtung": 7910,
      "▁Tabl": 7911,
      "ausschluss": 7912,
      "▁hinsichtlich": 7913,
      "▁gefördert": 7914,
      "▁Kal": 7915,
      "▁Bezirks": 7916,
      "▁Workshops": 7917,
      "▁organisiert": 7918,
      "ep": 7919,
      "▁blau": 7920,
      "licherweise": 7921,
      "▁Wird": 7922,
      "▁Hotels": 7923,
      "stunden": 7924,
      "innern": 7925,
      "▁Zä": 7926,
      "▁Histor": 7927,
      "iguren": 7928,
      "▁kostenlosen": 7929,
      "▁bau": 7930,
      "▁Just": 7931,
      "▁Bewerb": 7932,
      "▁not": 7933,
      "wes": 7934,
      "▁bewe": 7935,
      "ary": 7936,
      "feuer": 7937,
      "▁frisch": 7938,
      "▁orden": 7939,
      "team": 7940,
      "▁Anmelde": 7941,
      "▁Gestattung": 7942,
      "▁Sympt": 7943,
      "▁Modelle": 7944,
      "▁Rennen": 7945,
      "▁Bewohner": 7946,
      "▁fanden": 7947,
      "Or": 7948,
      "▁Klar": 7949,
      "▁Punkten": 7950,
      "▁gerecht": 7951,
      "ips": 7952,
      "▁Tond": 7953,
      "▁altern": 7954,
      "▁Rechn": 7955,
      "utlich": 7956,
      "▁Fund": 7957,
      "▁schwierig": 7958,
      "ime": 7959,
      "▁Arbeitnehmer": 7960,
      "alismus": 7961,
      "▁erfolgreiche": 7962,
      "▁praktisch": 7963,
      "▁dro": 7964,
      "▁Rettungs": 7965,
      "alit": 7966,
      "▁DE": 7967,
      "▁unglaub": 7968,
      "▁Schreiben": 7969,
      "ärten": 7970,
      "▁Frühstück": 7971,
      "▁geprägt": 7972,
      "oben": 7973,
      "▁Nic": 7974,
      "sisten": 7975,
      "▁bedarf": 7976,
      "wirt": 7977,
      "▁SC": 7978,
      "▁gingen": 7979,
      "▁verkauft": 7980,
      "▁Wies": 7981,
      "▁plötzlich": 7982,
      "adem": 7983,
      "▁Alternativ": 7984,
      "▁Mes": 7985,
      "▁produziert": 7986,
      "▁hierfür": 7987,
      "▁Hierbei": 7988,
      "▁Sieger": 7989,
      "▁historischen": 7990,
      "tigungs": 7991,
      "▁Geben": 7992,
      "ize": 7993,
      "ampagne": 7994,
      "▁Diagn": 7995,
      "lebt": 7996,
      "▁Organisationen": 7997,
      "▁Videose": 7998,
      "▁sa": 7999,
      "▁erfolgreichen": 8000,
      "Alle": 8001,
      "▁vorgesehenen": 8002,
      "▁schm": 8003,
      "anstalter": 8004,
      "schmer": 8005,
      "▁Kindes": 8006,
      "▁Apothe": 8007,
      "Jährige": 8008,
      "optionen": 8009,
      "schlüsselung": 8010,
      "▁Darm": 8011,
      "▁erzielen": 8012,
      "serv": 8013,
      "▁Haushalt": 8014,
      "sigen": 8015,
      "▁Ident": 8016,
      "pla": 8017,
      "▁Videosequenzen": 8018,
      "fot": 8019,
      "▁Bewertung": 8020,
      "▁Events": 8021,
      "hängig": 8022,
      "▁verursacht": 8023,
      "▁erschienen": 8024,
      "region": 8025,
      "▁gelegt": 8026,
      "ätz": 8027,
      "▁!": 8028,
      "VD": 8029,
      "▁Hoffnung": 8030,
      "▁vollen": 8031,
      "ütter": 8032,
      "▁neuesten": 8033,
      "▁Tourismus": 8034,
      "▁begeg": 8035,
      "▁natur": 8036,
      "▁Ergän": 8037,
      "▁Hessen": 8038,
      "isierte": 8039,
      "▁gelangen": 8040,
      "mitglied": 8041,
      "▁Weiterbildung": 8042,
      "▁direkte": 8043,
      "▁richten": 8044,
      "▁Renn": 8045,
      "▁PH": 8046,
      "▁hoher": 8047,
      "▁Prozesse": 8048,
      "ience": 8049,
      "lager": 8050,
      "▁Kompetenz": 8051,
      "software": 8052,
      "▁außen": 8053,
      "▁con": 8054,
      "ielsei": 8055,
      "▁Gü": 8056,
      "▁fragt": 8057,
      "▁Brenn": 8058,
      "▁sog": 8059,
      "abt": 8060,
      "▁Patient": 8061,
      "oler": 8062,
      "▁ausges": 8063,
      "▁Voraussetzung": 8064,
      "▁Glob": 8065,
      "materialien": 8066,
      "▁externe": 8067,
      "ürgen": 8068,
      "▁Tondokumente": 8069,
      "ivi": 8070,
      "▁zuverläss": 8071,
      "▁system": 8072,
      "▁Jubiläum": 8073,
      "fähig": 8074,
      "▁Räume": 8075,
      "vision": 8076,
      "▁hoffen": 8077,
      "Co": 8078,
      "una": 8079,
      "ners": 8080,
      "aktionen": 8081,
      "▁desto": 8082,
      "ölf": 8083,
      "kannten": 8084,
      "▁ra": 8085,
      "▁Grünen": 8086,
      "gewiesen": 8087,
      "gier": 8088,
      "▁dringend": 8089,
      "▁Kommission": 8090,
      "▁Sammlung": 8091,
      "▁Bahnhof": 8092,
      "ährungs": 8093,
      "osophie": 8094,
      "ideo": 8095,
      "▁Brun": 8096,
      "▁Tur": 8097,
      "▁Sehr": 8098,
      "FA": 8099,
      "standort": 8100,
      "▁Erfassung": 8101,
      "frau": 8102,
      "ädt": 8103,
      "▁zerst": 8104,
      "▁richtet": 8105,
      "▁platz": 8106,
      "tu": 8107,
      "▁zunehmend": 8108,
      "Stra": 8109,
      "▁entstand": 8110,
      "▁Gest": 8111,
      "▁Meld": 8112,
      "▁Bitcoin": 8113,
      "▁Katzen": 8114,
      "▁Podcast": 8115,
      "▁schwar": 8116,
      "▁Kontakte": 8117,
      "▁Hafen": 8118,
      "Bes": 8119,
      "▁Handeln": 8120,
      "▁Elemente": 8121,
      "▁wunderschö": 8122,
      "▁Genehm": 8123,
      "▁Verpack": 8124,
      "▁Ök": 8125,
      "afé": 8126,
      "struktion": 8127,
      "▁Ott": 8128,
      "▁Autos": 8129,
      "▁Ret": 8130,
      "▁Schwanger": 8131,
      "▁WordPress": 8132,
      "▁Ausbau": 8133,
      "▁Hygien": 8134,
      "planung": 8135,
      "wendungs": 8136,
      "ura": 8137,
      "▁hängt": 8138,
      "▁Schmerzen": 8139,
      "▁erlebt": 8140,
      "▁verzichten": 8141,
      "▁Bele": 8142,
      "Seiten": 8143,
      "Prä": 8144,
      "▁inkl": 8145,
      "▁erweitert": 8146,
      "▁BM": 8147,
      "▁you": 8148,
      "usch": 8149,
      "▁Kontaktaufnahme": 8150,
      "▁Seb": 8151,
      "▁vorbereitet": 8152,
      ".»": 8153,
      "rüstung": 8154,
      "Fil": 8155,
      "sächlich": 8156,
      "▁künftig": 8157,
      "ritz": 8158,
      "▁Phot": 8159,
      "▁setzte": 8160,
      "▁Formul": 8161,
      "▁Mio": 8162,
      "▁attra": 8163,
      "▁Herkunft": 8164,
      "▁längst": 8165,
      "sg": 8166,
      "▁Lond": 8167,
      "▁umwelt": 8168,
      "▁bekannte": 8169,
      "▁Bremen": 8170,
      "▁Abteilung": 8171,
      "räglich": 8172,
      "▁Black": 8173,
      "▁Ve": 8174,
      "▁natürlichen": 8175,
      "▁erstmal": 8176,
      "▁Direkt": 8177,
      "▁Lieblings": 8178,
      "▁Aufwand": 8179,
      "▁Supp": 8180,
      "Seite": 8181,
      "▁Grie": 8182,
      "▁verlei": 8183,
      "▁außergewöhn": 8184,
      "▁Aspekte": 8185,
      "atis": 8186,
      "▁Kleidung": 8187,
      "füllt": 8188,
      "▁Dortmund": 8189,
      "orfer": 8190,
      "▁einfachen": 8191,
      "▁glücklich": 8192,
      "▁Upd": 8193,
      "▁kat": 8194,
      "▁Professor": 8195,
      "▁Persönlichkeit": 8196,
      "werber": 8197,
      "▁Weihnachten": 8198,
      "▁einfacher": 8199,
      "▁Amts": 8200,
      "TY": 8201,
      "▁Vi": 8202,
      "anspruch": 8203,
      "▁Handels": 8204,
      "▁gedacht": 8205,
      "▁la": 8206,
      "design": 8207,
      "▁kümmern": 8208,
      "kord": 8209,
      "▁Kurse": 8210,
      "▁Träger": 8211,
      "▁Rel": 8212,
      "avigation": 8213,
      "▁Englisch": 8214,
      "▁schul": 8215,
      "▁Jedes": 8216,
      "▁legt": 8217,
      "▁Niveau": 8218,
      "schrank": 8219,
      "▁habt": 8220,
      "▁aufblättern": 8221,
      "▁auftreten": 8222,
      "hend": 8223,
      "▁größeren": 8224,
      "▁getan": 8225,
      "▁?": 8226,
      "▁Real": 8227,
      "▁sitzen": 8228,
      ".).": 8229,
      "▁Datum": 8230,
      "▁vorne": 8231,
      "▁Einkommen": 8232,
      "▁reduzieren": 8233,
      "gener": 8234,
      "mär": 8235,
      "SL": 8236,
      "ronomie": 8237,
      "▁Künst": 8238,
      "▁Wissenschaftler": 8239,
      "Forum": 8240,
      "▁machten": 8241,
      "▁Sy": 8242,
      "▁anpassen": 8243,
      "▁vorzu": 8244,
      "▁Tief": 8245,
      "▁verschiedener": 8246,
      "mitglieder": 8247,
      "▁Hacker": 8248,
      "formance": 8249,
      "▁Hom": 8250,
      "▁Partie": 8251,
      "▁Hen": 8252,
      "▁aufgebaut": 8253,
      "▁Solar": 8254,
      "bereiche": 8255,
      "▁User": 8256,
      "ettbewerb": 8257,
      "betreu": 8258,
      "üm": 8259,
      "verständnis": 8260,
      "▁anmelden": 8261,
      "▁Ehr": 8262,
      "▁betrieben": 8263,
      "annte": 8264,
      "mach": 8265,
      "allel": 8266,
      "▁kn": 8267,
      "▁Staaten": 8268,
      "▁ed": 8269,
      "▁gebaut": 8270,
      "Adressen": 8271,
      "bart": 8272,
      "nicht": 8273,
      "▁Verhältnis": 8274,
      "▁Einschränken": 8275,
      "emm": 8276,
      "▁Kontaktformular": 8277,
      "▁stolz": 8278,
      "personen": 8279,
      "▁Quar": 8280,
      "gie": 8281,
      "▁zukünftige": 8282,
      "▁spannende": 8283,
      "idar": 8284,
      "▁standard": 8285,
      "▁Strategie": 8286,
      "ärt": 8287,
      "▁Versuch": 8288,
      "▁Rede": 8289,
      "kn": 8290,
      "ziel": 8291,
      "▁erinnert": 8292,
      "▁beliebt": 8293,
      "▁Gästen": 8294,
      "▁Dokumente": 8295,
      "▁bezahlen": 8296,
      "astrop": 8297,
      "▁emotion": 8298,
      "▁Wiener": 8299,
      "▁Nerven": 8300,
      "▁Eich": 8301,
      "▁Lad": 8302,
      "teten": 8303,
      "stätigung": 8304,
      "schte": 8305,
      "▁betrachten": 8306,
      "▁Abstand": 8307,
      "▁Bundesregierung": 8308,
      "▁Kund": 8309,
      "ption": 8310,
      "▁Konkur": 8311,
      "code": 8312,
      "▁Inc": 8313,
      "KT": 8314,
      "bis": 8315,
      "▁Deinen": 8316,
      "▁Lau": 8317,
      "▁Ärzte": 8318,
      "▁Technisch": 8319,
      "▁Objekt": 8320,
      "▁behandeln": 8321,
      "merk": 8322,
      "▁steigt": 8323,
      "▁Etw": 8324,
      "▁eignet": 8325,
      "▁krank": 8326,
      "ban": 8327,
      "▁gestatten": 8328,
      "▁Jack": 8329,
      "sprochen": 8330,
      "▁Vereine": 8331,
      "▁Gute": 8332,
      "undert": 8333,
      "▁berücksichtigt": 8334,
      "▁Well": 8335,
      "änglich": 8336,
      "jahres": 8337,
      "ographie": 8338,
      "▁Schützen": 8339,
      "▁Ansatz": 8340,
      "▁Wirk": 8341,
      "arriere": 8342,
      "▁schwarz": 8343,
      "▁Keller": 8344,
      "gebäude": 8345,
      "Mus": 8346,
      "rennt": 8347,
      "Programm": 8348,
      "▁Situationen": 8349,
      "▁amer": 8350,
      "▁Kr": 8351,
      "▁Stock": 8352,
      "work": 8353,
      "▁gesund": 8354,
      "leistungs": 8355,
      "▁Dialog": 8356,
      "otherapie": 8357,
      "uliert": 8358,
      "▁Regionen": 8359,
      "▁dauert": 8360,
      "▁solltest": 8361,
      "geladen": 8362,
      "▁gesucht": 8363,
      "▁Betroffenen": 8364,
      "▁Kontakti": 8365,
      "▁Paris": 8366,
      "▁sichere": 8367,
      "▁Alkohol": 8368,
      "dienste": 8369,
      "▁Col": 8370,
      "gerecht": 8371,
      "▁startet": 8372,
      "▁Investition": 8373,
      "richter": 8374,
      "▁geltenden": 8375,
      "▁bestehenden": 8376,
      "▁Session": 8377,
      "▁Grill": 8378,
      "Ent": 8379,
      "dam": 8380,
      "▁Viertel": 8381,
      "ulin": 8382,
      "▁hart": 8383,
      "▁Pferde": 8384,
      "omment": 8385,
      "▁Medikamen": 8386,
      "platte": 8387,
      "rufe": 8388,
      "▁Quad": 8389,
      "hyt": 8390,
      "atze": 8391,
      "▁verbringen": 8392,
      "▁Anmer": 8393,
      "▁Bewerbung": 8394,
      "ikanischen": 8395,
      "RA": 8396,
      "▁SOC": 8397,
      "▁ti": 8398,
      "▁Internetseiten": 8399,
      "▁Zeich": 8400,
      "▁eingestellt": 8401,
      "▁erzählen": 8402,
      "▁kombiniert": 8403,
      "west": 8404,
      "sinn": 8405,
      "▁beteiligt": 8406,
      "▁Ski": 8407,
      "▁Signatur": 8408,
      "druckt": 8409,
      "▁Landtag": 8410,
      "▁NICHT": 8411,
      "Form": 8412,
      "▁Zubehör": 8413,
      "▁;": 8414,
      "▁Tabellen": 8415,
      "▁durfte": 8416,
      "▁höchste": 8417,
      "▁Can": 8418,
      "rats": 8419,
      "▁Erweiterung": 8420,
      "▁Wurz": 8421,
      "▁stammt": 8422,
      "▁web": 8423,
      "kä": 8424,
      "ahrt": 8425,
      "angem": 8426,
      "▁elektronischen": 8427,
      "▁aufweisen": 8428,
      "▁HER": 8429,
      "▁stell": 8430,
      "▁Griff": 8431,
      "▁City": 8432,
      "stehenden": 8433,
      "▁Mieter": 8434,
      "rollen": 8435,
      "schech": 8436,
      "▁Handlungs": 8437,
      "▁London": 8438,
      "▁wirst": 8439,
      "▁gleiche": 8440,
      "▁Untersuchung": 8441,
      "ührung": 8442,
      "▁bemer": 8443,
      "geschlagen": 8444,
      "▁spielte": 8445,
      "▁frag": 8446,
      "▁Uni": 8447,
      "ividu": 8448,
      "itiv": 8449,
      "systeme": 8450,
      "zeichnete": 8451,
      "▁blo": 8452,
      "▁Einwohner": 8453,
      "itation": 8454,
      "▁Hilfs": 8455,
      "▁fehlen": 8456,
      "▁frühen": 8457,
      "hias": 8458,
      "▁erfasst": 8459,
      "urts": 8460,
      "weisung": 8461,
      "▁Diesen": 8462,
      "▁eigener": 8463,
      "▁Oster": 8464,
      "▁tritt": 8465,
      "▁geprüft": 8466,
      "▁lieb": 8467,
      "hauses": 8468,
      "▁faszin": 8469,
      "▁Helfer": 8470,
      "▁Kris": 8471,
      "▁getragen": 8472,
      "▁York": 8473,
      "▁Services": 8474,
      "▁Gitar": 8475,
      "▁verbessert": 8476,
      "Che": 8477,
      "▁Strip": 8478,
      "sä": 8479,
      "▁Eintrag": 8480,
      "▁Anfragen": 8481,
      "▁effizien": 8482,
      "istin": 8483,
      "▁Rau": 8484,
      "anischen": 8485,
      "gerechnet": 8486,
      "tegien": 8487,
      "zeption": 8488,
      "▁Cloud": 8489,
      "igte": 8490,
      "stren": 8491,
      "regeln": 8492,
      "▁Hamburger": 8493,
      "rot": 8494,
      "▁Bem": 8495,
      "▁teilzunehmen": 8496,
      "eignen": 8497,
      "▁Erwachsenen": 8498,
      "Sh": 8499,
      "▁Kalender": 8500,
      "▁Temperaturen": 8501,
      "klicken": 8502,
      "▁Organ": 8503,
      "▁vermittelt": 8504,
      "orgungs": 8505,
      "eis": 8506,
      "▁tau": 8507,
      "quenz": 8508,
      "▁Versch": 8509,
      "Stud": 8510,
      "pperin": 8511,
      "eigern": 8512,
      "schritt": 8513,
      "▁Zahlung": 8514,
      "▁TH": 8515,
      "?“": 8516,
      "zentration": 8517,
      "▁gewährleistet": 8518,
      "▁Türk": 8519,
      "anzeigen": 8520,
      "club": 8521,
      "Aut": 8522,
      "▁verantwort": 8523,
      "▁Bedien": 8524,
      "aktivitäten": 8525,
      "cyc": 8526,
      "▁Dor": 8527,
      "urlaub": 8528,
      "ummern": 8529,
      "gespräch": 8530,
      "▁Fett": 8531,
      "▁Kunststoff": 8532,
      "BA": 8533,
      "ced": 8534,
      "ktuelle": 8535,
      "▁Vorgaben": 8536,
      "▁Neuer": 8537,
      "gebiete": 8538,
      "hemen": 8539,
      "▁beitragen": 8540,
      "▁vorgenommen": 8541,
      "''": 8542,
      "▁ausdrückliche": 8543,
      "Pandemie": 8544,
      "▁feier": 8545,
      "▁Risiken": 8546,
      "plant": 8547,
      "▁Mini": 8548,
      "▁bisherigen": 8549,
      "assungs": 8550,
      "▁Nürn": 8551,
      "Stand": 8552,
      "▁erstes": 8553,
      "▁Hobby": 8554,
      "▁besonderes": 8555,
      "preise": 8556,
      "▁Blau": 8557,
      "▁Höch": 8558,
      "▁erzeug": 8559,
      "▁mitten": 8560,
      "▁Anwendungen": 8561,
      "▁LED": 8562,
      "▁Statt": 8563,
      "▁telefonisch": 8564,
      "▁äußerst": 8565,
      "▁Systeme": 8566,
      "▁Ordnung": 8567,
      "▁Fazit": 8568,
      "spezif": 8569,
      "▁anspruchs": 8570,
      "▁freie": 8571,
      "▁dritte": 8572,
      "ikationen": 8573,
      "wirkung": 8574,
      "steil": 8575,
      "▁Android": 8576,
      "▁Holl": 8577,
      "▁versteht": 8578,
      "kü": 8579,
      "▁illeg": 8580,
      "Aktuell": 8581,
      "brauch": 8582,
      "verkauf": 8583,
      "▁Gefü": 8584,
      "IETY": 8585,
      "▁manche": 8586,
      "kar": 8587,
      "▁PS": 8588,
      "▁SOCIETY": 8589,
      "▁Kos": 8590,
      "▁Rollen": 8591,
      "▁Ruf": 8592,
      "▁entdeckt": 8593,
      "▁Innovation": 8594,
      "▁Willkommen": 8595,
      "bring": 8596,
      "▁stammen": 8597,
      "Go": 8598,
      "▁Spanien": 8599,
      "▁Korre": 8600,
      "nehmung": 8601,
      "▁zertifiz": 8602,
      "▁Leder": 8603,
      "drucken": 8604,
      "▁Vordergrund": 8605,
      "skon": 8606,
      "▁Paar": 8607,
      "▁Entwicklungen": 8608,
      "kop": 8609,
      "▁Setzen": 8610,
      "▁Dipl": 8611,
      "uchtigkeit": 8612,
      "fried": 8613,
      "sige": 8614,
      "▁Europäische": 8615,
      "All": 8616,
      "▁Japan": 8617,
      "▁Bri": 8618,
      "▁Faktoren": 8619,
      "▁reichen": 8620,
      "▁entwickelte": 8621,
      "▁Fan": 8622,
      "hu": 8623,
      "▁Brust": 8624,
      "▁schweren": 8625,
      "▁verwalten": 8626,
      "▁Veränderung": 8627,
      "▁Sortiment": 8628,
      "Projekt": 8629,
      "rechtlich": 8630,
      "▁einsetzen": 8631,
      "ikon": 8632,
      "asste": 8633,
      "▁Objekte": 8634,
      "▁eröff": 8635,
      "ieder": 8636,
      "anfrage": 8637,
      "erfahrung": 8638,
      "▁holen": 8639,
      "atch": 8640,
      "▁erläuter": 8641,
      "KE": 8642,
      "▁Erinnerung": 8643,
      "ula": 8644,
      "▁Heidel": 8645,
      "!)": 8646,
      "cc": 8647,
      "▁Feed": 8648,
      "▁Rezept": 8649,
      "▁bearbeiten": 8650,
      "▁spezif": 8651,
      "▁Akti": 8652,
      "▁Lassen": 8653,
      "ielte": 8654,
      "▁AL": 8655,
      "▁fördert": 8656,
      "▁weite": 8657,
      "istet": 8658,
      "▁Wohnungen": 8659,
      "▁extra": 8660,
      "▁Artik": 8661,
      "▁erinnern": 8662,
      "▁Anna": 8663,
      "▁zentrale": 8664,
      "▁Akte": 8665,
      "lapp": 8666,
      "sidenten": 8667,
      "▁Komfort": 8668,
      "▁Praktik": 8669,
      "▁Bereitstellung": 8670,
      "▁beinhaltet": 8671,
      "istenz": 8672,
      "dl": 8673,
      "▁Norden": 8674,
      "▁Orien": 8675,
      "ids": 8676,
      "▁Fläche": 8677,
      "▁fot": 8678,
      "körper": 8679,
      "Wenn": 8680,
      "▁Finger": 8681,
      "▁(+": 8682,
      "▁WM": 8683,
      "Über": 8684,
      "wün": 8685,
      "▁Tom": 8686,
      "▁mater": 8687,
      "abteilung": 8688,
      "▁liefert": 8689,
      "▁Mom": 8690,
      "▁Stellung": 8691,
      "II": 8692,
      "einrichtungen": 8693,
      "Mark": 8694,
      "▁Songs": 8695,
      "▁Frühl": 8696,
      "▁tempor": 8697,
      "▁damal": 8698,
      "swür": 8699,
      "▁OF": 8700,
      "was": 8701,
      "▁Denken": 8702,
      "▁aussehen": 8703,
      "▁heil": 8704,
      "▁Ausstattung": 8705,
      "▁Erkrankungen": 8706,
      "ieht": 8707,
      "▁Niedersachsen": 8708,
      "▁eins": 8709,
      "tra": 8710,
      "hänger": 8711,
      "sn": 8712,
      "▁Coron": 8713,
      "spunkt": 8714,
      "ziger": 8715,
      "lines": 8716,
      "▁Golf": 8717,
      "▁Übungen": 8718,
      "▁Nein": 8719,
      "▁gelingt": 8720,
      "▁italien": 8721,
      "fahrten": 8722,
      "äufe": 8723,
      "▁meistens": 8724,
      "Richt": 8725,
      "iller": 8726,
      "▁Deck": 8727,
      "ham": 8728,
      "▁betrieb": 8729,
      "▁Fle": 8730,
      "▁Echt": 8731,
      "▁übersch": 8732,
      "▁reduziert": 8733,
      "macht": 8734,
      "mess": 8735,
      "▁Nachwuchs": 8736,
      "▁Erwart": 8737,
      "▁AM": 8738,
      "▁Sab": 8739,
      "wechsl": 8740,
      "▁fordert": 8741,
      "▁oftmals": 8742,
      "▁gewann": 8743,
      "▁verbindet": 8744,
      "Li": 8745,
      "▁zusätzlichen": 8746,
      "solven": 8747,
      "oter": 8748,
      "▁Cap": 8749,
      "▁fühlt": 8750,
      "mu": 8751,
      "leister": 8752,
      "▁as": 8753,
      "▁echte": 8754,
      "▁zuzu": 8755,
      "lichem": 8756,
      "▁Plätze": 8757,
      "wissenschaften": 8758,
      "▁Private": 8759,
      "gres": 8760,
      "krit": 8761,
      "▁Thür": 8762,
      "▁Kaiser": 8763,
      "▁Versionen": 8764,
      "▁halb": 8765,
      "▁Rab": 8766,
      "▁Studio": 8767,
      "▁Sebastian": 8768,
      "▁zuständigen": 8769,
      "igem": 8770,
      "umin": 8771,
      "▁struktur": 8772,
      "▁aufnehmen": 8773,
      "board": 8774,
      "▁Datenbank": 8775,
      "▁Filme": 8776,
      "▁Kandid": 8777,
      "▁Infektion": 8778,
      "▁Verlust": 8779,
      "▁dok": 8780,
      "▁bun": 8781,
      "▁Ausflug": 8782,
      "ausbildung": 8783,
      "****": 8784,
      "ysi": 8785,
      "▁Plus": 8786,
      "problem": 8787,
      "▁Phase": 8788,
      "ward": 8789,
      "CO": 8790,
      "▁verwiesen": 8791,
      "▁Urteil": 8792,
      "▁Haust": 8793,
      "▁unmittelbar": 8794,
      "TER": 8795,
      "▁Ring": 8796,
      "▁unverbindlich": 8797,
      "▁rech": 8798,
      "IST": 8799,
      "dner": 8800,
      "▁heißen": 8801,
      "korb": 8802,
      "▁Rand": 8803,
      "beln": 8804,
      "▁spätestens": 8805,
      "otten": 8806,
      "▁Kolleg": 8807,
      "stark": 8808,
      "ologisch": 8809,
      "▁Namensraum": 8810,
      "aktivierung": 8811,
      "ausend": 8812,
      "Lin": 8813,
      "▁gearbeitet": 8814,
      "▁Refer": 8815,
      "▁Gutschein": 8816,
      "▁Matthias": 8817,
      "SM": 8818,
      "fred": 8819,
      "sonsten": 8820,
      "▁Beziehungen": 8821,
      "▁Pay": 8822,
      "ypen": 8823,
      "▁Lizenz": 8824,
      "▁Arm": 8825,
      "▁zog": 8826,
      "▁Näch": 8827,
      "ki": 8828,
      "▁Bevor": 8829,
      "ya": 8830,
      "oppelt": 8831,
      "▁Krise": 8832,
      "städ": 8833,
      "▁gezielt": 8834,
      "▁erfordern": 8835,
      "▁Mad": 8836,
      "▁verdient": 8837,
      "▁Plast": 8838,
      "▁are": 8839,
      "irma": 8840,
      "▁Länge": 8841,
      "▁krä": 8842,
      "▁Parteien": 8843,
      "▁Autob": 8844,
      "▁Stripperin": 8845,
      "▁versp": 8846,
      ".),": 8847,
      "CD": 8848,
      "ulieren": 8849,
      "erkennung": 8850,
      "▁Bonn": 8851,
      "▁Übermittlung": 8852,
      "kinder": 8853,
      "▁Fluss": 8854,
      "▁Verlauf": 8855,
      "▁Fotograf": 8856,
      "tischer": 8857,
      "▁Ausgang": 8858,
      "ungsnummer": 8859,
      "lässt": 8860,
      "pers": 8861,
      "▁Fälle": 8862,
      "▁mehrfach": 8863,
      "▁berichten": 8864,
      "▁keines": 8865,
      "▁Laufen": 8866,
      "▁Beispiele": 8867,
      "ziell": 8868,
      "▁Chef": 8869,
      "▁Klang": 8870,
      "▁positiven": 8871,
      "▁AGB": 8872,
      "▁Tenn": 8873,
      "▁Marc": 8874,
      "▁Ei": 8875,
      "▁hochwertigen": 8876,
      "▁Finanzierung": 8877,
      "▁Fast": 8878,
      "▁unkom": 8879,
      "▁ve": 8880,
      "▁Benachr": 8881,
      "ellschaften": 8882,
      "verhältnis": 8883,
      "▁weib": 8884,
      "auff": 8885,
      "kleidung": 8886,
      "▁attrakti": 8887,
      "ieden": 8888,
      "▁höchsten": 8889,
      ",-": 8890,
      "▁meines": 8891,
      "leun": 8892,
      "emen": 8893,
      "▁zulassen": 8894,
      "TS": 8895,
      "▁Beschwerden": 8896,
      "stufe": 8897,
      "öffentlichen": 8898,
      "▁Garantie": 8899,
      "▁Stich": 8900,
      "ätzt": 8901,
      "▁Auseinander": 8902,
      "ION": 8903,
      "ires": 8904,
      "▁Ernst": 8905,
      "▁Höhen": 8906,
      "▁fordern": 8907,
      "phan": 8908,
      "▁Lay": 8909,
      "weitern": 8910,
      "▁täglichen": 8911,
      "▁sen": 8912,
      "▁Trotzdem": 8913,
      "▁Kirch": 8914,
      "▁Parlament": 8915,
      "weich": 8916,
      "▁Gab": 8917,
      "▁Vorstellung": 8918,
      "▁Emo": 8919,
      "▁erlauben": 8920,
      "äfte": 8921,
      "speicher": 8922,
      "▁Et": 8923,
      "▁Kab": 8924,
      "gigen": 8925,
      "▁Bauch": 8926,
      "▁Val": 8927,
      "wechslungs": 8928,
      "▁verknü": 8929,
      "▁sobald": 8930,
      "▁leistungs": 8931,
      "▁einstellen": 8932,
      "▁Christoph": 8933,
      "▁bestimmen": 8934,
      "▁Potenzial": 8935,
      "▁nochmals": 8936,
      "▁Olymp": 8937,
      "▁fiel": 8938,
      "vertreten": 8939,
      "▁begrün": 8940,
      "▁Jürgen": 8941,
      "rahmen": 8942,
      "ütte": 8943,
      "▁keinem": 8944,
      "▁Grenz": 8945,
      "▁Szene": 8946,
      "nah": 8947,
      "▁ausgel": 8948,
      "kompeten": 8949,
      "▁Erste": 8950,
      "▁rechtliche": 8951,
      "▁Gastgeber": 8952,
      "schiede": 8953,
      "▁Städten": 8954,
      "km": 8955,
      "afel": 8956,
      "▁Partnern": 8957,
      "▁Rechner": 8958,
      "▁Kompl": 8959,
      "▁Bre": 8960,
      "Service": 8961,
      "▁beobachten": 8962,
      "▁Händler": 8963,
      "▁Kanz": 8964,
      "mag": 8965,
      "▁log": 8966,
      "▁Gehirn": 8967,
      "▁Leg": 8968,
      "▁World": 8969,
      "probieren": 8970,
      "halter": 8971,
      "▁Aussicht": 8972,
      "▁geschafft": 8973,
      "▁Know": 8974,
      "stechn": 8975,
      "ativer": 8976,
      "▁Zoll": 8977,
      "▁Bestimmte": 8978,
      "▁Miner": 8979,
      "rochen": 8980,
      "▁Wegen": 8981,
      "▁west": 8982,
      "▁voran": 8983,
      "▁zustimmen": 8984,
      "keln": 8985,
      "sphase": 8986,
      "▁zwölf": 8987,
      "emann": 8988,
      "▁Schatten": 8989,
      "▁Haare": 8990,
      "▁lust": 8991,
      "▁Paket": 8992,
      "haup": 8993,
      "▁falsch": 8994,
      "ziele": 8995,
      "▁Eck": 8996,
      "▁Kloster": 8997,
      "▁Blät": 8998,
      "schlagwortet": 8999,
      "▁verletzt": 9000,
      "run": 9001,
      "▁Startseite": 9002,
      "gendes": 9003,
      "siv": 9004,
      "▁Israel": 9005,
      "▁integriert": 9006,
      "▁Ju": 9007,
      "abschluss": 9008,
      "gebnisse": 9009,
      "▁erleichtern": 9010,
      "▁Schönheit": 9011,
      "▁Lohn": 9012,
      "▁Geschlecht": 9013,
      "schafter": 9014,
      "▁Erkenntnisse": 9015,
      "Universität": 9016,
      "▁vermutlich": 9017,
      "▁Kreativität": 9018,
      "▁Befrag": 9019,
      "urst": 9020,
      "dio": 9021,
      "dach": 9022,
      "▁Access": 9023,
      "▁Hierzu": 9024,
      "ye": 9025,
      "▁Analytische": 9026,
      "▁Vorstellungen": 9027,
      "Kont": 9028,
      "▁Gründer": 9029,
      "bares": 9030,
      "▁Sub": 9031,
      "cm": 9032,
      "▁ständ": 9033,
      "ktivität": 9034,
      "luft": 9035,
      "▁Rheinland": 9036,
      "Welt": 9037,
[...]
