{
  "version": "1.0",
  "truncation": null,
  "padding": null,
  "added_tokens": [
    {
      "id": 0,
      "content": "<unk>",
      "single_word": false,
      "lstrip": false,
      "rstrip": false,
      "normalized": false,
      "special": true
    },
    {
      "id": 1,
      "content": "<s>",
      "single_word": false,
      "lstrip": false,
      "rstrip": false,
      "normalized": false,
      "special": true
    },
    {
      "id": 2,
      "content": "</s>",
      "single_word": false,
      "lstrip": false,
      "rstrip": false,
      "normalized": false,
      "special": true
    },
    {
      "id": 3,
      "content": "<pad>",
      "single_word": false,
      "lstrip": false,
      "rstrip": false,
      "normalized": false,
      "special": true
    }
  ],
  "normalizer": {
    "type": "Sequence",
    "normalizers": [
      {
        "type": "Prepend",
        "prepend": "▁"
      },
      {
        "type": "Replace",
        "pattern": {
          "String": " "
        },
        "content": "▁"
      }
    ]
  },
  "pre_tokenizer": null,
  "post_processor": {
    "type": "TemplateProcessing",
    "single": [
      {
        "SpecialToken": {
          "id": "<s>",
          "type_id": 0
        }
      },
      {
        "Sequence": {
          "id": "A",
          "type_id": 0
        }
      }
    ],
    "pair": [
      {
        "SpecialToken": {
          "id": "<s>",
          "type_id": 0
        }
      },
      {
        "Sequence": {
          "id": "A",
          "type_id": 0
        }
      },
      {
        "SpecialToken": {
          "id": "<s>",
          "type_id": 1
        }
      },
      {
        "Sequence": {
          "id": "B",
          "type_id": 1
        }
      }
    ],
    "special_tokens": {
      "<s>": {
        "id": "<s>",
        "ids": [
          1
        ],
        "tokens": [
          "<s>"
        ]
      }
    }
  },
  "decoder": {
    "type": "Sequence",
    "decoders": [
      {
        "type": "Replace",
        "pattern": {
          "String": "▁"
        },
        "content": " "
      },
      {
        "type": "ByteFallback"
      },
      {
        "type": "Fuse"
      },
      {
        "type": "Strip",
        "content": " ",
        "start": 1,
        "stop": 0
      }
    ]
  },
  "model": {
    "type": "BPE",
    "dropout": null,
    "unk_token": "<unk>",
    "continuing_subword_prefix": null,
    "end_of_word_suffix": null,
    "fuse_unk": true,
    "byte_fallback": true,
    "vocab": {
      "<unk>": 0,
      "<s>": 1,
      "</s>": 2,
      "<pad>": 3,
      "<0x00>": 4,
      "<0x01>": 5,
      "<0x02>": 6,
      "<0x03>": 7,
      "<0x04>": 8,
      "<0x05>": 9,
      "<0x06>": 10,
      "<0x07>": 11,
      "<0x08>": 12,
      "<0x09>": 13,
      "<0x0A>": 14,
      "<0x0B>": 15,
      "<0x0C>": 16,
      "<0x0D>": 17,
      "<0x0E>": 18,
      "<0x0F>": 19,
      "<0x10>": 20,
      "<0x11>": 21,
      "<0x12>": 22,
      "<0x13>": 23,
      "<0x14>": 24,
      "<0x15>": 25,
      "<0x16>": 26,
      "<0x17>": 27,
      "<0x18>": 28,
      "<0x19>": 29,
      "<0x1A>": 30,
      "<0x1B>": 31,
      "<0x1C>": 32,
      "<0x1D>": 33,
      "<0x1E>": 34,
      "<0x1F>": 35,
      "<0x20>": 36,
      "<0x21>": 37,
      "<0x22>": 38,
      "<0x23>": 39,
      "<0x24>": 40,
      "<0x25>": 41,
      "<0x26>": 42,
      "<0x27>": 43,
      "<0x28>": 44,
      "<0x29>": 45,
      "<0x2A>": 46,
      "<0x2B>": 47,
      "<0x2C>": 48,
      "<0x2D>": 49,
      "<0x2E>": 50,
      "<0x2F>": 51,
      "<0x30>": 52,
      "<0x31>": 53,
      "<0x32>": 54,
      "<0x33>": 55,
      "<0x34>": 56,
      "<0x35>": 57,
      "<0x36>": 58,
      "<0x37>": 59,
      "<0x38>": 60,
      "<0x39>": 61,
      "<0x3A>": 62,
      "<0x3B>": 63,
      "<0x3C>": 64,
      "<0x3D>": 65,
      "<0x3E>": 66,
      "<0x3F>": 67,
      "<0x40>": 68,
      "<0x41>": 69,
      "<0x42>": 70,
      "<0x43>": 71,
      "<0x44>": 72,
      "<0x45>": 73,
      "<0x46>": 74,
      "<0x47>": 75,
      "<0x48>": 76,
      "<0x49>": 77,
      "<0x4A>": 78,
      "<0x4B>": 79,
      "<0x4C>": 80,
      "<0x4D>": 81,
      "<0x4E>": 82,
      "<0x4F>": 83,
      "<0x50>": 84,
      "<0x51>": 85,
      "<0x52>": 86,
      "<0x53>": 87,
      "<0x54>": 88,
      "<0x55>": 89,
      "<0x56>": 90,
      "<0x57>": 91,
      "<0x58>": 92,
      "<0x59>": 93,
      "<0x5A>": 94,
      "<0x5B>": 95,
      "<0x5C>": 96,
      "<0x5D>": 97,
      "<0x5E>": 98,
      "<0x5F>": 99,
      "<0x60>": 100,
      "<0x61>": 101,
      "<0x62>": 102,
      "<0x63>": 103,
      "<0x64>": 104,
      "<0x65>": 105,
      "<0x66>": 106,
      "<0x67>": 107,
      "<0x68>": 108,
      "<0x69>": 109,
      "<0x6A>": 110,
      "<0x6B>": 111,
      "<0x6C>": 112,
      "<0x6D>": 113,
      "<0x6E>": 114,
      "<0x6F>": 115,
      "<0x70>": 116,
      "<0x71>": 117,
      "<0x72>": 118,
      "<0x73>": 119,
      "<0x74>": 120,
      "<0x75>": 121,
      "<0x76>": 122,
      "<0x77>": 123,
      "<0x78>": 124,
      "<0x79>": 125,
      "<0x7A>": 126,
      "<0x7B>": 127,
      "<0x7C>": 128,
      "<0x7D>": 129,
      "<0x7E>": 130,
      "<0x7F>": 131,
      "<0x80>": 132,
      "<0x81>": 133,
      "<0x82>": 134,
      "<0x83>": 135,
      "<0x84>": 136,
      "<0x85>": 137,
      "<0x86>": 138,
      "<0x87>": 139,
      "<0x88>": 140,
      "<0x89>": 141,
      "<0x8A>": 142,
      "<0x8B>": 143,
      "<0x8C>": 144,
      "<0x8D>": 145,
      "<0x8E>": 146,
      "<0x8F>": 147,
      "<0x90>": 148,
      "<0x91>": 149,
      "<0x92>": 150,
      "<0x93>": 151,
      "<0x94>": 152,
      "<0x95>": 153,
      "<0x96>": 154,
      "<0x97>": 155,
      "<0x98>": 156,
      "<0x99>": 157,
      "<0x9A>": 158,
      "<0x9B>": 159,
      "<0x9C>": 160,
      "<0x9D>": 161,
      "<0x9E>": 162,
      "<0x9F>": 163,
      "<0xA0>": 164,
      "<0xA1>": 165,
      "<0xA2>": 166,
      "<0xA3>": 167,
      "<0xA4>": 168,
      "<0xA5>": 169,
      "<0xA6>": 170,
      "<0xA7>": 171,
      "<0xA8>": 172,
      "<0xA9>": 173,
      "<0xAA>": 174,
      "<0xAB>": 175,
      "<0xAC>": 176,
      "<0xAD>": 177,
      "<0xAE>": 178,
      "<0xAF>": 179,
      "<0xB0>": 180,
      "<0xB1>": 181,
      "<0xB2>": 182,
      "<0xB3>": 183,
      "<0xB4>": 184,
      "<0xB5>": 185,
      "<0xB6>": 186,
      "<0xB7>": 187,
      "<0xB8>": 188,
      "<0xB9>": 189,
      "<0xBA>": 190,
      "<0xBB>": 191,
      "<0xBC>": 192,
      "<0xBD>": 193,
      "<0xBE>": 194,
      "<0xBF>": 195,
      "<0xC0>": 196,
      "<0xC1>": 197,
      "<0xC2>": 198,
      "<0xC3>": 199,
      "<0xC4>": 200,
      "<0xC5>": 201,
      "<0xC6>": 202,
      "<0xC7>": 203,
      "<0xC8>": 204,
      "<0xC9>": 205,
      "<0xCA>": 206,
      "<0xCB>": 207,
      "<0xCC>": 208,
      "<0xCD>": 209,
      "<0xCE>": 210,
      "<0xCF>": 211,
      "<0xD0>": 212,
      "<0xD1>": 213,
      "<0xD2>": 214,
      "<0xD3>": 215,
      "<0xD4>": 216,
      "<0xD5>": 217,
      "<0xD6>": 218,
      "<0xD7>": 219,
      "<0xD8>": 220,
      "<0xD9>": 221,
      "<0xDA>": 222,
      "<0xDB>": 223,
      "<0xDC>": 224,
      "<0xDD>": 225,
      "<0xDE>": 226,
      "<0xDF>": 227,
      "<0xE0>": 228,
      "<0xE1>": 229,
      "<0xE2>": 230,
      "<0xE3>": 231,
      "<0xE4>": 232,
      "<0xE5>": 233,
      "<0xE6>": 234,
      "<0xE7>": 235,
      "<0xE8>": 236,
      "<0xE9>": 237,
      "<0xEA>": 238,
      "<0xEB>": 239,
      "<0xEC>": 240,
      "<0xED>": 241,
      "<0xEE>": 242,
      "<0xEF>": 243,
      "<0xF0>": 244,
      "<0xF1>": 245,
      "<0xF2>": 246,
      "<0xF3>": 247,
      "<0xF4>": 248,
      "<0xF5>": 249,
      "<0xF6>": 250,
      "<0xF7>": 251,
      "<0xF8>": 252,
      "<0xF9>": 253,
      "<0xFA>": 254,
      "<0xFB>": 255,
      "<0xFC>": 256,
      "<0xFD>": 257,
      "<0xFE>": 258,
      "<0xFF>": 259,
      "ال": 260,
      "▁ال": 261,
      "▁م": 262,
      "▁و": 263,
      "▁ب": 264,
      "▁ف": 265,
      "▁ل": 266,
      "▁أ": 267,
      "ات": 268,
      "ية": 269,
      "▁الم": 270,
      "▁ت": 271,
      "▁ع": 272,
      "ار": 273,
      "ان": 274,
      "▁في": 275,
      "▁من": 276,
      "ين": 277,
      "ام": 278,
      "▁ي": 279,
      "لى": 280,
      "▁ك": 281,
      "ها": 282,
      "ير": 283,
      "▁إ": 284,
      "▁الت": 285,
      "ول": 286,
      "▁وال": 287,
      "▁الأ": 288,
      "ري": 289,
      "را": 290,
      "ون": 291,
      "▁ح": 292,
      "ست": 293,
      "▁ا": 294,
      "▁س": 295,
      "نا": 296,
      "▁الع": 297,
      "▁على": 298,
      "لا": 299,
      "▁ق": 300,
      "لي": 301,
      "دي": 302,
      "▁ه": 303,
      "ور": 304,
      "ما": 305,
      "وا": 306,
      "▁لل": 307,
      "▁ن": 308,
      "▁ج": 309,
      "يا": 310,
      "▁الس": 311,
      "▁أن": 312,
      "اب": 313,
      "▁الح": 314,
      "دة": 315,
      "..": 316,
      "▁خ": 317,
      "وم": 318,
      "▁ش": 319,
      "بي": 320,
      "عد": 321,
      "▁د": 322,
      "▁بال": 323,
      "▁الج": 324,
      "ائ": 325,
      "اء": 326,
      "▁ر": 327,
      "اد": 328,
      "لة": 329,
      "هم": 330,
      "رة": 331,
      "عة": 332,
      "▁الف": 333,
      "▁مع": 334,
      "▁الق": 335,
      "▁عن": 336,
      "اف": 337,
      "لك": 338,
      "رك": 339,
      "▁الإ": 340,
      "▁الش": 341,
      "▁ص": 342,
      "▁الا": 343,
      "▁الب": 344,
      "▁الد": 345,
      "يل": 346,
      "ارة": 347,
      "رب": 348,
      "▁إلى": 349,
      "▁ط": 350,
      "من": 351,
      "▁\"": 352,
      "▁الك": 353,
      "▁الص": 354,
      "وق": 355,
      "يد": 356,
      "مل": 357,
      "▁الن": 358,
      "قة": 359,
      "مة": 360,
      "ذا": 361,
      "▁الخ": 362,
      "▁،": 363,
      "يس": 364,
      "رو": 365,
      "▁وت": 366,
      "بر": 367,
      "ود": 368,
      "مي": 369,
      "اح": 370,
      "▁مح": 371,
      "اع": 372,
      "▁الر": 373,
      "سب": 374,
      "قد": 375,
      "كن": 376,
      "▁التي": 377,
      "عل": 378,
      "▁ما": 379,
      "▁الذ": 380,
      "يت": 381,
      "يف": 382,
      "▁ان": 383,
      "نت": 384,
      "▁وأ": 385,
      "قي": 386,
      "سي": 387,
      "تم": 388,
      "▁غ": 389,
      "▁(": 390,
      "▁الط": 391,
      "▁أو": 392,
      "رف": 393,
      "▁-": 394,
      "حت": 395,
      "▁الو": 396,
      "نة": 397,
      "ني": 398,
      "▁لا": 399,
      "▁الل": 400,
      "اً": 401,
      "كل": 402,
      "وب": 403,
      "في": 404,
      "▁آ": 405,
      "اص": 406,
      "▁لم": 407,
      "سم": 408,
      "▁مص": 409,
      "بل": 410,
      "حد": 411,
      "لال": 412,
      "سل": 413,
      "...": 414,
      "▁.": 415,
      "ذه": 416,
      "اج": 417,
      "ًا": 418,
      "وي": 419,
      "ارات": 420,
      "▁وم": 421,
      "▁المت": 422,
      "ذلك": 423,
      "▁است": 424,
      "تي": 425,
      "وج": 426,
      "حة": 427,
      "بة": 428,
      "دم": 429,
      "▁تع": 430,
      "جم": 431,
      "قت": 432,
      "مر": 433,
      "صل": 434,
      "جر": 435,
      "وف": 436,
      "خر": 437,
      "هد": 438,
      "▁كس": 439,
      "يرة": 440,
      "اني": 441,
      "ديد": 442,
      "كر": 443,
      "▁الي": 444,
      "لف": 445,
      "▁الث": 446,
      "بار": 447,
      "▁مت": 448,
      "هر": 449,
      "لم": 450,
      "شر": 451,
      "رض": 452,
      "▁هذا": 453,
      "عم": 454,
      "جل": 455,
      "ئيس": 456,
      "يم": 457,
      "▁تح": 458,
      "وع": 459,
      "كت": 460,
      "طة": 461,
      "انت": 462,
      "راء": 463,
      "اض": 464,
      "▁علي": 465,
      "▁ز": 466,
      "بد": 467,
      "ند": 468,
      "سا": 469,
      "الم": 470,
      "سة": 471,
      "▁كل": 472,
      "كون": 473,
      "▁والم": 474,
      "▁الذي": 475,
      "الي": 476,
      "▁لت": 477,
      "▁بين": 478,
      "▁بعد": 479,
      "عت": 480,
      "▁مط": 481,
      "▁ث": 482,
      "وس": 483,
      "در": 484,
      "▁ض": 485,
      "▁هذه": 486,
      "▁إن": 487,
      "▁كسارة": 488,
      "عا": 489,
      "خت": 490,
      "با": 491,
      "▁أي": 492,
      "قل": 493,
      "▁وه": 494,
      "ولة": 495,
      "▁...": 496,
      "أن": 497,
      "ثر": 498,
      "▁خلال": 499,
      "دا": 500,
      "اري": 501,
      "ركة": 502,
      "▁مش": 503,
      "يات": 504,
      "جه": 505,
      "مد": 506,
      "ته": 507,
      "ريق": 508,
      "▁تم": 509,
      "فا": 510,
      "▁اله": 511,
      "▁المح": 512,
      "عب": 513,
      "وز": 514,
      "وت": 515,
      "وات": 516,
      "خص": 517,
      "وض": 518,
      "انية": 519,
      "لب": 520,
      "عي": 521,
      "▁أك": 522,
      "الة": 523,
      "حن": 524,
      "▁أم": 525,
      "عر": 526,
      "خل": 527,
      "▁يم": 528,
      "▁يت": 529,
      "▁هو": 530,
      "كم": 531,
      "▁مس": 532,
      "رق": 533,
      "▁وي": 534,
      "▁وب": 535,
      "in": 536,
      "▁وق": 537,
      "▁والت": 538,
      "▁مد": 539,
      "فض": 540,
      "▁المص": 541,
      "▁تق": 542,
      "يث": 543,
      "ورة": 544,
      "▁بن": 545,
      "▁الأم": 546,
      "وري": 547,
      "افة": 548,
      "قا": 549,
      "▁اليوم": 550,
      "▁بم": 551,
      "زي": 552,
      "▁وك": 553,
      "الية": 554,
      "امة": 555,
      "عض": 556,
      "▁الغ": 557,
      "▁المن": 558,
      "▁وا": 559,
      "▁كان": 560,
      "نية": 561,
      "سط": 562,
      "er": 563,
      "▁بت": 564,
      "نع": 565,
      "بيع": 566,
      "سية": 567,
      "ستخ": 568,
      "▁للم": 569,
      "وية": 570,
      "حنة": 571,
      "▁تت": 572,
      "▁المش": 573,
      "رائ": 574,
      "▁تص": 575,
      "ينة": 576,
      "▁بش": 577,
      "▁ذلك": 578,
      "اه": 579,
      "▁حيث": 580,
      "وقع": 581,
      "دد": 582,
      "▁الله": 583,
      "▁هي": 584,
      "▁كما": 585,
      "▁يمكن": 586,
      "وى": 587,
      "▁الز": 588,
      "فت": 589,
      "يع": 590,
      "ئة": 591,
      "▁بر": 592,
      "▁:": 593,
      "▁عام": 594,
      "حق": 595,
      "جة": 596,
      "قر": 597,
      "▁مطحنة": 598,
      "▁تن": 599,
      "\".": 600,
      "ربية": 601,
      "▁مست": 602,
      "كي": 603,
      "▁وز": 604,
      "▁فى": 605,
      "زة": 606,
      "سع": 607,
      "ــ": 608,
      "فس": 609,
      "رح": 610,
      "كس": 611,
      "ثل": 612,
      "▁سي": 613,
      "وان": 614,
      "▁قد": 615,
      "طم": 616,
      "تها": 617,
      "ناء": 618,
      "ميع": 619,
      "رد": 620,
      "ثير": 621,
      "إن": 622,
      "▁بد": 623,
      "صر": 624,
      "فة": 625,
      "▁ذ": 626,
      "لات": 627,
      "▁المع": 628,
      "قات": 629,
      "از": 630,
      "an": 631,
      "قط": 632,
      "▁المست": 633,
      "رت": 634,
      "▁عمل": 635,
      "عية": 636,
      "▁با": 637,
      "▁«": 638,
      "ليم": 639,
      "▁يع": 640,
      "كة": 641,
      "▁قبل": 642,
      "▁تش": 643,
      "حي": 644,
      "▁الرئيس": 645,
      "▁وع": 646,
      "▁الآ": 647,
      "▁العالم": 648,
      "▁له": 649,
      "▁المد": 650,
      "يب": 651,
      "وك": 652,
      "▁|": 653,
      "▁الى": 654,
      "امل": 655,
      "▁آلة": 656,
      "on": 657,
      "طر": 658,
      "▁بح": 659,
      "ارت": 660,
      "▁مج": 661,
      "وة": 662,
      "▁الدول": 663,
      "صول": 664,
      "▁للت": 665,
      "طن": 666,
      "▁نا": 667,
      "عدات": 668,
      "لق": 669,
      "▁الاست": 670,
      "▁محطم": 671,
      "صف": 672,
      "بت": 673,
      "ومة": 674,
      "▁تج": 675,
      "▁ين": 676,
      "فضل": 677,
      "▁وج": 678,
      "رات": 679,
      "تى": 680,
      "▁النا": 681,
      "▁عند": 682,
      "▁ست": 683,
      "بح": 684,
      "▁رئيس": 685,
      "▁وح": 686,
      "▁بل": 687,
      "الت": 688,
      "قدم": 689,
      "فع": 690,
      "▁الموا": 691,
      "▁ومن": 692,
      "خبار": 693,
      "صة": 694,
      "▁A": 695,
      "ديدة": 696,
      "▁غير": 697,
      "▁الحجر": 698,
      "▁العمل": 699,
      "▁طحن": 700,
      "بات": 701,
      "أس": 702,
      "▁كب": 703,
      "اصة": 704,
      "▁–": 705,
      "▁ولا": 706,
      "▁العام": 707,
      "وعة": 708,
      "or": 709,
      "▁يوم": 710,
      "دام": 711,
      "فر": 712,
      "▁المس": 713,
      "شار": 714,
      "بية": 715,
      "ar": 716,
      "▁أكثر": 717,
      "▁مؤ": 718,
      "يج": 719,
      "سبة": 720,
      "▁مصر": 721,
      "▁حتى": 722,
      "▁ون": 723,
      "امج": 724,
      "▁التع": 725,
      "كية": 726,
      "▁أنه": 727,
      "يو": 728,
      "كان": 729,
      "جلس": 730,
      "بط": 731,
      "جت": 732,
      "بن": 733,
      "▁موا": 734,
      "فل": 735,
      "▁ات": 736,
      "▁ول": 737,
      "▁بعض": 738,
      "▁تط": 739,
      "كا": 740,
      "▁وإ": 741,
      "حم": 742,
      "▁الأس": 743,
      "▁عم": 744,
      "▁هنا": 745,
      "ابة": 746,
      "▁السع": 747,
      "▁به": 748,
      "اط": 749,
      "راق": 750,
      "▁بي": 751,
      "فق": 752,
      "▁عبد": 753,
      "لاث": 754,
      "▁وس": 755,
      "ظام": 756,
      "الات": 757,
      "رية": 758,
      "▁لي": 759,
      "ركات": 760,
      "▁الات": 761,
      "وار": 762,
      "▁S": 763,
      "▁,": 764,
      "ودة": 765,
      "حدة": 766,
      "خرى": 767,
      "ودية": 768,
      "ديم": 769,
      "▁يج": 770,
      "طقة": 771,
      "▁أس": 772,
      "رج": 773,
      "▁خط": 774,
      "▁P": 775,
      "al": 776,
      "es": 777,
      "عات": 778,
      "▁للبيع": 779,
      "شة": 780,
      "مال": 781,
      "▁أب": 782,
      "▁والأ": 783,
      "▁تأ": 784,
      "ركز": 785,
      "▁الض": 786,
      "ختلف": 787,
      "▁يق": 788,
      "قيق": 789,
      "en": 790,
      "at": 791,
      "▁لأ": 792,
      "▁بأ": 793,
      "ضا": 794,
      "▁واح": 795,
      "رن": 796,
      "▁التح": 797,
      "▁بشكل": 798,
      "ولا": 799,
      "غير": 800,
      "▁يتم": 801,
      "به": 802,
      "سات": 803,
      "▁تد": 804,
      "\"،": 805,
      "▁وفي": 806,
      "▁محمد": 807,
      "صد": 808,
      "▁المج": 809,
      "▁/": 810,
      "افظ": 811,
      "▁مخ": 812,
      "▁السيا": 813,
      "▁C": 814,
      "▁البي": 815,
      "عدين": 816,
      "شف": 817,
      "▁الجم": 818,
      "▁M": 819,
      "حدث": 820,
      "حا": 821,
      "جتما": 822,
      "طف": 823,
      "راج": 824,
      "تر": 825,
      "▁..": 826,
      "▁مق": 827,
      "هب": 828,
      "▁السل": 829,
      "ستخدم": 830,
      "فاع": 831,
      "زل": 832,
      "▁بالم": 833,
      "ضع": 834,
      "ريد": 835,
      "ورية": 836,
      "ارج": 837,
      "▁الانت": 838,
      "ارية": 839,
      "ونة": 840,
      "اريخ": 841,
      "رياض": 842,
      "▁جميع": 843,
      "▁حول": 844,
      "▁كانت": 845,
      "▁عدد": 846,
      "▁شركة": 847,
      "مت": 848,
      "عمال": 849,
      "▁مثل": 850,
      "بع": 851,
      "▁المق": 852,
      "▁مصنع": 853,
      "▁وهو": 854,
      "دى": 855,
      "▁دول": 856,
      "▁ولك": 857,
      "ديث": 858,
      "اة": 859,
      "▁ام": 860,
      "▁عليه": 861,
      "يني": 862,
      "▁انت": 863,
      "ربي": 864,
      "قتص": 865,
      "حو": 866,
      "▁ملي": 867,
      "▁لكن": 868,
      "سبب": 869,
      "▁عبر": 870,
      "▁المنا": 871,
      "مو": 872,
      "راض": 873,
      "▁تحت": 874,
      "واء": 875,
      "هي": 876,
      "َّ": 877,
      "يفة": 878,
      "▁التن": 879,
      "ائل": 880,
      "يز": 881,
      "حية": 882,
      "كد": 883,
      "ليل": 884,
      "▁فت": 885,
      "روع": 886,
      "سعار": 887,
      "▁المنت": 888,
      "▁بها": 889,
      "▁الكرة": 890,
      "زيد": 891,
      "▁البح": 892,
      "▁تس": 893,
      "▁العربية": 894,
      "ومات": 895,
      "▁ثم": 896,
      "▁ظ": 897,
      "جد": 898,
      "▁الحك": 899,
      "اخل": 900,
      "انة": 901,
      "▁ولكن": 902,
      "▁حس": 903,
      "▁بأن": 904,
      "ic": 905,
      "▁موقع": 906,
      "▁أح": 907,
      "▁المتحدة": 908,
      "▁المط": 909,
      "يادة": 910,
      "انون": 911,
      "سلام": 912,
      "رس": 913,
      "جات": 914,
      "▁يكون": 915,
      "▁بط": 916,
      "قع": 917,
      "اعة": 918,
      "▁المؤ": 919,
      "▁بالت": 920,
      "لاق": 921,
      "وير": 922,
      "▁استخ": 923,
      "نس": 924,
      "دارة": 925,
      "ينا": 926,
      "الب": 927,
      "▁t": 928,
      "جموعة": 929,
      "▁منذ": 930,
      "▁p": 931,
      "▁إذا": 932,
      "ضافة": 933,
      "▁الأول": 934,
      "ضاف": 935,
      "مين": 936,
      "▁تر": 937,
      "▁معدات": 938,
      "▁منت": 939,
      "هل": 940,
      "مية": 941,
      "▁لإ": 942,
      "▁الصين": 943,
      "▁الوز": 944,
      "▁الذهب": 945,
      "▁كت": 946,
      "▁خام": 947,
      "وائ": 948,
      "لاح": 949,
      "▁الان": 950,
      "▁أع": 951,
      "▁سل": 952,
      "▁الوط": 953,
      "▁سن": 954,
      "رار": 955,
      "وص": 956,
      "▁المغ": 957,
      "▁قال": 958,
      "يش": 959,
      "منت": 960,
      "▁التج": 961,
      "▁قط": 962,
      "▁هناك": 963,
      "▁لك": 964,
      "▁كيف": 965,
      "دمة": 966,
      "يه": 967,
      "يط": 968,
      "▁العم": 969,
      "لت": 970,
      "▁لن": 971,
      "ظر": 972,
      "ابات": 973,
      "▁بإ": 974,
      "▁دي": 975,
      "it": 976,
      "لاء": 977,
      "ائية": 978,
      "▁فيها": 979,
      "ارس": 980,
      "▁الماض": 981,
      "▁جن": 982,
      "▁السعودية": 983,
      "انات": 984,
      "om": 985,
      "▁أص": 986,
      "وال": 987,
      "▁لها": 988,
      "▁أش": 989,
      "خط": 990,
      "▁الوق": 991,
      "لسط": 992,
      "حاد": 993,
      "▁المم": 994,
      "▁للأ": 995,
      "▁سعر": 996,
      "▁وقال": 997,
      "وط": 998,
      "▁وقد": 999,
      "علام": 1000,
      "▁لأن": 1001,
      "عمل": 1002,
      "ونا": 1003,
      "يران": 1004,
      "▁نفس": 1005,
      "سرائ": 1006,
      "▁أحد": 1007,
      "رفة": 1008,
      "▁وذلك": 1009,
      "شرة": 1010,
      "▁فإن": 1011,
      "▁دون": 1012,
      "قب": 1013,
      "▁تف": 1014,
      "▁T": 1015,
      "ولى": 1016,
      "ظم": 1017,
      "ويت": 1018,
      "et": 1019,
      "▁وش": 1020,
      "▁الفك": 1021,
      "▁سحق": 1022,
      "ou": 1023,
      "▁أف": 1024,
      "▁عملية": 1025,
      "▁يح": 1026,
      "يك": 1027,
      "▁والتي": 1028,
      "جز": 1029,
      "▁سب": 1030,
      "▁لح": 1031,
      "قم": 1032,
      "▁أفضل": 1033,
      "▁الرا": 1034,
      "لاب": 1035,
      "▁آخر": 1036,
      "لاد": 1037,
      "لية": 1038,
      "جراء": 1039,
      "ياً": 1040,
      "▁أول": 1041,
      "▁وف": 1042,
      "ماء": 1043,
      "وث": 1044,
      "▁حق": 1045,
      "الح": 1046,
      "▁الهند": 1047,
      "نتاج": 1048,
      "له": 1049,
      "▁المر": 1050,
      "ادر": 1051,
      "وني": 1052,
      "▁يد": 1053,
      "هدف": 1054,
      "ذي": 1055,
      "ودي": 1056,
      "اس": 1057,
      "▁الام": 1058,
      "ed": 1059,
      "رير": 1060,
      "▁s": 1061,
      "ريقة": 1062,
      "قاء": 1063,
      "جن": 1064,
      "ريب": 1065,
      "روط": 1066,
      "ّة": 1067,
      "دمات": 1068,
      "قتصاد": 1069,
      "مان": 1070,
      "وح": 1071,
      "▁فيه": 1072,
      "عادة": 1073,
      "▁نت": 1074,
      "مار": 1075,
      "▁الوا": 1076,
      "▁بك": 1077,
      "▁الجز": 1078,
      "ربع": 1079,
      "لكة": 1080,
      "راف": 1081,
      "is": 1082,
      "▁فقط": 1083,
      "▁c": 1084,
      "▁اللا": 1085,
      "باب": 1086,
      "▁الذين": 1087,
      "▁G": 1088,
      "▁ري": 1089,
      "واصل": 1090,
      "انب": 1091,
      "بيق": 1092,
      "▁وهي": 1093,
      "هما": 1094,
      "▁بع": 1095,
      "▁يست": 1096,
      "يين": 1097,
      "▁للا": 1098,
      "▁لع": 1099,
      "شت": 1100,
      "امعة": 1101,
      "▁مجلس": 1102,
      "▁أد": 1103,
      "▁تكون": 1104,
      "▁والع": 1105,
      "▁كبير": 1106,
      "▁ود": 1107,
      "▁حد": 1108,
      "as": 1109,
      "▁الرئيسية": 1110,
      "▁السي": 1111,
      "ورد": 1112,
      "▁لج": 1113,
      "فاق": 1114,
      "▁الأخ": 1115,
      "ابع": 1116,
      "وظ": 1117,
      "ليات": 1118,
      "▁أخرى": 1119,
      "▁فر": 1120,
      "▁للح": 1121,
      "غط": 1122,
      "اق": 1123,
      "اقة": 1124,
      "▁إلي": 1125,
      "▁جم": 1126,
      "ياة": 1127,
      "▁الاجتما": 1128,
      "نين": 1129,
      "▁استخدام": 1130,
      "▁قائ": 1131,
      "باح": 1132,
      "▁شي": 1133,
      "انيا": 1134,
      "▁ذات": 1135,
      "▁عليها": 1136,
      "لاف": 1137,
      "▁بس": 1138,
      "▁اعت": 1139,
      "▁منها": 1140,
      "▁ترك": 1141,
      "أة": 1142,
      "غم": 1143,
      "اث": 1144,
      "طفال": 1145,
      "▁شخص": 1146,
      "كثر": 1147,
      "ائر": 1148,
      "وه": 1149,
      "▁ور": 1150,
      "قيقة": 1151,
      "ضر": 1152,
      "نامج": 1153,
      "▁العامة": 1154,
      "▁جديدة": 1155,
      "غي": 1156,
      "هاز": 1157,
      "▁وخ": 1158,
      "▁والإ": 1159,
      "▁بالإ": 1160,
      "▁الرياض": 1161,
      "ميم": 1162,
      "▁m": 1163,
      "▁يجب": 1164,
      "le": 1165,
      "▁عل": 1166,
      "لع": 1167,
      "▁إلا": 1168,
      "داول": 1169,
      "ارك": 1170,
      "▁او": 1171,
      "▁الأمري": 1172,
      "ميز": 1173,
      "شي": 1174,
      "▁والح": 1175,
      "برا": 1176,
      "▁صح": 1177,
      "▁تلك": 1178,
      "ئي": 1179,
      "▁مجموعة": 1180,
      "كو": 1181,
      "ذكر": 1182,
      "▁التعدين": 1183,
      "ابق": 1184,
      "علم": 1185,
      "▁را": 1186,
      "▁وزير": 1187,
      "▁B": 1188,
      "باد": 1189,
      "▁وزارة": 1190,
      "▁مختلف": 1191,
      "▁بسبب": 1192,
      "▁الاحت": 1193,
      "لد": 1194,
      "ظيم": 1195,
      "غيرة": 1196,
      "غة": 1197,
      "ac": 1198,
      "▁مر": 1199,
      "لاً": 1200,
      "▁العديد": 1201,
      "مارات": 1202,
      "ing": 1203,
      "▁ارت": 1204,
      "▁بق": 1205,
      "▁وأن": 1206,
      "ئية": 1207,
      "زمة": 1208,
      "زم": 1209,
      "طار": 1210,
      "ؤول": 1211,
      "ادة": 1212,
      "▁تست": 1213,
      "يام": 1214,
      "ياء": 1215,
      "ظهر": 1216,
      "كري": 1217,
      "وقف": 1218,
      "ناعة": 1219,
      "عداد": 1220,
      "▁المه": 1221,
      "باراة": 1222,
      "▁احت": 1223,
      "▁داخل": 1224,
      "▁أمام": 1225,
      "▁نق": 1226,
      "▁الحكومة": 1227,
      "▁وط": 1228,
      "▁رس": 1229,
      "ديو": 1230,
      "▁يش": 1231,
      "▁الخاصة": 1232,
      "ضاء": 1233,
      "▁وقت": 1234,
      "▁جد": 1235,
      "ياه": 1236,
      "اذ": 1237,
      "نان": 1238,
      "▁والد": 1239,
      "▁الوقت": 1240,
      "زيز": 1241,
      "راك": 1242,
      "هور": 1243,
      "ساعد": 1244,
      "re": 1245,
      "ينية": 1246,
      "وضوع": 1247,
      "▁وص": 1248,
      "▁الصح": 1249,
      "ظمة": 1250,
      "▁مدينة": 1251,
      "خب": 1252,
      "▁أيض": 1253,
      "مس": 1254,
      "تمع": 1255,
      "رى": 1256,
      "رنت": 1257,
      "▁طريق": 1258,
      "▁الثلاث": 1259,
      "زب": 1260,
      "▁الحديد": 1261,
      "▁كبيرة": 1262,
      "ro": 1263,
      "▁اح": 1264,
      "▁حجر": 1265,
      "ضة": 1266,
      "▁سيا": 1267,
      "لاج": 1268,
      "ad": 1269,
      "▁الخط": 1270,
      "▁مك": 1271,
      "▁جديد": 1272,
      "el": 1273,
      "▁الأمن": 1274,
      "▁أجل": 1275,
      "am": 1276,
      "▁الماضي": 1277,
      "▁الكثير": 1278,
      "▁التق": 1279,
      "جيل": 1280,
      "وفر": 1281,
      "افظة": 1282,
      "▁D": 1283,
      "▁مما": 1284,
      "▁التط": 1285,
      "ستخدام": 1286,
      "كتور": 1287,
      "▁الشركة": 1288,
      "▁التص": 1289,
      "لام": 1290,
      "▁الآن": 1291,
      "واع": 1292,
      "خذ": 1293,
      "▁أهم": 1294,
      "زام": 1295,
      "يري": 1296,
      "ابعة": 1297,
      "▁المخ": 1298,
      "▁H": 1299,
      "▁نوع": 1300,
      "ويل": 1301,
      "us": 1302,
      "وريا": 1303,
      "▁ضد": 1304,
      "▁مليون": 1305,
      "طلاق": 1306,
      "▁خاصة": 1307,
      "▁لد": 1308,
      "احة": 1309,
      "▁بما": 1310,
      "▁F": 1311,
      "هة": 1312,
      "▁برنامج": 1313,
      "بدأ": 1314,
      "▁الشي": 1315,
      "▁[": 1316,
      "ريف": 1317,
      "▁R": 1318,
      "جي": 1319,
      "▁لدي": 1320,
      "▁عندما": 1321,
      "ضم": 1322,
      "he": 1323,
      "▁الدولة": 1324,
      "▁يُ": 1325,
      "بير": 1326,
      "▁اخت": 1327,
      "ورونا": 1328,
      "▁حل": 1329,
      "يار": 1330,
      "▁الأولى": 1331,
      "il": 1332,
      "روس": 1333,
      "▁الفت": 1334,
      "▁الخارج": 1335,
      "حات": 1336,
      "نى": 1337,
      "▁الثاني": 1338,
      "▁الولا": 1339,
      "رام": 1340,
      "كتب": 1341,
      "اعدة": 1342,
      "▁أث": 1343,
      "فيذ": 1344,
      "احونة": 1345,
      "▁الفلسط": 1346,
      "▁المملكة": 1347,
      "قال": 1348,
      "قبل": 1349,
      "▁ليس": 1350,
      "لكتر": 1351,
      "▁L": 1352,
      "طات": 1353,
      "▁العراق": 1354,
      "▁الفحم": 1355,
      "سرائيل": 1356,
      "▁حالة": 1357,
      "▁بج": 1358,
      "بلغ": 1359,
      "▁دولار": 1360,
      "▁وأضاف": 1361,
      "▁والا": 1362,
      "▁صف": 1363,
      "▁القط": 1364,
      "الد": 1365,
      "ادي": 1366,
      "▁الجن": 1367,
      "سبوع": 1368,
      "داء": 1369,
      "▁النف": 1370,
      "راسة": 1371,
      "عاون": 1372,
      "هرب": 1373,
      "قاط": 1374,
      "جهة": 1375,
      "وجد": 1376,
      "▁فيما": 1377,
      "▁حال": 1378,
      "بق": 1379,
      "علن": 1380,
      "ابل": 1381,
      "▁فقد": 1382,
      "▁ثلاث": 1383,
      "روف": 1384,
      "الث": 1385,
      "▁E": 1386,
      "▁أنها": 1387,
      "▁السعر": 1388,
      "ريقيا": 1389,
      "ائق": 1390,
      "▁بيع": 1391,
      "▁والس": 1392,
      "ائي": 1393,
      "رها": 1394,
      "▁مل": 1395,
      "▁الإنس": 1396,
      "الف": 1397,
      "راد": 1398,
      "▁عدم": 1399,
      "طل": 1400,
      "▁الإسلام": 1401,
      "ربة": 1402,
      "ab": 1403,
      "وبي": 1404,
      "وبة": 1405,
      "▁»": 1406,
      "▁الأن": 1407,
      "▁الشر": 1408,
      "▁h": 1409,
      "نيع": 1410,
      "▁جنوب": 1411,
      "▁واحد": 1412,
      "▁نها": 1413,
      "▁I": 1414,
      "▁المسل": 1415,
      "كرة": 1416,
      "ion": 1417,
      "وبر": 1418,
      "▁بالن": 1419,
      "ولي": 1420,
      "ونية": 1421,
      "▁)": 1422,
      "▁منطقة": 1423,
      "▁الوطني": 1424,
      "اهد": 1425,
      "اعات": 1426,
      "▁فريق": 1427,
      "وسط": 1428,
      "▁دائ": 1429,
      "▁يمكنك": 1430,
      "▁دور": 1431,
      "▁نظام": 1432,
      "▁الاس": 1433,
      "ميل": 1434,
      "جهزة": 1435,
      "طق": 1436,
      "▁هل": 1437,
      "ولوج": 1438,
      "خي": 1439,
      "▁الجديد": 1440,
      "▁مو": 1441,
      "▁ضمن": 1442,
      "▁نظ": 1443,
      "همة": 1444,
      "انا": 1445,
      "اعت": 1446,
      "▁واست": 1447,
      "▁كسارات": 1448,
      "زا": 1449,
      "ــــ": 1450,
      "▁طاحونة": 1451,
      "▁التد": 1452,
      "▁بوا": 1453,
      "▁العربي": 1454,
      "▁مشروع": 1455,
      "وما": 1456,
      "▁ألف": 1457,
      "▁أغ": 1458,
      "▁الدولي": 1459,
      "ابت": 1460,
      "▁مبا": 1461,
      "▁وما": 1462,
      "عيد": 1463,
      "▁البر": 1464,
      "▁بص": 1465,
      "▁ولي": 1466,
      "▁نشر": 1467,
      "صال": 1468,
      "▁التعليم": 1469,
      "يلي": 1470,
      "▁الحصول": 1471,
      "▁الاتحاد": 1472,
      "ئا": 1473,
      "▁نج": 1474,
      "احن": 1475,
      "ساء": 1476,
      "▁الرس": 1477,
      "باء": 1478,
      "اك": 1479,
      "ثنين": 1480,
      "▁مدير": 1481,
      "املة": 1482,
      "▁الأمر": 1483,
      "▁لش": 1484,
      ")،": 1485,
      "▁المو": 1486,
      "اهرة": 1487,
      "▁الصف": 1488,
      "وء": 1489,
      "▁عرض": 1490,
      "▁العل": 1491,
      "▁الأش": 1492,
      "انع": 1493,
      "▁مم": 1494,
      "راً": 1495,
      "▁شركات": 1496,
      "▁المصري": 1497,
      "دية": 1498,
      "▁المنطقة": 1499,
      "▁قام": 1500,
      "سين": 1501,
      "▁وكان": 1502,
      "▁المعل": 1503,
      "▁رم": 1504,
      "▁نحو": 1505,
      "▁الجديدة": 1506,
      "قلة": 1507,
      "اية": 1508,
      "▁عالية": 1509,
      "▁الشعب": 1510,
      "غل": 1511,
      "ختي": 1512,
      "▁كنت": 1513,
      "اتف": 1514,
      "▁الملك": 1515,
      "▁لو": 1516,
      "▁الخاص": 1517,
      "▁أق": 1518,
      "▁شهر": 1519,
      "▁الدكتور": 1520,
      "جاج": 1521,
      "▁جز": 1522,
      "▁اليمن": 1523,
      "▁تخ": 1524,
      "▁يحت": 1525,
      "▁للع": 1526,
      "▁العق": 1527,
      "يق": 1528,
      "▁وجود": 1529,
      "سن": 1530,
      "▁مركز": 1531,
      "جمع": 1532,
      "ريم": 1533,
      "▁الأح": 1534,
      "▁مض": 1535,
      "▁للش": 1536,
      "رعة": 1537,
      "▁مخروط": 1538,
      "فاء": 1539,
      "▁واحدة": 1540,
      "حل": 1541,
      "ميس": 1542,
      "بحث": 1543,
      "▁أكبر": 1544,
      ").": 1545,
      "▁الرو": 1546,
      "▁ويت": 1547,
      "▁كم": 1548,
      "ريط": 1549,
      "واب": 1550,
      "▁والن": 1551,
      "▁أما": 1552,
      "▁b": 1553,
      "ناول": 1554,
      "رص": 1555,
      "▁فع": 1556,
      "▁تاريخ": 1557,
      "▁f": 1558,
      "▁كورونا": 1559,
      "▁إدارة": 1560,
      "▁الساعة": 1561,
      "طي": 1562,
      "وروب": 1563,
      "اصيل": 1564,
      "▁الشخص": 1565,
      "شاء": 1566,
      "▁أيضا": 1567,
      "▁والش": 1568,
      "اخ": 1569,
      "▁وضع": 1570,
      "▁عبدال": 1571,
      "▁“": 1572,
      "▁الولايات": 1573,
      "▁للإ": 1574,
      "▁در": 1575,
      "▁#": 1576,
      "▁تستخدم": 1577,
      "▁يؤ": 1578,
      "داد": 1579,
      "▁الكت": 1580,
      "▁الإمارات": 1581,
      "▁الأمير": 1582,
      "▁حين": 1583,
      "▁اي": 1584,
      "▁N": 1585,
      "▁حم": 1586,
      "يرا": 1587,
      "▁منه": 1588,
      "جراءات": 1589,
      "▁أحمد": 1590,
      "▁الناس": 1591,
      "▁والص": 1592,
      "▁المزيد": 1593,
      "صابة": 1594,
      "طلب": 1595,
      "▁لما": 1596,
      "▁تك": 1597,
      "▁التش": 1598,
      "رين": 1599,
      "ot": 1600,
      "▁مستوى": 1601,
      "▁الترك": 1602,
      "تين": 1603,
      "▁البحث": 1604,
      "▁لس": 1605,
      "اي": 1606,
      "▁الاقتصاد": 1607,
      "▁ني": 1608,
      "خاص": 1609,
      "خول": 1610,
      "▁صور": 1611,
      "▁اس": 1612,
      "▁الأحد": 1613,
      "ماية": 1614,
      "▁البن": 1615,
      "غيل": 1616,
      "▁الشركات": 1617,
      "▁الكس": 1618,
      "▁ومع": 1619,
      "▁القانون": 1620,
      "▁لق": 1621,
      "▁المحم": 1622,
      "▁المركز": 1623,
      "كين": 1624,
      "▁الحد": 1625,
      "▁مساء": 1626,
      "▁مه": 1627,
      "▁وغير": 1628,
      "▁التس": 1629,
      "▁W": 1630,
      "▁مف": 1631,
      "بكة": 1632,
      "▁d": 1633,
      "▁النظام": 1634,
      "اته": 1635,
      "سكر": 1636,
      "اش": 1637,
      "▁مرة": 1638,
      "سلة": 1639,
      "▁طن": 1640,
      "▁تطبيق": 1641,
      "▁الخام": 1642,
      "▁الشيخ": 1643,
      "▁·": 1644,
      "▁الإلكتر": 1645,
      "ابقة": 1646,
      "وجه": 1647,
      "▁اللي": 1648,
      "ol": 1649,
      "▁المواطن": 1650,
      "▁الحر": 1651,
      "▁السود": 1652,
      "▁فه": 1653,
      "كار": 1654,
      "▁وتح": 1655,
      "▁الفريق": 1656,
      "هداف": 1657,
      "اركة": 1658,
      "كات": 1659,
      "▁أسعار": 1660,
      "▁كيفية": 1661,
      "▁سيت": 1662,
      "جار": 1663,
      "ag": 1664,
      "ناة": 1665,
      "▁يس": 1666,
      "عتبر": 1667,
      "▁رقم": 1668,
      "▁سنوات": 1669,
      "▁قر": 1670,
      "رحلة": 1671,
      "▁خص": 1672,
      "صح": 1673,
      "▁الخميس": 1674,
      "▁وان": 1675,
      "▁البلد": 1676,
      "▁مجال": 1677,
      "▁لدى": 1678,
      "▁العالمية": 1679,
      "▁تل": 1680,
      "▁والذي": 1681,
      "▁أكد": 1682,
      "▁وهذا": 1683,
      "وضح": 1684,
      "▁الطبي": 1685,
      "and": 1686,
      "ياد": 1687,
      "▁لكل": 1688,
      "خور": 1689,
      "▁الوطنية": 1690,
      "ستر": 1691,
      "▁أخبار": 1692,
      "ويات": 1693,
      "ارد": 1694,
      "▁بالأ": 1695,
      "ضي": 1696,
      "▁التف": 1697,
      "ختيار": 1698,
      "▁تقدم": 1699,
      "وفير": 1700,
      "▁ولم": 1701,
      "غيير": 1702,
      "جب": 1703,
      "ائف": 1704,
      "▁مي": 1705,
      "فير": 1706,
      "▁ته": 1707,
      "▁رائ": 1708,
      "▁ها": 1709,
      "كلفة": 1710,
      "▁نقل": 1711,
      "يمة": 1712,
      "▁بالإضافة": 1713,
      "▁الإن": 1714,
      "ائج": 1715,
      "▁كافة": 1716,
      "▁سنة": 1717,
      "▁الإعلام": 1718,
      "▁الأربع": 1719,
      "▁الثلاثاء": 1720,
      "▁مكان": 1721,
      "▁إنتاج": 1722,
      "▁الأمريكية": 1723,
      "ساس": 1724,
      "اير": 1725,
      "▁تب": 1726,
      "▁لبن": 1727,
      "بيل": 1728,
      "ضية": 1729,
      "ومية": 1730,
      "▁متن": 1731,
      "خابات": 1732,
      "ولات": 1733,
      "سيق": 1734,
      "▁اب": 1735,
      "اشة": 1736,
      "▁نف": 1737,
      "▁حك": 1738,
      "زال": 1739,
      "▁التأ": 1740,
      "▁سوف": 1741,
      "رش": 1742,
      "واد": 1743,
      "علان": 1744,
      "▁الدولية": 1745,
      "▁الجمعة": 1746,
      "جان": 1747,
      "خة": 1748,
      "فظ": 1749,
      "أت": 1750,
      "--": 1751,
      "ومي": 1752,
      "سلم": 1753,
      "راتيج": 1754,
      "ec": 1755,
      "تمر": 1756,
      "▁الخارجية": 1757,
      "▁العد": 1758,
      "▁حساب": 1759,
      "رم": 1760,
      "ent": 1761,
      "▁الشرق": 1762,
      "▁آلات": 1763,
      "id": 1764,
      "جنة": 1765,
      "▁المالية": 1766,
      "▁w": 1767,
      "▁وفق": 1768,
      "داية": 1769,
      "ئب": 1770,
      "حوق": 1771,
      "▁والف": 1772,
      "الى": 1773,
      "▁الصحة": 1774,
      "▁دولة": 1775,
      "▁الصنا": 1776,
      "ضمن": 1777,
      "▁O": 1778,
      "▁معل": 1779,
      "▁بناء": 1780,
      "▁الحياة": 1781,
      "ارب": 1782,
      "افي": 1783,
      "▁تقديم": 1784,
      "كنولوج": 1785,
      "▁كثير": 1786,
      "▁اسم": 1787,
      "▁وتع": 1788,
      "▁للد": 1789,
      "▁يص": 1790,
      "▁عالم": 1791,
      "ياب": 1792,
      "الجة": 1793,
      "▁صغيرة": 1794,
      "▁تصنيع": 1795,
      "▁طريقة": 1796,
      "نيه": 1797,
      "ريل": 1798,
      "ديل": 1799,
      "▁السابق": 1800,
      "سسة": 1801,
      "▁وعلى": 1802,
      "▁القد": 1803,
      "▁مث": 1804,
      "ماد": 1805,
      "جا": 1806,
      "تح": 1807,
      "نف": 1808,
      "خصص": 1809,
      "▁المحت": 1810,
      "▁الثق": 1811,
      "رع": 1812,
      "▁البلاد": 1813,
      "▁التواصل": 1814,
      "▁الأرض": 1815,
      "صار": 1816,
      "▁الإنت": 1817,
      "▁الثالث": 1818,
      "▁الحل": 1819,
      "▁مز": 1820,
      "▁المصرية": 1821,
      "واق": 1822,
      "▁البط": 1823,
      "ظيف": 1824,
      "▁قائمة": 1825,
      "هود": 1826,
      "▁المجتمع": 1827,
      "▁والق": 1828,
      "كتوبر": 1829,
      "عضاء": 1830,
      "لاقة": 1831,
      "▁السن": 1832,
      "▁تحميل": 1833,
      "▁محطة": 1834,
      "▁صحيفة": 1835,
      "▁>": 1836,
      "طيع": 1837,
      "▁صناعة": 1838,
      "▁الداخل": 1839,
      "▁الموقع": 1840,
      "▁عدة": 1841,
      "▁المواد": 1842,
      "▁جانب": 1843,
      "حص": 1844,
      "▁صنع": 1845,
      "وتر": 1846,
      "▁سوريا": 1847,
      "▁التى": 1848,
      "ونيو": 1849,
      "▁عشر": 1850,
      "المي": 1851,
      "ضور": 1852,
      "▁المجلس": 1853,
      "مام": 1854,
      "علق": 1855,
      "of": 1856,
      "▁جاء": 1857,
      "تيجة": 1858,
      "▁والخ": 1859,
      "▁نس": 1860,
      "▁شيء": 1861,
      "▁تحقيق": 1862,
      "▁الشع": 1863,
      "▁السبت": 1864,
      "صور": 1865,
      "▁الأربعاء": 1866,
      "ستان": 1867,
      "عرض": 1868,
      "لمان": 1869,
      "ow": 1870,
      "▁يا": 1871,
      "ندق": 1872,
      "▁ساعة": 1873,
      "▁الأعمال": 1874,
      "رط": 1875,
      "oo": 1876,
      "هات": 1877,
      "▁الإنسان": 1878,
      "▁عق": 1879,
      "لاقات": 1880,
      "▁؟": 1881,
      "راب": 1882,
      "▁لهم": 1883,
      "▁نش": 1884,
      "▁لص": 1885,
      "اصمة": 1886,
      "▁طلب": 1887,
      "▁أثناء": 1888,
      "▁الفرن": 1889,
      "نب": 1890,
      "▁جدا": 1891,
      "عام": 1892,
      "▁أمس": 1893,
      "قرار": 1894,
      "st": 1895,
      "▁بلا": 1896,
      "▁بكل": 1897,
      "▁ار": 1898,
      "▁تصميم": 1899,
      "طلق": 1900,
      "▁المعلومات": 1901,
      "الأ": 1902,
      "▁وجه": 1903,
      "كلة": 1904,
      "هتم": 1905,
      "امب": 1906,
      "ثة": 1907,
      "▁تعلي": 1908,
      "▁الأع": 1909,
      "▁لتح": 1910,
      "رز": 1911,
      "▁لذلك": 1912,
      "ونس": 1913,
      "صى": 1914,
      "هن": 1915,
      "▁قرار": 1916,
      "▁الظ": 1917,
      "▁المدينة": 1918,
      "▁السعودي": 1919,
      "▁زي": 1920,
      "والي": 1921,
      "▁قدم": 1922,
      "▁أفريقيا": 1923,
      "▁الوزراء": 1924,
      "كمة": 1925,
      "▁مباراة": 1926,
      "▁الأخرى": 1927,
      "▁تُ": 1928,
      "com": 1929,
      "▁تأثير": 1930,
      "ذية": 1931,
      "سسات": 1932,
      "عبة": 1933,
      "▁الشباب": 1934,
      "امي": 1935,
      "▁إذ": 1936,
      "▁عمر": 1937,
      "▁حسب": 1938,
      "▁العرب": 1939,
      "جاز": 1940,
      "▁لاع": 1941,
      "▁أنواع": 1942,
      "▁توا": 1943,
      "▁صباح": 1944,
      "▁النفط": 1945,
      "تك": 1946,
      "▁السوق": 1947,
      "افية": 1948,
      "▁جامعة": 1949,
      "ur": 1950,
      "▁وعد": 1951,
      "▁ذكر": 1952,
      "▁الأد": 1953,
      "▁محا": 1954,
      "كيل": 1955,
      "ay": 1956,
      "روض": 1957,
      "▁بيان": 1958,
      "▁مب": 1959,
      "▁رح": 1960,
      "ريدة": 1961,
      "▁بو": 1962,
      "▁نص": 1963,
      "ادات": 1964,
      "خرج": 1965,
      "▁الثانية": 1966,
      "شل": 1967,
      "▁اخبار": 1968,
      "▁أعمال": 1969,
      "▁الاجتماعي": 1970,
      "▁عب": 1971,
      "▁الأخيرة": 1972,
      "▁تعمل": 1973,
      "سان": 1974,
      "▁سم": 1975,
      "▁أيام": 1976,
      "خف": 1977,
      "اجة": 1978,
      "زية": 1979,
      "▁مرت": 1980,
      "▁عد": 1981,
      "▁خدمة": 1982,
      "».": 1983,
      "ارع": 1984,
      "جال": 1985,
      "▁وإن": 1986,
      "يسي": 1987,
      "باط": 1988,
      "▁l": 1989,
      "▁أبو": 1990,
      "▁أج": 1991,
      "▁لبنان": 1992,
      "قول": 1993,
      "▁قص": 1994,
      "▁الصخور": 1995,
      "هاب": 1996,
      "▁تعدين": 1997,
      "▁الكويت": 1998,
      "اهر": 1999,
      "▁خارج": 2000,
      "▁القاد": 2001,
      "▁السوري": 2002,
      "▁أيضًا": 2003,
      "▁تقوم": 2004,
      "تمد": 2005,
      "▁يف": 2006,
      "▁السلام": 2007,
      "▁الطاقة": 2008,
      "شن": 2009,
      "جلي": 2010,
      "اتب": 2011,
      "▁جهاز": 2012,
      "▁in": 2013,
      "راءة": 2014,
      "▁قطع": 2015,
      "ِّ": 2016,
      "▁القدم": 2017,
      "سباب": 2018,
      "▁الهي": 2019,
      "▁القاهرة": 2020,
      "▁الدين": 2021,
      "▁دعم": 2022,
      "▁قانون": 2023,
      "▁عقد": 2024,
      "▁منا": 2025,
      "مرار": 2026,
      "▁جيد": 2027,
      "ثمار": 2028,
      "▁الكهرب": 2029,
      "▁هد": 2030,
      "ia": 2031,
      "▁لط": 2032,
      "ئات": 2033,
      "▁نهاية": 2034,
      "افت": 2035,
      "▁المعدات": 2036,
      "▁سلسلة": 2037,
      "هير": 2038,
      "ساسية": 2039,
      "ورات": 2040,
      "يدة": 2041,
      "راع": 2042,
      "هورية": 2043,
      "▁مسحوق": 2044,
      "▁مغ": 2045,
      "▁دبي": 2046,
      "▁يقوم": 2047,
      "▁إنه": 2048,
      "▁الحديث": 2049,
      "▁الجيش": 2050,
      "▁الفي": 2051,
      "بس": 2052,
      "تهم": 2053,
      "▁g": 2054,
      "ضان": 2055,
      "▁الفترة": 2056,
      "▁تؤ": 2057,
      "▁انه": 2058,
      "أتي": 2059,
      "▁ويم": 2060,
      "▁بغ": 2061,
      "▁بار": 2062,
      "علنت": 2063,
      "▁الأطفال": 2064,
      "غب": 2065,
      "تل": 2066,
      "▁معد": 2067,
      "ديات": 2068,
      "▁المف": 2069,
      "▁وأكد": 2070,
      "!!": 2071,
      "اليا": 2072,
      "سكرية": 2073,
      "▁بشأن": 2074,
      "▁سع": 2075,
      "▁إد": 2076,
      "وضع": 2077,
      "ch": 2078,
      "▁للج": 2079,
      "مبر": 2080,
      "▁ارتفاع": 2081,
      "اريع": 2082,
      "سمية": 2083,
      "فاظ": 2084,
      "▁أخ": 2085,
      "▁اجتما": 2086,
      "▁قوات": 2087,
      "▁فلسط": 2088,
      "▁نفسه": 2089,
      "▁الفلسطيني": 2090,
      "▁رؤ": 2091,
      "شرين": 2092,
      "▁يعمل": 2093,
      "اند": 2094,
      "▁المال": 2095,
      "▁فض": 2096,
      "▁إضافة": 2097,
      "▁تركيا": 2098,
      "▁واض": 2099,
      "كنولوجيا": 2100,
      "▁كتاب": 2101,
      "بيب": 2102,
      "اكل": 2103,
      "▁فترة": 2104,
      "▁مختلفة": 2105,
      "▁للس": 2106,
      "▁شع": 2107,
      "روج": 2108,
      "▁مسل": 2109,
      "▁الدم": 2110,
      "▁لمدة": 2111,
      "▁زيادة": 2112,
      "▁علم": 2113,
      "▁قطاع": 2114,
      "ريح": 2115,
      "▁بينما": 2116,
      "وغ": 2117,
      "▁حجم": 2118,
      "جاه": 2119,
      "▁بالنسبة": 2120,
      "▁للغ": 2121,
      "ew": 2122,
      "▁لمن": 2123,
      "▁وظ": 2124,
      "واج": 2125,
      "َل": 2126,
      "▁للف": 2127,
      "وفمبر": 2128,
      "▁تعت": 2129,
      "ناصر": 2130,
      "▁خاص": 2131,
      "▁أنّ": 2132,
      "▁زوج": 2133,
      "▁عض": 2134,
      "▁بدون": 2135,
      "حب": 2136,
      "▁وتم": 2137,
      "▁الإنترنت": 2138,
      "▁شراء": 2139,
      "▁بيت": 2140,
      "اتها": 2141,
      "▁مقابل": 2142,
      "▁السياسية": 2143,
      "▁أكتوبر": 2144,
      "ذهب": 2145,
      "▁عنه": 2146,
      "▁المصن": 2147,
      "▁مسؤول": 2148,
      "▁للن": 2149,
      "▁وسط": 2150,
      "▁اللاعب": 2151,
      "▁وض": 2152,
      "▁التاريخ": 2153,
      "زين": 2154,
      "▁المقبل": 2155,
      "▁الدفاع": 2156,
      "▁الخلي": 2157,
      "كسير": 2158,
      "▁للق": 2159,
      "تمبر": 2160,
      "▁الاعت": 2161,
      "احب": 2162,
      "اهدة": 2163,
      "قامة": 2164,
      "▁الإرها": 2165,
      "كال": 2166,
      "▁باسم": 2167,
      "▁بالع": 2168,
      "▁الموج": 2169,
      "▁الصحي": 2170,
      "صب": 2171,
      "▁مواقع": 2172,
      "▁U": 2173,
      "▁النها": 2174,
      "....": 2175,
      "حين": 2176,
      "▁يناير": 2177,
      "▁الشم": 2178,
      "▁للط": 2179,
      "▁لف": 2180,
      "ائد": 2181,
      "▁والج": 2182,
      "▁العلم": 2183,
      "برز": 2184,
      "▁وكذلك": 2185,
      "دق": 2186,
      "عرف": 2187,
      "▁القر": 2188,
      "▁السيد": 2189,
      "▁الداخلية": 2190,
      "اما": 2191,
      "هار": 2192,
      "هلي": 2193,
      "ماع": 2194,
      "تز": 2195,
      "▁مارس": 2196,
      "سمبر": 2197,
      "ri": 2198,
      "▁تغ": 2199,
      "▁وث": 2200,
      "▁مليار": 2201,
      "▁محم": 2202,
      "▁وبعد": 2203,
      "▁اللجنة": 2204,
      "▁المشت": 2205,
      "هاد": 2206,
      "▁نيوز": 2207,
      "▁يقول": 2208,
      "▁المياه": 2209,
      "وليو": 2210,
      "un": 2211,
      "▁يوجد": 2212,
      "▁الحق": 2213,
      "▁الأرد": 2214,
      "▁سواء": 2215,
      "▁a": 2216,
      "▁الصحية": 2217,
      "ذج": 2218,
      "ندا": 2219,
      "▁مباشرة": 2220,
      "▁المغرب": 2221,
      "▁قدر": 2222,
      "em": 2223,
      "▁الخدمات": 2224,
      "مون": 2225,
      "▁جل": 2226,
      "لاك": 2227,
      "▁المنزل": 2228,
      "▁نتيجة": 2229,
      "▁الحي": 2230,
      "ضح": 2231,
      "▁الأط": 2232,
      "ادل": 2233,
      "▁الدوري": 2234,
      "ائرة": 2235,
      "ئاسة": 2236,
      "زن": 2237,
      "▁الرق": 2238,
      "▁اللبن": 2239,
      "▁شبكة": 2240,
      "قف": 2241,
      "▁الدرا": 2242,
      "▁حيات": 2243,
      "الك": 2244,
      "جوم": 2245,
      "▁لجنة": 2246,
      "▁نحن": 2247,
      "سيط": 2248,
      "▁the": 2249,
      "▁حديث": 2250,
      "عاية": 2251,
      "▁المل": 2252,
      "tp": 2253,
      "▁تقرير": 2254,
      "▁إعادة": 2255,
      "وروبا": 2256,
      "سرائيلي": 2257,
      "▁عمليات": 2258,
      "▁سوق": 2259,
      "شد": 2260,
      "▁موضوع": 2261,
      "▁رد": 2262,
      "»،": 2263,
      "▁تنفيذ": 2264,
      "حدى": 2265,
      "▁مرا": 2266,
      "▁شر": 2267,
      "قرا": 2268,
      "▁الفن": 2269,
      "▁التجارية": 2270,
      "▁أمري": 2271,
      "▁أيضاً": 2272,
      "ليف": 2273,
      "▁الغذ": 2274,
      "راجع": 2275,
      "يته": 2276,
      "ادن": 2277,
      "هاء": 2278,
      "جموع": 2279,
      "صلاح": 2280,
      "ذر": 2281,
      "▁السيارات": 2282,
      "▁المختلف": 2283,
      "▁المرأة": 2284,
      "▁جنيه": 2285,
      "▁الأف": 2286,
      "▁الأسعار": 2287,
      "حاب": 2288,
      "▁الموضوع": 2289,
      "بال": 2290,
      "▁بداية": 2291,
      "▁خدمات": 2292,
      "▁المث": 2293,
      "▁لنا": 2294,
      "▁تعرف": 2295,
      "ماً": 2296,
      "اجر": 2297,
      "ظة": 2298,
      "▁فل": 2299,
      "أي": 2300,
      "▁العالمي": 2301,
      "▁*": 2302,
      "تنا": 2303,
      "▁تو": 2304,
      "ub": 2305,
      "▁تنظيم": 2306,
      "قدمة": 2307,
      "شفى": 2308,
      "▁الشعر": 2309,
      "▁مُ": 2310,
      "ؤون": 2311,
      "جهيز": 2312,
      "▁لكم": 2313,
      "درسة": 2314,
      "▁نسبة": 2315,
      "قتصادي": 2316,
      "▁الرح": 2317,
      "▁تناول": 2318,
      "سطة": 2319,
      "▁J": 2320,
      "▁نوفمبر": 2321,
      "▁معلومات": 2322,
      "فيات": 2323,
      "ريع": 2324,
      "▁رب": 2325,
      "زيل": 2326,
      "▁لقد": 2327,
      "▁بالق": 2328,
      "قيم": 2329,
      "▁يونيو": 2330,
      "قديم": 2331,
      "▁حقوق": 2332,
      "▁وكانت": 2333,
      "▁والث": 2334,
      "▁ظل": 2335,
      "▁الحم": 2336,
      "▁مصادر": 2337,
      "جارة": 2338,
      "ساب": 2339,
      "▁الوطن": 2340,
      "▁روس": 2341,
      "▁بالف": 2342,
      "مك": 2343,
      "▁تطوير": 2344,
      "▁المرك": 2345,
      "يرات": 2346,
      "▁ملف": 2347,
      "▁ريال": 2348,
      "▁أل": 2349,
      "▁وصل": 2350,
      "▁فتح": 2351,
      "▁الجيري": 2352,
      "يجاب": 2353,
      "حاس": 2354,
      "▁الأسبوع": 2355,
      "▁دع": 2356,
      "بدو": 2357,
      "▁والاست": 2358,
      "▁ألم": 2359,
      "ليا": 2360,
      "▁بات": 2361,
      "امين": 2362,
      "قليم": 2363,
      "▁أمن": 2364,
      "▁المنتجات": 2365,
      "▁السياسي": 2366,
      "▁المختلفة": 2367,
      "نائية": 2368,
      "▁رأس": 2369,
      "▁V": 2370,
      "▁التعاون": 2371,
      "▁الآخر": 2372,
      "▁رمضان": 2373,
      "▁المورد": 2374,
      "▁الأمريكي": 2375,
      "خفض": 2376,
      "▁الأور": 2377,
      "▁المز": 2378,
      "▁وغ": 2379,
      "▁الحالي": 2380,
      "▁البرن": 2381,
      "لابس": 2382,
      "▁ثلاثة": 2383,
      "قتل": 2384,
      "صدار": 2385,
      "▁لهذا": 2386,
      "▁المواطنين": 2387,
      "هام": 2388,
      "ter": 2389,
      "▁فرن": 2390,
      "▁سبتمبر": 2391,
      "▁درجة": 2392,
      "▁تداول": 2393,
      "▁صورة": 2394,
      "الع": 2395,
      "بيض": 2396,
      "▁بف": 2397,
      "ثار": 2398,
      "▁بالح": 2399,
      "عليم": 2400,
      "▁إيران": 2401,
      "▁قطر": 2402,
      "سام": 2403,
      "▁تحديث": 2404,
      "قرأ": 2405,
      "▁كث": 2406,
      "▁ديسمبر": 2407,
      "▁of": 2408,
      "َن": 2409,
      "ice": 2410,
      "▁شكل": 2411,
      "▁البرنامج": 2412,
      "▁وسائل": 2413,
      "▁عليك": 2414,
      "خلص": 2415,
      "سكري": 2416,
      "ذة": 2417,
      "طاق": 2418,
      "براير": 2419,
      "▁تتم": 2420,
      "▁أشهر": 2421,
      "راضي": 2422,
      "▁يعد": 2423,
      "▁وكالة": 2424,
      "▁الاسمنت": 2425,
      "▁المناطق": 2426,
      "هيم": 2427,
      "▁وتن": 2428,
      "▁أمر": 2429,
      "▁البناء": 2430,
      "▁الار": 2431,
      "▁نادي": 2432,
      "▁الجهاز": 2433,
      "▁الاحتلال": 2434,
      "▁أنا": 2435,
      "جرة": 2436,
      "▁لب": 2437,
      "▁إطار": 2438,
      "▁موج": 2439,
      "▁الإس": 2440,
      "لاة": 2441,
      "يتها": 2442,
      "▁قناة": 2443,
      "▁عنها": 2444,
      "يارات": 2445,
      "▁نمو": 2446,
      "▁لان": 2447,
      "▁الصغيرة": 2448,
      "▁والط": 2449,
      "▁المشروع": 2450,
      "▁الشهر": 2451,
      "▁إسرائيل": 2452,
      "▁مايو": 2453,
      "ig": 2454,
      "▁أعلنت": 2455,
      "▁والب": 2456,
      "هتمام": 2457,
      "▁بلغ": 2458,
      "▁والك": 2459,
      "▁لخ": 2460,
      "▁الجسم": 2461,
      "im": 2462,
      "مع": 2463,
      "الج": 2464,
      "▁النبات": 2465,
      "▁الجزائر": 2466,
      "▁رغم": 2467,
      "حقق": 2468,
      "▁الخبر": 2469,
      "▁المحلية": 2470,
      "▁القطاع": 2471,
      "صفات": 2472,
      "▁وقالت": 2473,
      "▁وَ": 2474,
      "▁بب": 2475,
      "▁بواسطة": 2476,
      "▁ويمكن": 2477,
      "رفع": 2478,
      "▁المطر": 2479,
      "كبر": 2480,
      "▁باستخدام": 2481,
      "▁معالجة": 2482,
      "▁الخب": 2483,
      "▁تكلفة": 2484,
      "▁لعبة": 2485,
      "اول": 2486,
      "▁باست": 2487,
      "▁هيئة": 2488,
      "▁بنسبة": 2489,
      "وظف": 2490,
      "▁جعل": 2491,
      "لغ": 2492,
      "▁فن": 2493,
      "لائ": 2494,
      "▁الجما": 2495,
      "وين": 2496,
      "▁ابن": 2497,
      "▁تنت": 2498,
      "ياس": 2499,
      "▁زيارة": 2500,
      "▁المك": 2501,
      "▁حركة": 2502,
      "ir": 2503,
      "▁and": 2504,
      "▁لاست": 2505,
      "ine": 2506,
      "▁أقل": 2507,
      "وله": 2508,
      "▁الفور": 2509,
      "افحة": 2510,
      "▁سا": 2511,
      "▁المصنعة": 2512,
      "▁دم": 2513,
      "▁بالس": 2514,
      "▁المسؤول": 2515,
      "▁محافظة": 2516,
      "▁حزب": 2517,
      "ـ\"": 2518,
      "شطة": 2519,
      "▁بير": 2520,
      "▁ماك": 2521,
      "▁الفلسطينية": 2522,
      "▁المقا": 2523,
      "▁أعلى": 2524,
      "▁مصدر": 2525,
      "َا": 2526,
      "لعاب": 2527,
      "ut": 2528,
      "▁شهد": 2529,
      "ميزة": 2530,
      "▁يعني": 2531,
      "▁النق": 2532,
      "ِن": 2533,
      "▁اش": 2534,
      "▁كتب": 2535,
      "▁وين": 2536,
      "راتيجية": 2537,
      "ريبة": 2538,
      "▁فال": 2539,
      "▁فلا": 2540,
      "▁اختيار": 2541,
      "▁الاقتصادية": 2542,
      "▁تحديد": 2543,
      "سطس": 2544,
      "عيش": 2545,
      "ّل": 2546,
      "بيعية": 2547,
      "▁فوق": 2548,
      "ويلة": 2549,
      "لوب": 2550,
      "▁وتت": 2551,
      "▁الرائ": 2552,
      "▁كامل": 2553,
      "▁المباراة": 2554,
      "▁مبار": 2555,
      "فتح": 2556,
      "▁ضر": 2557,
      "▁أت": 2558,
      "ضيف": 2559,
      "▁يقدم": 2560,
      "▁اقت": 2561,
      "▁يك": 2562,
      "▁كون": 2563,
      "ردشة": 2564,
      "▁فأ": 2565,
      "▁البحر": 2566,
      "▁الأكثر": 2567,
      "▁الرمال": 2568,
      "طاء": 2569,
      "كيد": 2570,
      "بيقات": 2571,
      "يرية": 2572,
      "ورا": 2573,
      "▁وآ": 2574,
      "لبية": 2575,
      "▁الحرب": 2576,
      "▁منتجات": 2577,
      "▁نقطة": 2578,
      "▁تعرض": 2579,
      "ُم": 2580,
      "لاع": 2581,
      "جاح": 2582,
      "▁الإير": 2583,
      "طوير": 2584,
      "ore": 2585,
      "▁v": 2586,
      "▁بالك": 2587,
      "▁هم": 2588,
      "▁يعتبر": 2589,
      "بيوتر": 2590,
      "▁منهم": 2591,
      "▁وليس": 2592,
      "▁تعد": 2593,
      "▁واج": 2594,
      "▁دراسة": 2595,
      "▁الهيئة": 2596,
      "ّر": 2597,
      "▁الصور": 2598,
      "▁وتش": 2599,
      "▁الماضية": 2600,
      "راقي": 2601,
      "▁حي": 2602,
      "ناف": 2603,
      "ندوق": 2604,
      "ضايا": 2605,
      "اليات": 2606,
      "▁تمت": 2607,
      "▁ليست": 2608,
      "▁لاعب": 2609,
      "شرات": 2610,
      "▁العاصمة": 2611,
      "ؤال": 2612,
      "قبال": 2613,
      "وام": 2614,
      "▁٢": 2615,
      "هيل": 2616,
      "▁يوليو": 2617,
      "وبات": 2618,
      "▁وسي": 2619,
      "▁المشاركة": 2620,
      "iv": 2621,
      "▁الانترنت": 2622,
      "▁اكت": 2623,
      "▁الاثنين": 2624,
      "▁سير": 2625,
      "ذب": 2626,
      "▁وكل": 2627,
      "سيل": 2628,
      "▁يخ": 2629,
      "▁فبراير": 2630,
      "وائد": 2631,
      "ادية": 2632,
      "▁حسن": 2633,
      "فات": 2634,
      "سر": 2635,
      "▁K": 2636,
      "▁الماء": 2637,
      "▁ولاية": 2638,
      "▁قسم": 2639,
      "▁الألم": 2640,
      "ماس": 2641,
      "▁وحدة": 2642,
      "▁إليه": 2643,
      "ستخدمة": 2644,
      "▁بث": 2645,
      "▁خلف": 2646,
      "▁جزء": 2647,
      "▁كأس": 2648,
      "▁سيكون": 2649,
      "▁شعب": 2650,
      "▁إش": 2651,
      "ation": 2652,
      "▁تسجيل": 2653,
      "ul": 2654,
      "طب": 2655,
      "▁جما": 2656,
      "▁بان": 2657,
      "راكز": 2658,
      "▁اع": 2659,
      "▁ومت": 2660,
      "▁رفع": 2661,
      "ساسي": 2662,
      "▁وغيرها": 2663,
      "▁فيديو": 2664,
      "▁زيت": 2665,
      "her": 2666,
      "ديمقرا": 2667,
      "▁العملية": 2668,
      "▁صاحب": 2669,
      "طية": 2670,
      "شاركة": 2671,
      "▁ترامب": 2672,
      "▁منزل": 2673,
      "▁متر": 2674,
      "مح": 2675,
      "▁توفير": 2676,
      "▁القوات": 2677,
      "▁الإسلامية": 2678,
      "▁الصفحة": 2679,
      "ناك": 2680,
      "آن": 2681,
      "▁الوصول": 2682,
      "▁وات": 2683,
      "بقى": 2684,
      "▁الوزارة": 2685,
      "▁بخ": 2686,
      "ادت": 2687,
      "ادرة": 2688,
      "▁روسيا": 2689,
      "▁الرمل": 2690,
      "ائزة": 2691,
      "▁أهمية": 2692,
      "▁الجامعة": 2693,
      "▁بهدف": 2694,
      "▁الال": 2695,
      "ذك": 2696,
      "▁دقيقة": 2697,
      "▁المرت": 2698,
      "▁أوروبا": 2699,
      "▁Al": 2700,
      "شق": 2701,
      "▁طب": 2702,
      "ورت": 2703,
      "▁فهو": 2704,
      "ران": 2705,
      "▁الجنوب": 2706,
      "▁إطلاق": 2707,
      "وحة": 2708,
      "▁اد": 2709,
      "▁أط": 2710,
      "▁مناط": 2711,
      "▁أعلن": 2712,
      "ra": 2713,
      "ريمة": 2714,
      "▁الزرا": 2715,
      "▁للغاية": 2716,
      "▁هدف": 2717,
      "▁كذلك": 2718,
      "ائلة": 2719,
      "▁الجميع": 2720,
      "▁المعد": 2721,
      "▁مناطق": 2722,
      "▁بحث": 2723,
      "ريحات": 2724,
      "▁النحاس": 2725,
      "▁فلسطين": 2726,
      "▁علاج": 2727,
      "▁المرحلة": 2728,
      "قييم": 2729,
      "▁وبالت": 2730,
      "▁محافظ": 2731,
      "▁التداول": 2732,
      "ويد": 2733,
      "صي": 2734,
      "eb": 2735,
      "▁مطاحن": 2736,
      "▁السورية": 2737,
      "▁n": 2738,
      "قية": 2739,
      "▁شك": 2740,
      "▁نتائج": 2741,
      "وزيع": 2742,
      "ظاهر": 2743,
      "▁ليب": 2744,
      "روب": 2745,
      "▁اليد": 2746,
      "بيت": 2747,
      "op": 2748,
      "قام": 2749,
      "▁محت": 2750,
      "▁معظم": 2751,
      "ائدة": 2752,
      "▁شمال": 2753,
      "▁المستخدمة": 2754,
      "صبح": 2755,
      "ريك": 2756,
      "▁اتفاق": 2757,
      "▁موس": 2758,
      "▁الجام": 2759,
      "زات": 2760,
      "▁ينت": 2761,
      "▁القائ": 2762,
      "//": 2763,
      "▁الشرطة": 2764,
      "▁افضل": 2765,
      "▁بالد": 2766,
      "بادرة": 2767,
      "▁بمن": 2768,
      "▁المحمول": 2769,
      "▁صحي": 2770,
      "▁الكبير": 2771,
      "خصصة": 2772,
      "ِي": 2773,
      "▁يسم": 2774,
      "▁بالش": 2775,
      "اتي": 2776,
      "دت": 2777,
      "▁سيتم": 2778,
      "▁الكسارات": 2779,
      "قيلة": 2780,
      "▁افت": 2781,
      "لين": 2782,
      "برى": 2783,
      "وجيه": 2784,
      "اا": 2785,
      "▁الطفل": 2786,
      "عين": 2787,
      "▁ـ": 2788,
      "▁باب": 2789,
      "▁وأشار": 2790,
      "▁تفاصيل": 2791,
      "▁وأوضح": 2792,
      "▁الانتخابات": 2793,
      "▁الموسم": 2794,
      "▁غزة": 2795,
      "▁فيروس": 2796,
      "▁خل": 2797,
      "ونات": 2798,
      "▁المطرقة": 2799,
      "است": 2800,
      "▁صغير": 2801,
      "سعى": 2802,
      "▁داع": 2803,
      "▁الإنتاج": 2804,
      "وقيت": 2805,
      "ارنة": 2806,
      "▁طبي": 2807,
      "ريس": 2808,
      "مم": 2809,
      "▁الاجتماعية": 2810,
      "ادث": 2811,
      "▁الأمم": 2812,
      "ttp": 2813,
      "يانة": 2814,
      "يدر": 2815,
      "▁الطبية": 2816,
      "زالة": 2817,
      "وش": 2818,
      "▁بلد": 2819,
      "▁الأوروبي": 2820,
      "هرجان": 2821,
      "▁حصل": 2822,
      "▁وحد": 2823,
      "▁بنا": 2824,
      "تاح": 2825,
      "▁الإدارة": 2826,
      "▁حوالي": 2827,
      "دير": 2828,
      "صالات": 2829,
      "حتى": 2830,
      "▁١": 2831,
      "▁فعل": 2832,
      "حاء": 2833,
      "▁Y": 2834,
      "▁تصل": 2835,
      "▁أبريل": 2836,
      "ديا": 2837,
      "رقة": 2838,
      "ديق": 2839,
      "ريض": 2840,
      "امية": 2841,
      "▁أرض": 2842,
      "▁تعتبر": 2843,
      "▁المرا": 2844,
      "▁الأهلي": 2845,
      "qu": 2846,
      "▁قيمة": 2847,
      "▁اض": 2848,
      "▁سين": 2849,
      "▁الطب": 2850,
      "كوين": 2851,
      "جرد": 2852,
      "▁جهة": 2853,
      "تع": 2854,
      "▁البشر": 2855,
      "▁نائب": 2856,
      "فية": 2857,
      "بوب": 2858,
      "صاب": 2859,
      "ريات": 2860,
      "بلة": 2861,
      "▁الطريق": 2862,
      "▁كلمة": 2863,
      "▁لتن": 2864,
      "خاذ": 2865,
      "▁المصنع": 2866,
      "▁المنتخب": 2867,
      "▁لاح": 2868,
      "▁حكومة": 2869,
      "ww": 2870,
      "▁القرار": 2871,
      "▁الإلكتروني": 2872,
      "://": 2873,
      "▁يل": 2874,
      "▁المنتج": 2875,
      "غر": 2876,
      "▁يكن": 2877,
      "▁الاتصال": 2878,
      "▁للخ": 2879,
      "هولة": 2880,
      "▁تعليق": 2881,
      "▁للاست": 2882,
      "▁الخليج": 2883,
      "▁دين": 2884,
      "▁الطرق": 2885,
      "▁اشت": 2886,
      "▁الأق": 2887,
      "▁تحتاج": 2888,
      "▁الإد": 2889,
      "▁البريط": 2890,
      "ارق": 2891,
      "▁الأشخاص": 2892,
      "▁العمر": 2893,
      "فاة": 2894,
      "▁تغيير": 2895,
      "عو": 2896,
      "▁العلاقات": 2897,
      "يان": 2898,
      "ct": 2899,
      "▁الملف": 2900,
      "▁هاتف": 2901,
      "▁الهاتف": 2902,
      "جير": 2903,
      "منة": 2904,
      "▁السودان": 2905,
      "▁أغسطس": 2906,
      "هرة": 2907,
      "▁ماكينة": 2908,
      "▁برامج": 2909,
      "▁In": 2910,
      "ّا": 2911,
      "▁الإلكترونية": 2912,
      "▁وبين": 2913,
      "pp": 2914,
      "ليب": 2915,
      "▁القدس": 2916,
      "▁رفض": 2917,
      "▁نطاق": 2918,
      "▁الجمهورية": 2919,
      "جزاء": 2920,
      "ناق": 2921,
      "نيف": 2922,
      "▁الأوسط": 2923,
      "rus": 2924,
      "اطر": 2925,
      "▁التربية": 2926,
      "▁وسلم": 2927,
      "▁ظهر": 2928,
      "▁to": 2929,
      "فاوض": 2930,
      "▁الفيديو": 2931,
      "سيا": 2932,
      "▁حدث": 2933,
      "رر": 2934,
      "▁الرغم": 2935,
      "▁مشاهدة": 2936,
      "شاف": 2937,
      "▁القص": 2938,
      "▁تريد": 2939,
      "ستاذ": 2940,
      "▁المصدر": 2941,
      "▁المستخدم": 2942,
      "▁قالت": 2943,
      "▁تشغيل": 2944,
      "▁إحدى": 2945,
      "ثلة": 2946,
      "▁الرب": 2947,
      "رئيس": 2948,
      "خاب": 2949,
      "▁رياض": 2950,
      "▁الواقع": 2951,
      "▁الشاشة": 2952,
      "ّد": 2953,
      "ارض": 2954,
      "عملة": 2955,
      "▁الكب": 2956,
      "▁المرض": 2957,
      "قوم": 2958,
      "▁ملا": 2959,
      "ئلة": 2960,
      "▁ير": 2961,
      "بطال": 2962,
      "براهيم": 2963,
      "▁مباشر": 2964,
      "خيص": 2965,
      "جاب": 2966,
      "▁البد": 2967,
      "os": 2968,
      "▁البعض": 2969,
      "▁والمت": 2970,
      "▁الفني": 2971,
      "▁السب": 2972,
      "مدينة": 2973,
      "▁خطة": 2974,
      "▁الطعام": 2975,
      "▁التطبيق": 2976,
      "▁المُ": 2977,
      "قق": 2978,
      "ind": 2979,
      "▁سجل": 2980,
      "عتقد": 2981,
      "▁مصانع": 2982,
      "▁النساء": 2983,
      "▁احصل": 2984,
      "▁أرب": 2985,
      "▁إف": 2986,
      "▁الأخبار": 2987,
      "▁ومح": 2988,
      "▁المدني": 2989,
      "وزارة": 2990,
      "▁حياة": 2991,
      "باس": 2992,
      "▁مرض": 2993,
      "▁‪": 2994,
      "فيد": 2995,
      "▁أمير": 2996,
      "عى": 2997,
      "صلة": 2998,
      "نادق": 2999,
      "▁إس": 3000,
      "اره": 3001,
      "▁الجاري": 3002,
      "▁الأص": 3003,
      "▁طرق": 3004,
      "▁اللقاء": 3005,
      "▁العسكرية": 3006,
      "ارف": 3007,
      "ائع": 3008,
      "ندس": 3009,
      "▁السلطة": 3010,
      "▁جودة": 3011,
      "▁بلاد": 3012,
      "▁عيد": 3013,
      "بيعات": 3014,
      "▁التعلي": 3015,
      "▁ثق": 3016,
      "▁تض": 3017,
      "وارد": 3018,
      "طور": 3019,
      "▁يجعل": 3020,
      "خفاض": 3021,
      "▁قم": 3022,
      "▁المخت": 3023,
      "ايل": 3024,
      "وقات": 3025,
      "عمة": 3026,
      "▁أر": 3027,
      "ئين": 3028,
      "▁المحمولة": 3029,
      "▁القب": 3030,
      "▁خالد": 3031,
      "▁موعد": 3032,
      "▁العراقي": 3033,
      "ؤلاء": 3034,
      "▁النت": 3035,
      "▁وست": 3036,
      "▁الاخت": 3037,
      "▁السف": 3038,
      "راث": 3039,
      "▁آل": 3040,
      "▁بدء": 3041,
      "▁قوة": 3042,
      "▁بهذا": 3043,
      "سطوان": 3044,
      "عيم": 3045,
      "لبة": 3046,
      "▁طويلة": 3047,
      "▁الأز": 3048,
      "▁الدور": 3049,
      "▁منظمة": 3050,
      "▁المعادن": 3051,
      "ess": 3052,
      "▁الدعم": 3053,
      "▁تكسير": 3054,
      "اصل": 3055,
      "قدر": 3056,
      "نيا": 3057,
      "▁يعرف": 3058,
      "▁رسالة": 3059,
      "واتف": 3060,
      "▁الرسمي": 3061,
      "▁بحسب": 3062,
      "▁لقاء": 3063,
      "▁صوت": 3064,
      "▁النس": 3065,
      "▁إليها": 3066,
      "ّم": 3067,
      "▁ليبيا": 3068,
      "▁يصل": 3069,
      "▁دليل": 3070,
      "▁المتن": 3071,
      "▁معه": 3072,
      "▁البيت": 3073,
      "▁ساعات": 3074,
      "um": 3075,
      "دين": 3076,
      "▁للب": 3077,
      "▁'": 3078,
      "▁خب": 3079,
      "▁متنقلة": 3080,
      "فيف": 3081,
      "ديمة": 3082,
      "▁المب": 3083,
      "كب": 3084,
      "وتي": 3085,
      "▁سبيل": 3086,
      "▁كرة": 3087,
      "سون": 3088,
      "▁e": 3089,
      "لمات": 3090,
      "▁اف": 3091,
      "▁البنك": 3092,
      "▁لكرة": 3093,
      "▁الور": 3094,
      "▁واس": 3095,
      "▁PM": 3096,
      "▁السنة": 3097,
      "صاص": 3098,
      "▁بدأت": 3099,
      "▁دفع": 3100,
      "▁لأنه": 3101,
      "َي": 3102,
      "▁البيانات": 3103,
      "▁عاما": 3104,
      "أل": 3105,
      "▁سابق": 3106,
      "ليه": 3107,
      "▁الوضع": 3108,
      "▁للحصول": 3109,
      "ورو": 3110,
      "▁مسلسل": 3111,
      "▁اللغة": 3112,
      "ارضة": 3113,
      "▁العلاج": 3114,
      "▁الفنان": 3115,
      "▁حر": 3116,
      "▁رأ": 3117,
      "▁مدى": 3118,
      "فاءة": 3119,
      "▁لله": 3120,
      "▁لدينا": 3121,
      "يون": 3122,
      "ews": 3123,
      "▁البل": 3124,
      "▁رسم": 3125,
      "▁بأنه": 3126,
      "▁والتن": 3127,
      "غال": 3128,
      "▁سيارة": 3129,
      "▁السلطات": 3130,
      "▁مكتب": 3131,
      "▁الاتفاق": 3132,
      "▁وصول": 3133,
      "شارك": 3134,
      "▁اجتماع": 3135,
      "▁الإسرائيلي": 3136,
      "اعر": 3137,
      "▁مقا": 3138,
      "▁الكريم": 3139,
      "▁إنشاء": 3140,
      "▁الصناعية": 3141,
      "ريعة": 3142,
      "جين": 3143,
      "فادة": 3144,
      "ابلة": 3145,
      "▁تعالى": 3146,
      "▁قامت": 3147,
      "rice": 3148,
      "▁حص": 3149,
      "عزيز": 3150,
      "قطع": 3151,
      "▁كيل": 3152,
      "▁الخص": 3153,
      "▁الإف": 3154,
      "ويس": 3155,
      "▁درا": 3156,
      "▁الكل": 3157,
      "▁جان": 3158,
      "▁الأساسية": 3159,
      "▁كشف": 3160,
      "▁محمود": 3161,
      "▁كال": 3162,
      "هادة": 3163,
      "▁الخدمة": 3164,
      "▁طالب": 3165,
      "▁والمع": 3166,
      "▁أنت": 3167,
      "▁توفر": 3168,
      "▁مالي": 3169,
      "▁وصف": 3170,
      "ثمر": 3171,
      "قرير": 3172,
      "رسال": 3173,
      "كام": 3174,
      "ائح": 3175,
      "▁وحتى": 3176,
      "كينات": 3177,
      "▁النادي": 3178,
      "▁الأسمنت": 3179,
      "▁دوري": 3180,
      "سد": 3181,
      "ندي": 3182,
      "واجه": 3183,
      "▁تونس": 3184,
      "▁يستخدم": 3185,
      "▁تز": 3186,
      "صات": 3187,
      "ارير": 3188,
      "ov": 3189,
      "▁المدير": 3190,
      "▁الكتاب": 3191,
      "ريت": 3192,
      "▁يأتي": 3193,
      "ولية": 3194,
      "▁المجال": 3195,
      "▁فيلم": 3196,
      "▁صلى": 3197,
      "▁الجانب": 3198,
      "حافظة": 3199,
      "▁الجودة": 3200,
      "▁برو": 3201,
      "▁ألمانيا": 3202,
      "ثم": 3203,
      "▁الدي": 3204,
      "يره": 3205,
      "▁إجراء": 3206,
      "امن": 3207,
      "▁مواجهة": 3208,
      "▁الكم": 3209,
      "▁نصف": 3210,
      "جابة": 3211,
      "▁تعزيز": 3212,
      "▁بعيد": 3213,
      "▁الشه": 3214,
      "▁أعضاء": 3215,
      "َم": 3216,
      "▁أهل": 3217,
      "▁المستقبل": 3218,
      "فاف": 3219,
      "▁التنمية": 3220,
      "▁ضرورة": 3221,
      "▁أبرز": 3222,
      "▁تحمل": 3223,
      "▁الطلاب": 3224,
      "▁مكت": 3225,
      "▁غرب": 3226,
      "▁المقر": 3227,
      "ظار": 3228,
      "▁فهي": 3229,
      "▁حكم": 3230,
      "▁تحدث": 3231,
      "▁القيام": 3232,
      "▁للص": 3233,
      "خام": 3234,
      "ويتر": 3235,
      "▁طرف": 3236,
      "▁الثان": 3237,
      "▁•": 3238,
      "▁بذلك": 3239,
      "▁كي": 3240,
      "جلة": 3241,
      "اربة": 3242,
      "▁أصبح": 3243,
      "▁يساعد": 3244,
      "▁فرصة": 3245,
      "كتر": 3246,
      "▁مفت": 3247,
      "▁النواب": 3248,
      "▁يط": 3249,
      "▁حماية": 3250,
      "oc": 3251,
      "▁مواد": 3252,
      "▁دخول": 3253,
      "▁الاخبار": 3254,
      "وسف": 3255,
      "est": 3256,
      "▁كش": 3257,
      "▁بطولة": 3258,
      "بين": 3259,
      "بارات": 3260,
      "▁اند": 3261,
      "▁http": 3262,
      "خصوص": 3263,
      "ak": 3264,
      "▁الشخصية": 3265,
      "▁الكسارة": 3266,
      "▁الأل": 3267,
      "َر": 3268,
      "عددة": 3269,
      "ليلة": 3270,
      "ers": 3271,
      "all": 3272,
      "▁تساعد": 3273,
      "ميلة": 3274,
      "▁السابقة": 3275,
      "▁عضو": 3276,
      "▁جيدة": 3277,
      "▁إث": 3278,
      "واف": 3279,
      "▁بور": 3280,
      "كسارة": 3281,
      "▁صحة": 3282,
      "▁اغ": 3283,
      "ib": 3284,
      "▁والغ": 3285,
      "ناه": 3286,
      "▁المستوى": 3287,
      "▁النوع": 3288,
      "▁تمكن": 3289,
      "احث": 3290,
      "▁الإجراءات": 3291,
      "▁لمع": 3292,
      "ياجات": 3293,
      "▁سبب": 3294,
      "▁بدأ": 3295,
      "▁مؤسسة": 3296,
      "وجة": 3297,
      "▁التر": 3298,
      "▁وانت": 3299,
      "▁الحكم": 3300,
      "▁العملات": 3301,
      "▁عبارة": 3302,
      "▁لهذه": 3303,
      "زيارة": 3304,
      "مالك": 3305,
      "▁صنا": 3306,
      "▁عليهم": 3307,
      "سيم": 3308,
      "لفزي": 3309,
      "▁الديمقرا": 3310,
      "▁عز": 3311,
      "▁الطلب": 3312,
      "▁المحلي": 3313,
      "▁تمام": 3314,
      "▁أجهزة": 3315,
      "▁ممت": 3316,
      "▁التابعة": 3317,
      "▁أحدث": 3318,
      "▁الأمنية": 3319,
      "▁الدراسة": 3320,
      "صدر": 3321,
      "▁الاقتصادي": 3322,
      "▁التالي": 3323,
      "سك": 3324,
      "راح": 3325,
      "▁قب": 3326,
      "▁محد": 3327,
      "▁سيد": 3328,
      "▁الفوركس": 3329,
      "▁الجل": 3330,
      "▁مخت": 3331,
      "▁الفر": 3332,
      "خطيط": 3333,
      "▁الذى": 3334,
      "▁أهداف": 3335,
      "▁يريد": 3336,
      "▁وعدم": 3337,
      "قى": 3338,
      "رويد": 3339,
      "قطاع": 3340,
      "▁يتعلق": 3341,
      "▁الابت": 3342,
      "املين": 3343,
      "ساهم": 3344,
      "▁الأخير": 3345,
      "▁مناف": 3346,
      "جع": 3347,
      "روة": 3348,
      "ناية": 3349,
      "▁الدورة": 3350,
      "▁البلا": 3351,
      "ويم": 3352,
      "▁عص": 3353,
      "▁يحتوي": 3354,
      "الإ": 3355,
      "مسة": 3356,
      "عاء": 3357,
      "▁أسبوع": 3358,
      "▁مقر": 3359,
      "▁بالط": 3360,
      "▁توق": 3361,
      "▁غرفة": 3362,
      "حقوق": 3363,
      "▁المقبلة": 3364,
      "▁التركية": 3365,
      "جمالي": 3366,
      "▁بالج": 3367,
      "▁النص": 3368,
      "▁تشكيل": 3369,
      "▁تجاه": 3370,
      "ap": 3371,
      "ابون": 3372,
      "▁مهمة": 3373,
      "▁الحكومية": 3374,
      "▁الياب": 3375,
      "▁جريدة": 3376,
      "فلام": 3377,
      "رفض": 3378,
      "انه": 3379,
      "ذار": 3380,
      "▁ضع": 3381,
      "▁الساد": 3382,
      "نوات": 3383,
      "▁العن": 3384,
      "نائ": 3385,
      "▁حمل": 3386,
      "▁تعليم": 3387,
      "لل": 3388,
      "▁المنش": 3389,
      "تيب": 3390,
      "▁النقل": 3391,
      "سطوانة": 3392,
      "▁اللازمة": 3393,
      "▁خصوص": 3394,
      "▁مشت": 3395,
      "▁عش": 3396,
      "ill": 3397,
      "▁بهذه": 3398,
      "راحة": 3399,
      "▁كار": 3400,
      "▁+": 3401,
      "الا": 3402,
      "▁مجانية": 3403,
      "الغ": 3404,
      "شنطن": 3405,
      "▁التعامل": 3406,
      "▁يحدث": 3407,
      "▁الرسمية": 3408,
      "نيات": 3409,
      "قائق": 3410,
      "▁الأغ": 3411,
      "واعد": 3412,
      "ندية": 3413,
      "▁الرياضية": 3414,
      "▁شرق": 3415,
      "▁جداً": 3416,
      "▁لغ": 3417,
      "▁صالح": 3418,
      "▁وبالتالي": 3419,
      "▁الري": 3420,
      "▁يحتاج": 3421,
      "▁الاد": 3422,
      "▁y": 3423,
      "يفية": 3424,
      "▁مشكلة": 3425,
      "▁المبار": 3426,
      "▁المركزي": 3427,
      "ـــ": 3428,
      "one": 3429,
      "▁وذكر": 3430,
      "▁لموا": 3431,
      "▁النار": 3432,
      "صنع": 3433,
      "▁الفنية": 3434,
      "حدد": 3435,
      "▁المجموعة": 3436,
      "▁وأش": 3437,
      "وها": 3438,
      "▁النظر": 3439,
      "▁ملم": 3440,
      "▁إست": 3441,
      "▁الحوث": 3442,
      "▁البار": 3443,
      "▁الفرنسي": 3444,
      "▁اذا": 3445,
      "▁الإثنين": 3446,
      "بطة": 3447,
      "طح": 3448,
      "امات": 3449,
      "▁انتها": 3450,
      "▁العليا": 3451,
      "▁الغربية": 3452,
      "سلحة": 3453,
      "▁المؤتمر": 3454,
      "بعة": 3455,
      "▁الأمور": 3456,
      "ائن": 3457,
      "يريا": 3458,
      "▁مرحلة": 3459,
      "▁مجموع": 3460,
      "▁إنها": 3461,
      "شاط": 3462,
      "▁ماكينات": 3463,
      "▁الهواء": 3464,
      "ُّ": 3465,
      "▁حف": 3466,
      "▁حالات": 3467,
      "▁القلب": 3468,
      "▁أنحاء": 3469,
      "▁حز": 3470,
      "▁الصورة": 3471,
      "خرة": 3472,
      "ort": 3473,
      "وروبية": 3474,
      "▁اكثر": 3475,
      "▁يمن": 3476,
      "▁عبدالله": 3477,
      "▁إح": 3478,
      "فيروس": 3479,
      "ضيع": 3480,
      "وو": 3481,
      "▁شاهد": 3482,
      "ang": 3483,
      "▁الحمل": 3484,
      "▁والر": 3485,
      "▁بعدما": 3486,
      "▁التجارة": 3487,
      "راقبة": 3488,
      "▁آلاف": 3489,
      "اله": 3490,
      "▁بيانات": 3491,
      "▁موقف": 3492,
      "▁سيارات": 3493,
      "▁هؤلاء": 3494,
      "▁سعيد": 3495,
      "▁روا": 3496,
      "▁المسلمين": 3497,
      "▁مدريد": 3498,
      "▁مساءً": 3499,
      "عود": 3500,
      "▁رؤية": 3501,
      "▁تصريحات": 3502,
      "▁تحتوي": 3503,
      "▁وبح": 3504,
      "▁ابت": 3505,
      "ولد": 3506,
      "شارة": 3507,
      "▁مصن": 3508,
      "▁تهتز": 3509,
      "▁كاملة": 3510,
      "▁الحدود": 3511,
      "داع": 3512,
      "▁الجد": 3513,
      "رسانة": 3514,
      "▁صلاح": 3515,
      "▁نجاح": 3516,
      "▁قتل": 3517,
      "سبق": 3518,
      "اعم": 3519,
      "▁الأميركية": 3520,
      "▁يؤدي": 3521,
      "▁قضية": 3522,
      "▁التون": 3523,
      "▁القرن": 3524,
      "▁قدرة": 3525,
      "▁خلي": 3526,
      "▁انتشار": 3527,
      "جليزية": 3528,
      "▁واعت": 3529,
      "▁بالل": 3530,
      "حاول": 3531,
      "▁رجل": 3532,
      "▁خبر": 3533,
      "▁عقب": 3534,
      "▁الدخول": 3535,
      "▁فندق": 3536,
      "▁لذا": 3537,
      "▁مخط": 3538,
      "؟؟": 3539,
      "▁الأبيض": 3540,
      "▁إل": 3541,
      "▁المحافظة": 3542,
      "▁التفاصيل": 3543,
      "▁الحركة": 3544,
      "▁السيارة": 3545,
      "وصل": 3546,
      "وفي": 3547,
      "▁وهم": 3548,
      "جاوز": 3549,
      "▁العملاء": 3550,
      "▁اقرأ": 3551,
      "▁الجزائ": 3552,
      "ip": 3553,
      "▁أساس": 3554,
      "بادل": 3555,
      "صرية": 3556,
      "▁اج": 3557,
      "▁مؤتمر": 3558,
      "▁وير": 3559,
      "▁عمان": 3560,
      "َه": 3561,
      "▁العرض": 3562,
      "▁الدست": 3563,
      "▁الأيام": 3564,
      "▁المكان": 3565,
      "▁الأحمر": 3566,
      "هلة": 3567,
      "غلاق": 3568,
      "▁تنظيف": 3569,
      "▁ويس": 3570,
      "od": 3571,
      "▁الرجل": 3572,
      "لالة": 3573,
      "▁المفت": 3574,
      "▁الجهات": 3575,
      "▁معرفة": 3576,
      "لقى": 3577,
      "طفى": 3578,
      "▁فرنسا": 3579,
      "ساد": 3580,
      "سرائيلية": 3581,
      "▁معت": 3582,
      "▁تسم": 3583,
      "باق": 3584,
      "▁اللعبة": 3585,
      "قيقي": 3586,
      "▁مشاركة": 3587,
      "▁نز": 3588,
      "▁خلالها": 3589,
      "مارسة": 3590,
      "فعة": 3591,
      "ميات": 3592,
      "▁الكبيرة": 3593,
      "ّن": 3594,
      "عدد": 3595,
      "سيطة": 3596,
      "قيمة": 3597,
      "▁بطريقة": 3598,
      "▁امت": 3599,
      "علقة": 3600,
      "▁وظائف": 3601,
      "خم": 3602,
      "▁مار": 3603,
      "▁منتخب": 3604,
      "▁مؤك": 3605,
      "وسي": 3606,
      "ثناء": 3607,
      "ائه": 3608,
      "▁عنوان": 3609,
      "▁الاستثمار": 3610,
      "سارة": 3611,
      "▁أداء": 3612,
      "يراً": 3613,
      "▁الضغط": 3614,
      "▁الأجهزة": 3615,
      "▁الاص": 3616,
      "يابة": 3617,
      "ضب": 3618,
      "▁الطبيعية": 3619,
      "▁المواقع": 3620,
      "على": 3621,
      "رطان": 3622,
      "روعات": 3623,
      "▁العض": 3624,
      "▁أصحاب": 3625,
      "▁القادمة": 3626,
      "ويق": 3627,
      "▁الاخ": 3628,
      "ينات": 3629,
      "▁St": 3630,
      "راز": 3631,
      "الق": 3632,
      "كونات": 3633,
      "يفا": 3634,
      "▁إجراءات": 3635,
      "▁سف": 3636,
      "▁المؤسسات": 3637,
      "شط": 3638,
      "▁الرك": 3639,
      "يح": 3640,
      "الن": 3641,
      "هج": 3642,
      "▁جهود": 3643,
      "▁on": 3644,
      "وانين": 3645,
      "وره": 3646,
      "▁الأردن": 3647,
      "▁مقارنة": 3648,
      "▁عناصر": 3649,
      "▁يبدو": 3650,
      "ينما": 3651,
      "بنى": 3652,
      "▁لإن": 3653,
      "▁الأو": 3654,
      "قتصادية": 3655,
      "▁Ch": 3656,
      "▁حرب": 3657,
      "▁الغاز": 3658,
      "▁نقاط": 3659,
      "▁جمع": 3660,
      "▁الغذائية": 3661,
      "▁الثالثة": 3662,
      "▁معرض": 3663,
      "▁منع": 3664,
      "تيح": 3665,
      "▁العسكري": 3666,
      "▁كثيرة": 3667,
      "▁التركي": 3668,
      "اعد": 3669,
      "our": 3670,
      "▁بذ": 3671,
      "▁بنفس": 3672,
      "▁ظهور": 3673,
      "شلونة": 3674,
      "رفين": 3675,
      "▁سليم": 3676,
      "▁الزيت": 3677,
      "▁تجهيز": 3678,
      "حداث": 3679,
      "▁إخ": 3680,
      "▁مان": 3681,
      "▁بحيث": 3682,
      "افر": 3683,
      "كومة": 3684,
      "امت": 3685,
      "اتهم": 3686,
      "▁الطحن": 3687,
      "حف": 3688,
      "▁مشاكل": 3689,
      "▁لافت": 3690,
      "▁البرلمان": 3691,
      "مكان": 3692,
      "▁مباريات": 3693,
      "▁الرياضة": 3694,
      "▁الكر": 3695,
      "رانيت": 3696,
      "يلم": 3697,
      "▁شه": 3698,
      "نائي": 3699,
      "ook": 3700,
      "ثور": 3701,
      "جنبية": 3702,
      "▁الإصابة": 3703,
      "▁حب": 3704,
      "art": 3705,
      "َة": 3706,
      "▁بتاريخ": 3707,
      "▁الحزب": 3708,
      "▁تجربة": 3709,
      "▁الجمعية": 3710,
      "▁الحالة": 3711,
      "▁لض": 3712,
      "الس": 3713,
      "▁الدقيقة": 3714,
      "----": 3715,
      "▁وفاة": 3716,
      "▁المحافظ": 3717,
      "▁فصل": 3718,
      "▁والتعليم": 3719,
      "▁المسا": 3720,
      "عامل": 3721,
      "▁الجوية": 3722,
      "قته": 3723,
      "▁التالية": 3724,
      "▁جمال": 3725,
      "ادم": 3726,
      "▁ضبط": 3727,
      "ائحة": 3728,
      "▁لكي": 3729,
      "ورك": 3730,
      "ديقة": 3731,
      "حيان": 3732,
      "▁إع": 3733,
      "▁k": 3734,
      "▁حملة": 3735,
      "▁العراقية": 3736,
      "▁الأزمة": 3737,
      "▁الخيارات": 3738,
      "▁الهدف": 3739,
      "▁الأميركي": 3740,
      "▁لجميع": 3741,
      "▁قراءة": 3742,
      "▁القرآن": 3743,
      "▁ستكون": 3744,
      "▁نفسها": 3745,
      "▁كانوا": 3746,
      "▁الأب": 3747,
      "▁طف": 3748,
      "▁محاولة": 3749,
      "آت": 3750,
      "▁خلا": 3751,
      "▁منصة": 3752,
      "▁الكبرى": 3753,
      "▁الفوز": 3754,
      "▁Ar": 3755,
      "قه": 3756,
      "ونه": 3757,
      "▁فرص": 3758,
      "وامل": 3759,
      "▁الكهرباء": 3760,
      "▁الفرق": 3761,
      "▁الحرارة": 3762,
      "وّ": 3763,
      "▁فا": 3764,
      "▁سورية": 3765,
      "▁فور": 3766,
      "شب": 3767,
      "▁التشغيل": 3768,
      "▁الوسط": 3769,
      "وسة": 3770,
      "درات": 3771,
      "▁لات": 3772,
      "▁إي": 3773,
      "▁مهم": 3774,
      "▁المحكمة": 3775,
      "زيا": 3776,
      "▁النمو": 3777,
      "شا": 3778,
      "▁ضغط": 3779,
      "▁الوزير": 3780,
      "▁رجال": 3781,
      "▁ريمون": 3782,
      "▁الوزن": 3783,
      "▁الموجودة": 3784,
      "▁أجزاء": 3785,
      "وظبي": 3786,
      "ائرات": 3787,
      "▁منح": 3788,
      "▁الشرقية": 3789,
      "▁الوجه": 3790,
      "▁اللبناني": 3791,
      "▁الجولة": 3792,
      "▁البرامج": 3793,
      "▁التقرير": 3794,
      "▁الالكتر": 3795,
      "og": 3796,
      "▁تشرين": 3797,
      "▁السفر": 3798,
      "فيذي": 3799,
      "▁لتحقيق": 3800,
      "▁قلب": 3801,
      "البة": 3802,
      "كير": 3803,
      "ach": 3804,
      "صيد": 3805,
      "▁لماذا": 3806,
      "مرة": 3807,
      "▁تقد": 3808,
      "▁المسلحة": 3809,
      "▁تث": 3810,
      "▁قوية": 3811,
      "فال": 3812,
      "▁ميل": 3813,
      "▁فرض": 3814,
      "▁تعلم": 3815,
      "▁كوب": 3816,
      "جون": 3817,
      "▁مادة": 3818,
      "▁فهم": 3819,
      "▁البيان": 3820,
      "▁النو": 3821,
      "▁أرد": 3822,
      "▁بوابة": 3823,
      "انس": 3824,
      "▁الطبيعي": 3825,
      "▁منظ": 3826,
      "كمال": 3827,
      "▁توجد": 3828,
      "▁المبا": 3829,
      "▁إصابة": 3830,
      "▁الفع": 3831,
      "حول": 3832,
      "▁وخاصة": 3833,
      "▁القيادة": 3834,
      "▁AM": 3835,
      "بهة": 3836,
      "▁تظهر": 3837,
      "رائم": 3838,
      "ليك": 3839,
      "صابات": 3840,
      "▁التم": 3841,
      "▁لديك": 3842,
      "▁فوز": 3843,
      "▁i": 3844,
      "وطن": 3845,
      "▁إعداد": 3846,
      "▁اللاعبين": 3847,
      "▁الاف": 3848,
      "▁إضاف": 3849,
      "▁الاب": 3850,
      "▁اللح": 3851,
      "▁الكمبيوتر": 3852,
      "هون": 3853,
      "سلوب": 3854,
      "▁المعت": 3855,
      "▁بتوقيت": 3856,
      "▁استمرار": 3857,
      "َب": 3858,
      "▁دخل": 3859,
      "هه": 3860,
      "▁سوى": 3861,
      "▁اسعار": 3862,
      "قص": 3863,
      "▁نموذج": 3864,
      "كنة": 3865,
      "فسير": 3866,
      "▁تحويل": 3867,
      "ube": 3868,
      "مكانية": 3869,
      "▁للعمل": 3870,
      "▁لر": 3871,
      "▁الطريقة": 3872,
      "▁كن": 3873,
      "▁كلا": 3874,
      "ولين": 3875,
      "▁!": 3876,
      "▁مكافحة": 3877,
      "▁واشنطن": 3878,
      "▁البيئة": 3879,
      "▁رائعة": 3880,
      "▁يوسف": 3881,
      "بحت": 3882,
      "ناسبة": 3883,
      "▁أسباب": 3884,
      "طلقت": 3885,
      "▁شأن": 3886,
      "▁دائما": 3887,
      "▁السنوات": 3888,
      "هذا": 3889,
      "▁القديمة": 3890,
      "▁أزمة": 3891,
      "درية": 3892,
      "روح": 3893,
      "▁Re": 3894,
      "▁الاول": 3895,
      "▁الإست": 3896,
      "▁دار": 3897,
      "▁لفت": 3898,
      "▁وراء": 3899,
      "▁شارك": 3900,
      "راجعة": 3901,
      "٠٠": 3902,
      "▁ثانية": 3903,
      "مط": 3904,
      "▁ماذا": 3905,
      "▁فوائد": 3906,
      "ik": 3907,
      "يوب": 3908,
      "▁وتس": 3909,
      "▁is": 3910,
      "▁المادة": 3911,
      "▁بنت": 3912,
      "يمان": 3913,
      "▁ترا": 3914,
      "▁القائمة": 3915,
      "▁ربما": 3916,
      "▁العين": 3917,
      "▁for": 3918,
      "▁بالفعل": 3919,
      "▁المحجر": 3920,
      "▁برا": 3921,
      "▁وتأ": 3922,
      "▁دائم": 3923,
      "▁قصة": 3924,
      "▁لز": 3925,
      "بيه": 3926,
      "▁ليت": 3927,
      "▁عربية": 3928,
      "▁الحالية": 3929,
      "▁نشاط": 3930,
      "بعد": 3931,
      "▁علينا": 3932,
      "▁الرئيسي": 3933,
      "▁مدار": 3934,
      "شاب": 3935,
      "▁وعن": 3936,
      "▁الروسية": 3937,
      "ناع": 3938,
      "▁الإرهاب": 3939,
      "▁الزمالك": 3940,
      "يميا": 3941,
      "▁الصينية": 3942,
      "ذن": 3943,
      "ضائية": 3944,
      "▁شعر": 3945,
      "▁زا": 3946,
      "▁بنك": 3947,
      "▁السبب": 3948,
      "▁القضاء": 3949,
      "▁إعلان": 3950,
      "▁القضية": 3951,
      "▁عادة": 3952,
      "▁سلمان": 3953,
      "▁الشمس": 3954,
      "ظل": 3955,
      "▁الأعلى": 3956,
      "▁باك": 3957,
      "▁سنت": 3958,
      "▁بغداد": 3959,
      "▁شباب": 3960,
      "▁وعند": 3961,
      "▁غسل": 3962,
      "▁الأقل": 3963,
      "▁واسعة": 3964,
      "▁حسين": 3965,
      "ريبية": 3966,
      "وعية": 3967,
      "افع": 3968,
      "وسطة": 3969,
      "▁المي": 3970,
      "▁للك": 3971,
      "▁الجلد": 3972,
      "▁مجلة": 3973,
      "زمات": 3974,
      "فذ": 3975,
      "ــــــــ": 3976,
      "▁واسع": 3977,
      "▁بز": 3978,
      "يوم": 3979,
      "▁الإسلامي": 3980,
      "زاب": 3981,
      "ونيس": 3982,
      "احات": 3983,
      "ob": 3984,
      "طان": 3985,
      "▁وتابع": 3986,
      "▁مؤشر": 3987,
      "▁تا": 3988,
      "nd": 3989,
      "▁الأج": 3990,
      "▁الجزء": 3991,
      "▁الفرنسية": 3992,
      "▁أض": 3993,
      "بو": 3994,
      "▁شاشة": 3995,
      "▁فيت": 3996,
      "داخل": 3997,
      "▁تصريح": 3998,
      "rusher": 3999,
      "▁والمن": 4000,
      "هِ": 4001,
      "قيقية": 4002,
      "فيديو": 4003,
      "▁فمن": 4004,
      "ail": 4005,
      "▁العزيز": 4006,
      "▁أبناء": 4007,
      "▁لاب": 4008,
      "▁المالي": 4009,
      "▁بمدينة": 4010,
      "▁التعليمية": 4011,
      "همية": 4012,
      "av": 4013,
      "حميل": 4014,
      "▁القادم": 4015,
      "▁كلية": 4016,
      "▁بينهم": 4017,
      "▁إبراهيم": 4018,
      "▁تحسين": 4019,
      "▁اخر": 4020,
      "واطن": 4021,
      "▁علاقة": 4022,
      "▁المغربية": 4023,
      "▁بريط": 4024,
      "▁الشعبي": 4025,
      "are": 4026,
      "وافق": 4027,
      "▁للمر": 4028,
      "هلك": 4029,
      "واجد": 4030,
      "آخر": 4031,
      "▁النبي": 4032,
      "▁الإسب": 4033,
      "الص": 4034,
      "▁لمس": 4035,
      "َع": 4036,
      "▁وفقا": 4037,
      "قرة": 4038,
      "▁بالب": 4039,
      "يادات": 4040,
      "▁كر": 4041,
      "▁الملا": 4042,
      "اقات": 4043,
      "ناسب": 4044,
      "▁معها": 4045,
      "▁ملايين": 4046,
      "▁يزيد": 4047,
      "هوة": 4048,
      "▁بتن": 4049,
      "▁أمريكا": 4050,
      "▁البطولة": 4051,
      "▁أصبحت": 4052,
      "▁اخ": 4053,
      "▁برشلونة": 4054,
      "▁الفندق": 4055,
      "▁البرا": 4056,
      "اوز": 4057,
      "▁باعت": 4058,
      "▁المعا": 4059,
      "▁العلمي": 4060,
      "داة": 4061,
      "وقة": 4062,
      "▁سياسة": 4063,
      "▁كام": 4064,
      "▁المشارك": 4065,
      "▁المؤسسة": 4066,
      "▁بالخ": 4067,
      "▁البشرة": 4068,
      "▁الاجتماع": 4069,
      "▁التنفيذي": 4070,
      "▁الرسم": 4071,
      "يص": 4072,
      "▁الخض": 4073,
      "▁الممت": 4074,
      "▁اللواء": 4075,
      "▁يذكر": 4076,
      "خال": 4077,
      "ونغ": 4078,
      "▁الحديثة": 4079,
      "▁تقل": 4080,
      "يروس": 4081,
      "▁ونحن": 4082,
      "شروع": 4083,
      "▁يغ": 4084,
      "▁بني": 4085,
      "▁الإيراني": 4086,
      "▁شرك": 4087,
      "يقة": 4088,
      "▁انخفاض": 4089,
      "▁السياحة": 4090,
      "▁المغربي": 4091,
      "ce": 4092,
      "out": 4093,
      "ظمات": 4094,
      "▁نظر": 4095,
      "▁المناسب": 4096,
      "▁وهذه": 4097,
      "قلت": 4098,
      "▁حفل": 4099,
      "يض": 4100,
      "▁{": 4101,
      "▁بينها": 4102,
      "▁بشر": 4103,
      "ate": 4104,
      "▁تأس": 4105,
      "طلاع": 4106,
      "▁مشيرا": 4107,
      "▁الشريف": 4108,
      "جح": 4109,
      "▁يحمل": 4110,
      "▁مؤخ": 4111,
      "▁الملابس": 4112,
      "▁الأسواق": 4113,
      "▁ند": 4114,
      "▁r": 4115,
      "غرب": 4116,
      "▁تعا": 4117,
      "ّه": 4118,
      "▁حدود": 4119,
      "▁المض": 4120,
      "ant": 4121,
      "▁الجنوبية": 4122,
      "وخ": 4123,
      "▁عربي": 4124,
      "▁عين": 4125,
      "▁التمو": 4126,
      "▁ذا": 4127,
      "جمات": 4128,
      "▁الروسي": 4129,
      "ائم": 4130,
      "▁مياه": 4131,
      "▁الكهربائية": 4132,
      "منى": 4133,
      "▁صندوق": 4134,
      "▁دا": 4135,
      "▁الخرسانة": 4136,
      "▁المسي": 4137,
      "▁النظ": 4138,
      "▁تبدأ": 4139,
      "▁عامة": 4140,
      "▁بسرعة": 4141,
      "▁لديها": 4142,
      "▁إعلام": 4143,
      "▁التسجيل": 4144,
      "▁الثقافة": 4145,
      "▁ولد": 4146,
      "▁معدل": 4147,
      "▁جمعية": 4148,
      "قلي": 4149,
      "▁تقع": 4150,
      "▁الحجارة": 4151,
      "▁المهندس": 4152,
      "▁التقلي": 4153,
      "▁العودة": 4154,
      "”.": 4155,
      "▁وهناك": 4156,
      "اخلي": 4157,
      "▁النتائج": 4158,
      "اضي": 4159,
      "▁الكاتب": 4160,
      "وانات": 4161,
      "اكم": 4162,
      "زاز": 4163,
      "▁الاح": 4164,
      "علانات": 4165,
      "لغاء": 4166,
      "if": 4167,
      "▁انتاج": 4168,
      "▁حاليا": 4169,
      "▁فك": 4170,
      "عمار": 4171,
      "▁المنظمة": 4172,
      "▁الحس": 4173,
      "بلوما": 4174,
      "رقام": 4175,
      "وظفين": 4176,
      "▁مصطفى": 4177,
      "▁الحب": 4178,
      "ضى": 4179,
      "▁صفحة": 4180,
      "▁أنهم": 4181,
      "▁ملعب": 4182,
      "▁كهرب": 4183,
      "▁سام": 4184,
      "فعت": 4185,
      "باع": 4186,
      "▁الباحث": 4187,
      "▁يوما": 4188,
      "قعة": 4189,
      "▁دقائق": 4190,
      "▁X": 4191,
      "▁المتحدث": 4192,
      "ويض": 4193,
      "▁حذ": 4194,
      "▁هام": 4195,
      "▁يوفر": 4196,
      "▁الثورة": 4197,
      "▁أعرف": 4198,
      "▁المقد": 4199,
      "بداع": 4200,
      "▁متعددة": 4201,
      "▁التخ": 4202,
      "▁العالي": 4203,
      "▁سكان": 4204,
      "▁يستطيع": 4205,
      "▁السكر": 4206,
      "▁ايضا": 4207,
      "فقة": 4208,
      "تش": 4209,
      "▁النائب": 4210,
      "▁فان": 4211,
      "جليزي": 4212,
      "▁الرم": 4213,
      "عاد": 4214,
      "▁البشرية": 4215,
      "▁العلمية": 4216,
      "ويا": 4217,
      "▁المطاحن": 4218,
      "▁المشاريع": 4219,
      "▁علا": 4220,
      "وجود": 4221,
      "▁الوح": 4222,
      "▁المدارس": 4223,
      "▁فكرة": 4224,
      "▁تأتي": 4225,
      "▁الحالات": 4226,
      "ريقي": 4227,
      "▁سعد": 4228,
      "▁&": 4229,
      "▁؛": 4230,
      "حر": 4231,
      "▁الدولار": 4232,
      "▁الها": 4233,
      "▁انها": 4234,
      "▁دردشة": 4235,
      "▁الجبس": 4236,
      "▁البريد": 4237,
      "ريقية": 4238,
      "▁المتعلقة": 4239,
      "▁كانون": 4240,
      "كذا": 4241,
      "سس": 4242,
      "▁لكنه": 4243,
      "▁التغ": 4244,
      "اغ": 4245,
      "▁مشاريع": 4246,
      "درجة": 4247,
      "▁بحق": 4248,
      "▁الصانع": 4249,
      "يدان": 4250,
      "▁والز": 4251,
      "▁الإنسانية": 4252,
      "قوط": 4253,
      "▁مميز": 4254,
      "ؤية": 4255,
      "▁مساحة": 4256,
      "رجمة": 4257,
      "▁الْ": 4258,
      "▁والل": 4259,
      "▁بول": 4260,
      "▁احد": 4261,
      "▁تقييم": 4262,
      "▁لديه": 4263,
      "ارتفاع": 4264,
      "▁النوم": 4265,
      "▁رائع": 4266,
      "▁ومست": 4267,
      "ريحة": 4268,
      "▁قيادة": 4269,
      "▁انف": 4270,
      "رجات": 4271,
      "طبيق": 4272,
      "▁يأ": 4273,
      "ابر": 4274,
      "▁الإخ": 4275,
      "▁الحفاظ": 4276,
      "▁قل": 4277,
      "▁الاسلام": 4278,
      "كندرية": 4279,
      "▁السيسي": 4280,
      "ost": 4281,
      "لاحظ": 4282,
      "▁عاج": 4283,
      "▁الدع": 4284,
      "َد": 4285,
      "▁المعدنية": 4286,
      "ment": 4287,
      "▁القدرة": 4288,
      "▁الرابع": 4289,
      "▁السم": 4290,
      "يطاليا": 4291,
      "▁%": 4292,
      "▁st": 4293,
      "eu": 4294,
      "▁التنفيذ": 4295,
      "كور": 4296,
      "شكل": 4297,
      "▁أدوات": 4298,
      "فى": 4299,
      "▁محجر": 4300,
      "▁والتح": 4301,
      "▁ورد": 4302,
      "▁كريم": 4303,
      "▁التكنولوجيا": 4304,
      "▁US": 4305,
      "يله": 4306,
      "ريبا": 4307,
      "▁يلي": 4308,
      "رجع": 4309,
      "▁العمليات": 4310,
      "فن": 4311,
      "▁المهنية": 4312,
      "ont": 4313,
      "▁يعود": 4314,
      "▁جي": 4315,
      "▁pro": 4316,
      "▁النز": 4317,
      "▁لعب": 4318,
      "هالي": 4319,
      "باعة": 4320,
      "▁وقف": 4321,
      "▁اتحاد": 4322,
      "▁تمر": 4323,
      "▁الزوج": 4324,
      "▁الصحفي": 4325,
      "▁تجد": 4326,
      "غبة": 4327,
      "َيْ": 4328,
      "▁استعداد": 4329,
      "▁للتن": 4330,
      "تا": 4331,
      "▁عرف": 4332,
      "▁البريطانية": 4333,
      "برنامج": 4334,
      "▁اللون": 4335,
      "▁نسخة": 4336,
      "فاوضات": 4337,
      "▁ليف": 4338,
      "▁الإعلان": 4339,
      "وأ": 4340,
      "▁يمت": 4341,
      "شح": 4342,
      "▁تكن": 4343,
      "▁شخصية": 4344,
      "▁مقتل": 4345,
      "▁المكتب": 4346,
      "▁تدخل": 4347,
      "▁الزمن": 4348,
      "▁بهم": 4349,
      "▁ملك": 4350,
      "صدق": 4351,
      "▁الثقيلة": 4352,
      "▁الأسد": 4353,
      "ضير": 4354,
      "▁الثنائية": 4355,
      "ائها": 4356,
      "▁أربعة": 4357,
      "▁اللبنانية": 4358,
      "▁قيم": 4359,
      "▁الموردين": 4360,
      "▁المقال": 4361,
      "▁التنظيم": 4362,
      "▁ومس": 4363,
      "▁ويتم": 4364,
      "لول": 4365,
      "▁التعب": 4366,
      "▁انته": 4367,
      "▁المناسبة": 4368,
      "يجاد": 4369,
      "▁طرح": 4370,
      "▁يقع": 4371,
      "▁يعيش": 4372,
      "▁مرات": 4373,
      "▁Get": 4374,
      "زع": 4375,
      "ماكن": 4376,
      "▁الشعبية": 4377,
      "وكس": 4378,
      "خطط": 4379,
      "▁اتخاذ": 4380,
      "▁يرت": 4381,
      "▁وتد": 4382,
      "▁توقع": 4383,
      "طلع": 4384,
      "وهات": 4385,
      "▁المدرسة": 4386,
      "▁يمثل": 4387,
      "▁إصدار": 4388,
      "▁عروض": 4389,
      "▁أبوظبي": 4390,
      "▁الباب": 4391,
      "لفت": 4392,
      "▁الإسرائيلية": 4393,
      "▁الحوار": 4394,
      "▁أبد": 4395,
      "▁الوظ": 4396,
      "ارقة": 4397,
      "▁طال": 4398,
      "هاجم": 4399,
      "ex": 4400,
      "▁إلكتر": 4401,
      "وجل": 4402,
      "▁الأسطوانة": 4403,
      "▁أصدر": 4404,
      "▁خمس": 4405,
      "ريا": 4406,
      "وائية": 4407,
      "▁تشمل": 4408,
      "ائة": 4409,
      "اسم": 4410,
      "راكة": 4411,
      "▁لأنها": 4412,
      "▁شن": 4413,
      "▁قاعدة": 4414,
      "▁زمن": 4415,
      "فيض": 4416,
      "▁بوك": 4417,
      "فعيل": 4418,
      "▁الشمالية": 4419,
      "غلال": 4420,
      "طلبات": 4421,
      "▁والعمل": 4422,
      "شير": 4423,
      "قتها": 4424,
      "▁٢٠": 4425,
      "▁الصلب": 4426,
      "▁الصوت": 4427,
      "▁توزيع": 4428,
      "▁مطار": 4429,
      "▁بتح": 4430,
      "▁صد": 4431,
      "▁صحيح": 4432,
      "▁أبطال": 4433,
      "قاذ": 4434,
      "يقاف": 4435,
      "▁تحرير": 4436,
      "ud": 4437,
      "▁وإذا": 4438,
      "وجب": 4439,
      "ضرورة": 4440,
      "رويج": 4441,
      "▁The": 4442,
      "▁You": 4443,
      "▁وبد": 4444,
      "▁ماليزيا": 4445,
      "▁بحضور": 4446,
      "▁الهلال": 4447,
      "▁مستويات": 4448,
      "إذا": 4449,
      "▁أطفال": 4450,
      "َت": 4451,
      "▁عودة": 4452,
      "▁امر": 4453,
      "▁واله": 4454,
      "▁الأراضي": 4455,
      "▁الفصل": 4456,
      "▁داعش": 4457,
      "▁حدوث": 4458,
      "▁سطح": 4459,
      "ah": 4460,
      "▁العاب": 4461,
      "▁لأول": 4462,
      "▁تسبب": 4463,
      "▁وجاء": 4464,
      "▁th": 4465,
      "▁القيا": 4466,
      "ِل": 4467,
      "▁البحرين": 4468,
      "التزام": 4469,
      "يجابية": 4470,
      "ابيع": 4471,
      "يتي": 4472,
      "pt": 4473,
      "وارع": 4474,
      ".\"": 4475,
      "▁الأستاذ": 4476,
      "▁التعليقات": 4477,
      "▁التحكم": 4478,
      "بحاث": 4479,
      "▁الخلا": 4480,
      "▁الأوروبية": 4481,
      "▁الحجم": 4482,
      "▁انا": 4483,
      "▁حزيران": 4484,
      "ائب": 4485,
      "حرك": 4486,
      "احت": 4487,
      "▁مخطط": 4488,
      "▁كشفت": 4489,
      "▁المثال": 4490,
      "▁النقد": 4491,
      "ينو": 4492,
      "بيد": 4493,
      "▁الدردشة": 4494,
      "ht": 4495,
      "▁يبلغ": 4496,
      "▁النهائي": 4497,
      "▁رسول": 4498,
      "ذين": 4499,
      "▁المطل": 4500,
      "▁مخروطية": 4501,
      "ناس": 4502,
      "▁فإنه": 4503,
      "▁خمسة": 4504,
      "▁سياسية": 4505,
      "▁العلاقة": 4506,
      "age": 4507,
      "▁متابعة": 4508,
      "▁باريس": 4509,
      "▁ألا": 4510,
      "▁افتتاح": 4511,
      "▁قائد": 4512,
      "قاد": 4513,
      "هلاك": 4514,
      "▁حفظ": 4515,
      "▁السينما": 4516,
      "▁الذه": 4517,
      "▁إمكانية": 4518,
      "قترح": 4519,
      "باحث": 4520,
      "▁دمشق": 4521,
      "جئين": 4522,
      "▁السابع": 4523,
      "▁المشكلة": 4524,
      "▁الصناعة": 4525,
      "▁خير": 4526,
      "باك": 4527,
      "▁نسب": 4528,
      "جري": 4529,
      "MT": 4530,
      "راعة": 4531,
      "▁المدن": 4532,
      "▁القانونية": 4533,
      "▁صدر": 4534,
      "▁لعام": 4535,
      "▁نقدم": 4536,
      "▁المتنقلة": 4537,
      "▁قيام": 4538,
      "▁صع": 4539,
      "▁الفيروس": 4540,
      "غطية": 4541,
      "▁ترت": 4542,
      "▁منش": 4543,
      "▁الخامس": 4544,
      "جمة": 4545,
      "▁دورة": 4546,
      "وصول": 4547,
      "راه": 4548,
      "▁بمع": 4549,
      "▁الأمراض": 4550,
      "ضل": 4551,
      "▁المحد": 4552,
      "▁دائرة": 4553,
      "▁أخذ": 4554,
      "▁الجزيرة": 4555,
      "▁مستشفى": 4556,
      "▁صار": 4557,
      "▁ويست": 4558,
      "قيام": 4559,
      "▁وأضافت": 4560,
      "▁تواجه": 4561,
      "▁يزال": 4562,
      "▁الإيط": 4563,
      "▁تستطيع": 4564,
      "▁التحالف": 4565,
      "▁سؤال": 4566,
      "▁جه": 4567,
      "▁الآلات": 4568,
      "\":": 4569,
      "تما": 4570,
      "▁اول": 4571,
      "ثمارات": 4572,
      "جرى": 4573,
      "▁حقيقة": 4574,
      "▁قطعة": 4575,
      "▁بالتعاون": 4576,
      "نيين": 4577,
      "▁بصورة": 4578,
      "▁حلول": 4579,
      "▁أفراد": 4580,
      "▁تقنية": 4581,
      "▁كمية": 4582,
      "▁والمست": 4583,
      "▁يقل": 4584,
      "الش": 4585,
      "▁المتوقع": 4586,
      "▁بالمن": 4587,
      "بغي": 4588,
      "▁فكية": 4589,
      "ass": 4590,
      "▁شرطة": 4591,
      "▁عاماً": 4592,
      "جهود": 4593,
      "▁شهادة": 4594,
      "كمل": 4595,
      "▁بالقرب": 4596,
      "▁سبق": 4597,
      "▁القوى": 4598,
      "▁الجرانيت": 4599,
      "▁لفة": 4600,
      "▁استخراج": 4601,
      "وظيف": 4602,
      "بعاد": 4603,
      "▁معا": 4604,
      "▁وتق": 4605,
      "▁بوت": 4606,
      "▁واف": 4607,
      "عه": 4608,
      "▁المعارضة": 4609,
      "انى": 4610,
      "▁النشر": 4611,
      "▁الأفضل": 4612,
      "▁نور": 4613,
      "▁المتوسط": 4614,
      "▁https": 4615,
      "يسة": 4616,
      "▁الحض": 4617,
      "▁تراجع": 4618,
      "▁المقرر": 4619,
      "▁التقنية": 4620,
      "زون": 4621,
      "▁تويتر": 4622,
      "صيل": 4623,
      "▁لأي": 4624,
      "▁إنت": 4625,
      "▁سان": 4626,
      "▁ولن": 4627,
      "▁نب": 4628,
      "▁ممكن": 4629,
      "▁اختبار": 4630,
      "▁تجاوز": 4631,
      "فاعل": 4632,
      "▁مناسبة": 4633,
      "▁إقامة": 4634,
      "▁القوة": 4635,
      "ect": 4636,
      "وائل": 4637,
      "▁الاشت": 4638,
      "درد": 4639,
      "ماش": 4640,
      "▁حاول": 4641,
      "▁الأسهم": 4642,
      "ثيل": 4643,
      "ؤسسات": 4644,
      "ive": 4645,
      "شفيات": 4646,
      "▁الآخرين": 4647,
      "ديمية": 4648,
      "▁غس": 4649,
      "▁طفل": 4650,
      "▁وجد": 4651,
      "▁المهم": 4652,
      "▁Sh": 4653,
      "▁ومد": 4654,
      "▁التك": 4655,
      "▁خطوة": 4656,
      "▁مستعملة": 4657,
      "▁تجعل": 4658,
      "ائص": 4659,
      "شات": 4660,
      "▁الامارات": 4661,
      "▁رج": 4662,
      "▁Price": 4663,
      "▁مِن": 4664,
      "▁الذكية": 4665,
      "▁خطر": 4666,
      "يبة": 4667,
      "▁متنوعة": 4668,
      "▁لمواجهة": 4669,
      "▁عشرة": 4670,
      "فد": 4671,
      "اركت": 4672,
      "▁الألعاب": 4673,
      "▁فعاليات": 4674,
      "▁سر": 4675,
      "▁طول": 4676,
      "▁ووف": 4677,
      "▁توص": 4678,
      "ثق": 4679,
      "▁قاد": 4680,
      "▁مأ": 4681,
      "قلال": 4682,
      "ربين": 4683,
      "نوان": 4684,
      "▁مواطن": 4685,
      "واح": 4686,
      "▁يظهر": 4687,
      "▁لتس": 4688,
      "▁الدراسات": 4689,
      "▁مراكز": 4690,
      "غا": 4691,
      "▁بالكامل": 4692,
      "▁لمح": 4693,
      "ابين": 4694,
      "هران": 4695,
      "▁أبي": 4696,
      "كلف": 4697,
      "▁شرح": 4698,
      "▁بلغت": 4699,
      "▁مجانا": 4700,
      "▁ميز": 4701,
      "▁شب": 4702,
      "يجار": 4703,
      "▁الساح": 4704,
      "▁جاه": 4705,
      "▁تقول": 4706,
      "صري": 4707,
      "▁الرجال": 4708,
      "واة": 4709,
      "▁المقاومة": 4710,
      "▁آسيا": 4711,
      "صميم": 4712,
      "▁وأف": 4713,
      "▁الست": 4714,
      "▁الحقيقة": 4715,
      "جميل": 4716,
      "ينيا": 4717,
      "▁السادس": 4718,
      "▁لديهم": 4719,
      "▁للمس": 4720,
      "▁....": 4721,
      "▁لوحة": 4722,
      "لفزيون": 4723,
      "ندن": 4724,
      "▁كندا": 4725,
      "عملية": 4726,
      "▁المشترك": 4727,
      "▁المتهم": 4728,
      "▁اعتبار": 4729,
      "▁عديدة": 4730,
      "ديه": 4731,
      "▁جلسة": 4732,
      "▁يز": 4733,
      "مكن": 4734,
      "▁ملموسة": 4735,
      "▁السير": 4736,
      "حتاج": 4737,
      "▁لون": 4738,
      "▁مرور": 4739,
      "عتها": 4740,
      "▁نست": 4741,
      "▁النات": 4742,
      "▁محكمة": 4743,
      "كلات": 4744,
      "ستراليا": 4745,
      "▁الوحدة": 4746,
      "وليد": 4747,
      "سيقى": 4748,
      "▁أدى": 4749,
      "▁المتط": 4750,
      "▁العثور": 4751,
      "طع": 4752,
      "زز": 4753,
      "غان": 4754,
      "حايا": 4755,
      "Tube": 4756,
      "▁الصلاة": 4757,
      "▁مرك": 4758,
      "ite": 4759,
      "▁بقيمة": 4760,
      "▁صب": 4761,
      "▁تمن": 4762,
      "▁التجاري": 4763,
      "▁تضم": 4764,
      "سو": 4765,
      "▁إزالة": 4766,
      "شيات": 4767,
      "▁اص": 4768,
      "امر": 4769,
      "▁>>": 4770,
      "▁شروط": 4771,
      "▁خطوات": 4772,
      "▁تواصل": 4773,
      "aba": 4774,
      "▁يبحث": 4775,
      "▁العب": 4776,
      "▁العلوم": 4777,
      "حمل": 4778,
      "▁لدعم": 4779,
      "▁التحقيق": 4780,
      "▁الموافق": 4781,
      "▁الضوء": 4782,
      "▁جو": 4783,
      "▁العاملين": 4784,
      "يفون": 4785,
      "▁الأموال": 4786,
      "▁زين": 4787,
      "▁النجاح": 4788,
      "▁بسهولة": 4789,
      "▁برئاسة": 4790,
      "▁تعليقات": 4791,
      "جتمع": 4792,
      "iz": 4793,
      "▁الحصى": 4794,
      "▁مستقبل": 4795,
      "▁وكيل": 4796,
      "▁الوحيد": 4797,
      "ملكة": 4798,
      "▁البلدين": 4799,
      "▁عبدالعزيز": 4800,
      "عراض": 4801,
      "▁مدرسة": 4802,
      "▁الرابط": 4803,
      "▁عليكم": 4804,
      "▁بأنها": 4805,
      "▁تمثل": 4806,
      "▁الرخام": 4807,
      "▁مسا": 4808,
      "بخ": 4809,
      "▁لاين": 4810,
      "▁غرف": 4811,
      "وضاع": 4812,
      "ity": 4813,
      "هدد": 4814,
      "▁الثانوية": 4815,
      "▁مجرد": 4816,
      "▁مالية": 4817,
      "▁أكدت": 4818,
      "▁تجمع": 4819,
      "▁المصادر": 4820,
      "▁البحرية": 4821,
      "وفيد": 4822,
      "▁ورئيس": 4823,
      "▁أثر": 4824,
      "ساطة": 4825,
      "▁المقدمة": 4826,
      "▁الكشف": 4827,
      "▁اليومية": 4828,
      "▁لشركة": 4829,
      "▁قرب": 4830,
      "▁بطاقة": 4831,
      "▁الطيران": 4832,
      "▁الته": 4833,
      "فازات": 4834,
      "▁فحص": 4835,
      "ُمْ": 4836,
      "املات": 4837,
      "▁بمس": 4838,
      "▁البيضاء": 4839,
      "▁الرد": 4840,
      "▁يحصل": 4841,
      "▁More": 4842,
      "▁تركيب": 4843,
      "▁جام": 4844,
      "ستي": 4845,
      "▁منتدى": 4846,
      "يسان": 4847,
      "▁الفيلم": 4848,
      "وعات": 4849,
      "▁المدر": 4850,
      "▁السياسة": 4851,
      "ُل": 4852,
      "▁ومنها": 4853,
      "▁اون": 4854,
      "▁للأس": 4855,
      "▁المشتركة": 4856,
      "▁أشخاص": 4857,
      "ack": 4858,
      "ليس": 4859,
      "▁الظروف": 4860,
      "قليمية": 4861,
      "▁تعلن": 4862,
      "▁مزيد": 4863,
      "ريج": 4864,
      "▁السكن": 4865,
      "رافية": 4866,
      "واز": 4867,
      "أكيد": 4868,
      "ph": 4869,
      "▁انواع": 4870,
      "▁تشهد": 4871,
      "▁شبه": 4872,
      "▁موسم": 4873,
      "▁رحلة": 4874,
      "▁ممن": 4875,
      "▁وقع": 4876,
      "▁المصنعين": 4877,
      "▁عالمية": 4878,
      "▁المشاكل": 4879,
      "▁الجهود": 4880,
      "▁تغير": 4881,
      "جهات": 4882,
      "ome": 4883,
      "▁قت": 4884,
      "▁حمد": 4885,
      "▁الأمين": 4886,
      "▁رك": 4887,
      "دخل": 4888,
      "▁طوال": 4889,
      "قيب": 4890,
      "ْت": 4891,
      "▁بيروت": 4892,
      "act": 4893,
      "شع": 4894,
      "▁تبحث": 4895,
      "ist": 4896,
      "▁أز": 4897,
      "▁بض": 4898,
      "▁الاعلام": 4899,
      "ّي": 4900,
      "▁تعريف": 4901,
      "▁الوس": 4902,
      "َو": 4903,
      "▁البداية": 4904,
      "هى": 4905,
      "ثرة": 4906,
      "▁GMT": 4907,
      "▁مقاط": 4908,
      "▁الكو": 4909,
      "▁يؤكد": 4910,
      "▁الأسود": 4911,
      "▁الصباح": 4912,
      "هوم": 4913,
      "▁المجالات": 4914,
      "▁لين": 4915,
      "▁وعدد": 4916,
      "زايد": 4917,
      "ملت": 4918,
      "▁تفسير": 4919,
      "▁العلماء": 4920,
      "طنة": 4921,
      "أكد": 4922,
      "▁التصميم": 4923,
      "▁برج": 4924,
      "▁الذات": 4925,
      "▁نهائي": 4926,
      "▁اما": 4927,
      "▁وفر": 4928,
      "▁عهد": 4929,
      "شرق": 4930,
      "▁بالص": 4931,
      "▁مهرجان": 4932,
      "وادث": 4933,
      "▁الفائ": 4934,
      "▁خيار": 4935,
      "▁مات": 4936,
      "▁انتهاء": 4937,
      "▁يبدأ": 4938,
      "▁حاجة": 4939,
      "▁إرسال": 4940,
      "▁فرق": 4941,
      "كريم": 4942,
      "▁عسكرية": 4943,
      "▁مؤكد": 4944,
      "▁مسب": 4945,
      "▁الدفع": 4946,
      "aw": 4947,
      "▁درجات": 4948,
      "▁الصيف": 4949,
      "▁للأطفال": 4950,
      "df": 4951,
      "متع": 4952,
      "▁re": 4953,
      "وسع": 4954,
      "▁الفساد": 4955,
      "▁الحقوق": 4956,
      "ونيسيا": 4957,
      "سبانيا": 4958,
      "▁تدفق": 4959,
      "▁استراتيجية": 4960,
      "وغان": 4961,
      "▁الوج": 4962,
      "▁الفل": 4963,
      "▁امام": 4964,
      "▁خطوط": 4965,
      "▁مدة": 4966,
      "▁التحرير": 4967,
      "▁المجتم": 4968,
      "▁مساعد": 4969,
      "▁إفريقيا": 4970,
      "ألة": 4971,
      "▁أربع": 4972,
      "▁الرقمية": 4973,
      "▁الممكن": 4974,
      "بلس": 4975,
      "▁السياحية": 4976,
      "▁قوله": 4977,
      "▁وسل": 4978,
      "طنا": 4979,
      "▁الحلقة": 4980,
      "▁الاتصالات": 4981,
      "▁معينة": 4982,
      "َّة": 4983,
      "▁البرو": 4984,
      "▁تعديل": 4985,
      "▁الارد": 4986,
      "▁القت": 4987,
      "نون": 4988,
      "▁الطبيب": 4989,
      "▁الرياضي": 4990,
      "▁التطبيقات": 4991,
      "▁التدريب": 4992,
      "▁الفنانة": 4993,
      "▁ثاني": 4994,
      "▁جدة": 4995,
      "▁الألمانية": 4996,
      "▁قريب": 4997,
      "▁مدرب": 4998,
      "▁التض": 4999,
      "لقاء": 5000,
      "▁الرابعة": 5001,
      "واك": 5002,
      "صدقاء": 5003,
      "يطرة": 5004,
      "▁ومش": 5005,
      "رفية": 5006,
      "▁الاستخدام": 5007,
      "▁مجاني": 5008,
      "▁الرج": 5009,
      "▁الأساسي": 5010,
      "▁كثيرا": 5011,
      "دردشة": 5012,
      "▁للر": 5013,
      "بوك": 5014,
      "ibaba": 5015,
      "صلية": 5016,
      "▁والمس": 5017,
      "▁الحاجة": 5018,
      "▁وأح": 5019,
      "▁العنف": 5020,
      "روفة": 5021,
      "▁الصناعي": 5022,
      "▁مهما": 5023,
      "▁استخدم": 5024,
      "▁الروا": 5025,
      "▁اتصل": 5026,
      "▁فما": 5027,
      "▁المهمة": 5028,
      "▁السيطرة": 5029,
      "▁إت": 5030,
      "▁مين": 5031,
      "▁ورب": 5032,
      "سائر": 5033,
      "▁روح": 5034,
      "▁ولو": 5035,
      "▁Pro": 5036,
      "▁والاج": 5037,
      "▁سرعة": 5038,
      "▁تخص": 5039,
      "برت": 5040,
      "▁الرطب": 5041,
      "ارا": 5042,
      "ai": 5043,
      "ماعيل": 5044,
      "سيوم": 5045,
      "َك": 5046,
      "▁بريطانيا": 5047,
      "طرة": 5048,
      "طا": 5049,
      "▁حضور": 5050,
      "▁تحليل": 5051,
      "▁للات": 5052,
      "▁صرف": 5053,
      "▁YouTube": 5054,
      "▁خلق": 5055,
      "هو": 5056,
      "▁طا": 5057,
      "▁برس": 5058,
      "nl": 5059,
      "دامة": 5060,
      "▁اجل": 5061,
      "▁وأس": 5062,
      "▁اهتمام": 5063,
      "▁يسمح": 5064,
      "▁الشت": 5065,
      "▁يومي": 5066,
      "رفي": 5067,
      "قس": 5068,
      "▁مقد": 5069,
      "واريخ": 5070,
      ",,": 5071,
      "▁قرية": 5072,
      "ارتز": 5073,
      "▁وصلت": 5074,
      "▁واضح": 5075,
      "▁لصالح": 5076,
      "ورها": 5077,
      "▁البيع": 5078,
      "رّ": 5079,
      "pl": 5080,
      "يير": 5081,
      "▁تابع": 5082,
      "▁والات": 5083,
      "روري": 5084,
      "▁كبار": 5085,
      "▁تزال": 5086,
      "▁الناقل": 5087,
      "طاع": 5088,
      "اسب": 5089,
      "▁مبدأ": 5090,
      "▁ممارسة": 5091,
      "▁يوميا": 5092,
      "▁بمناسبة": 5093,
      "▁الإخبار": 5094,
      "جية": 5095,
      "▁الموت": 5096,
      "▁وترك": 5097,
      "▁نيج": 5098,
      "▁حضر": 5099,
      "زر": 5100,
      "▁والسيا": 5101,
      "▁المدنية": 5102,
      "ختار": 5103,
      "▁النشاط": 5104,
      "▁النه": 5105,
      "th": 5106,
      "مرت": 5107,
      "ماح": 5108,
      "▁النباتات": 5109,
      "▁الزجاج": 5110,
      "واني": 5111,
      "▁كتابة": 5112,
      "▁لتش": 5113,
      "▁المكت": 5114,
      "راوح": 5115,
      "▁التعا": 5116,
      "▁تبلغ": 5117,
      "▁المسرح": 5118,
      "باه": 5119,
      "▁توجيه": 5120,
      "▁محرك": 5121,
      "▁بأي": 5122,
      "▁ملابس": 5123,
      "▁الدكت": 5124,
      "▁الرئا": 5125,
      "▁والمش": 5126,
      "▁عرب": 5127,
      "▁ذاته": 5128,
      "▁باكستان": 5129,
      "▁منخفض": 5130,
      "▁ضرب": 5131,
      "▁التغيير": 5132,
      "▁جوجل": 5133,
      "بدال": 5134,
      "▁كري": 5135,
      "▁تطبيقات": 5136,
      "▁وتج": 5137,
      "سعودية": 5138,
      "▁صاد": 5139,
      "▁أننا": 5140,
      "▁الفق": 5141,
      "▁الشرعية": 5142,
      "يراد": 5143,
      "ذل": 5144,
      "رجال": 5145,
      "▁تكنولوجيا": 5146,
      "ast": 5147,
      "▁وأم": 5148,
      "▁شم": 5149,
      "▁جائزة": 5150,
      "▁إجمالي": 5151,
      "▁جاءت": 5152,
      "ثمرين": 5153,
      "فايات": 5154,
      "▁إم": 5155,
      "▁بفضل": 5156,
      "▁الأسنان": 5157,
      "عن": 5158,
      "▁بسيطة": 5159,
      "ثاث": 5160,
      "رافي": 5161,
      "▁الموارد": 5162,
      "▁نعم": 5163,
      "مى": 5164,
      "▁لوك": 5165,
      "▁الملكي": 5166,
      "ولت": 5167,
      "▁بحاجة": 5168,
      "▁ذو": 5169,
      "▁شهدت": 5170,
      "صفح": 5171,
      "▁فقال": 5172,
      "▁أست": 5173,
      "▁الفلسطينيين": 5174,
      "▁تحقق": 5175,
      "ماك": 5176,
      "▁محل": 5177,
      "ضاع": 5178,
      "▁باعتبار": 5179,
      "▁التونسي": 5180,
      "▁الجمهور": 5181,
      "**": 5182,
      "▁Q": 5183,
      "▁واع": 5184,
      "فيدة": 5185,
      "▁بعنوان": 5186,
      "▁وبعض": 5187,
      "▁التب": 5188,
      "لو": 5189,
      "سى": 5190,
      "▁الافت": 5191,
      "▁لكنها": 5192,
      "ريطة": 5193,
      "هيئة": 5194,
      "▁والمح": 5195,
      "ear": 5196,
      "▁خيارات": 5197,
      "عدم": 5198,
      "▁كلمات": 5199,
      "▁متجر": 5200,
      "▁ماي": 5201,
      "▁مون": 5202,
      "▁تكر": 5203,
      "▁سياسي": 5204,
      "▁تقارير": 5205,
      "عته": 5206,
      "علومات": 5207,
      "ويه": 5208,
      "▁النيابة": 5209,
      "▁ينبغي": 5210,
      "ورج": 5211,
      "▁الزواج": 5212,
      "▁مبادرة": 5213,
      "▁الكتب": 5214,
      "َى": 5215,
      "▁سمو": 5216,
      "▁ممثل": 5217,
      "▁المسجد": 5218,
      "▁بلاده": 5219,
      "زايا": 5220,
      "▁الخل": 5221,
      "هُ": 5222,
      "▁غسيل": 5223,
      "▁الأداء": 5224,
      "▁أحداث": 5225,
      "▁كا": 5226,
      "وردين": 5227,
      "▁الديمقراطية": 5228,
      "▁صحفي": 5229,
      "صحاب": 5230,
      "ويورك": 5231,
      "▁صيانة": 5232,
      "▁اعتماد": 5233,
      "per": 5234,
      "ard": 5235,
      "▁احمد": 5236,
      "▁تتضمن": 5237,
      "▁مناسب": 5238,
      "▁مؤكدا": 5239,
      "▁مربع": 5240,
      "▁القضايا": 5241,
      "▁أنك": 5242,
      "▁مال": 5243,
      "▁j": 5244,
      "▁العدد": 5245,
      "▁صحية": 5246,
      "▁حرص": 5247,
      "▁لندن": 5248,
      "▁الرحمن": 5249,
      "▁ونت": 5250,
      "▁جدًا": 5251,
      "▁المستجد": 5252,
      "▁الأكبر": 5253,
      "▁تماما": 5254,
      "▁عباس": 5255,
      "gle": 5256,
      "منذ": 5257,
      "▁الإعلامي": 5258,
      "▁الملفات": 5259,
      "كافحة": 5260,
      "▁موض": 5261,
      "▁نجوم": 5262,
      "▁بالغ": 5263,
      "▁إنجاز": 5264,
      "▁شاب": 5265,
      "▁الجامعات": 5266,
      "▁اللعب": 5267,
      "▁الحال": 5268,
      "▁العناصر": 5269,
      "جيع": 5270,
      "▁بالر": 5271,
      "▁الليل": 5272,
      "▁القبض": 5273,
      "▁ملفات": 5274,
      "▁المستشفى": 5275,
      "▁الجزائري": 5276,
      "▁القسم": 5277,
      "▁أستراليا": 5278,
      "▁غر": 5279,
      "رياضة": 5280,
      "ذكرة": 5281,
      "▁أون": 5282,
      "▁القومي": 5283,
      "▁رش": 5284,
      "ذيب": 5285,
      "▁الأسرة": 5286,
      "▁الأحداث": 5287,
      "▁المطلوبة": 5288,
      "قيات": 5289,
      "▁وطن": 5290,
      "غوط": 5291,
      "▁قضايا": 5292,
      "▁انس": 5293,
      "ياج": 5294,
      "▁البرت": 5295,
      "وميت": 5296,
      "▁يورو": 5297,
      "▁الانتخاب": 5298,
      "▁غد": 5299,
      "▁الأشياء": 5300,
      "رفيه": 5301,
      "خير": 5302,
      "ver": 5303,
      "▁الاش": 5304,
      "ريبات": 5305,
      "▁التخلص": 5306,
      "▁الحقيقي": 5307,
      "▁تصوير": 5308,
      "▁انطلاق": 5309,
      "▁محطات": 5310,
      "▁سريع": 5311,
      "▁تعود": 5312,
      "▁النفس": 5313,
      "علوم": 5314,
      "▁وو": 5315,
      "نساء": 5316,
      "ونها": 5317,
      "▁يلت": 5318,
      "▁ليلة": 5319,
      "▁المعنية": 5320,
      "اعي": 5321,
      "▁المنظ": 5322,
      "▁منتديات": 5323,
      "▁تعتمد": 5324,
      "▁by": 5325,
      "ثمان": 5326,
      "▁بالض": 5327,
      "▁أسماء": 5328,
      "▁قائلا": 5329,
      "▁از": 5330,
      "وحات": 5331,
      "ربول": 5332,
      "▁وظيفة": 5333,
      "ith": 5334,
      "▁المستشار": 5335,
      "▁المنتدى": 5336,
      "▁حض": 5337,
      "ياط": 5338,
      "خطاء": 5339,
      "ستيك": 5340,
      "▁ناحية": 5341,
      "▁وتف": 5342,
      "▁المكر": 5343,
      "▁أخر": 5344,
      "▁كلم": 5345,
      "درس": 5346,
      "▁الجنسية": 5347,
      "فرة": 5348,
      "▁منتصف": 5349,
      "▁الخير": 5350,
      "وزير": 5351,
      "▁الزي": 5352,
      "▁سلامة": 5353,
      "▁الشارع": 5354,
      "يجة": 5355,
      "▁بري": 5356,
      "▁Z": 5357,
      "▁القيمة": 5358,
      "نك": 5359,
      "▁فرع": 5360,
      "▁تشكل": 5361,
      "▁والتنمية": 5362,
      "اطئ": 5363,
      "▁المحاجر": 5364,
      "▁مصل": 5365,
      "▁التقدم": 5366,
      "واقع": 5367,
      "▁إب": 5368,
      "▁الداخلي": 5369,
      "▁نيجيريا": 5370,
      "▁وسوف": 5371,
      "▁بمنطقة": 5372,
      "▁أموال": 5373,
      "▁بعدها": 5374,
      "▁الانتق": 5375,
      "ندات": 5376,
      "▁يعاني": 5377,
      "▁الساخ": 5378,
      "انيين": 5379,
      "▁الحج": 5380,
      "▁إثر": 5381,
      "▁الكاملة": 5382,
      "▁جانبه": 5383,
      "▁رسمي": 5384,
      "▁غيار": 5385,
      "▁لتقديم": 5386,
      "▁الميز": 5387,
      "يسى": 5388,
      "▁يحب": 5389,
      "▁القراءة": 5390,
      "▁العهد": 5391,
      "▁الخطوة": 5392,
      "▁دينار": 5393,
      "▁صفوف": 5394,
      "▁البع": 5395,
      "▁للمست": 5396,
      "▁الكامل": 5397,
      "▁الاهتمام": 5398,
      "▁شعار": 5399,
      "▁الهد": 5400,
      "بادئ": 5401,
      "▁الأجنبية": 5402,
      "▁الرقم": 5403,
      "▁Alibaba": 5404,
      "▁الزراعة": 5405,
      "▁الغرفة": 5406,
      "▁جسم": 5407,
      "ْم": 5408,
      "بيين": 5409,
      "▁درهم": 5410,
      "▁حاج": 5411,
      "▁مجتمع": 5412,
      "▁دو": 5413,
      "فو": 5414,
      "▁والأس": 5415,
      "▁الكيميا": 5416,
      "▁معنا": 5417,
      "شهد": 5418,
      "خمة": 5419,
      "قيقات": 5420,
      "▁تنزيل": 5421,
      "az": 5422,
      "▁ذه": 5423,
      "غني": 5424,
      "▁رق": 5425,
      "▁مكة": 5426,
      "▁الصحافة": 5427,
      "▁ويد": 5428,
      "▁هن": 5429,
      "▁القول": 5430,
      "▁مجالات": 5431,
      "▁العالية": 5432,
      "▁نن": 5433,
      "ريبي": 5434,
      "وبايل": 5435,
      "▁نجم": 5436,
      "ناً": 5437,
      "▁مصنعين": 5438,
      "َق": 5439,
      "▁العص": 5440,
      "▁حلم": 5441,
      "▁ثالث": 5442,
      "▁توقف": 5443,
      "عيدة": 5444,
      "جنب": 5445,
      "وفرة": 5446,
      "▁تي": 5447,
      "▁الهجوم": 5448,
      "▁للمن": 5449,
      "حدات": 5450,
      "▁السؤال": 5451,
      "وائز": 5452,
      "▁الوث": 5453,
      "ناط": 5454,
      "وضحت": 5455,
      "▁اليمني": 5456,
      "▁نشرت": 5457,
      "▁ولفت": 5458,
      "▁جراء": 5459,
      "co": 5460,
      "▁جماعة": 5461,
      "عدل": 5462,
      "▁تسعى": 5463,
      "درة": 5464,
      "▁دعا": 5465,
      "صرة": 5466,
      "▁التزام": 5467,
      "▁زايد": 5468,
      "▁الفكر": 5469,
      "يدا": 5470,
      "▁لمت": 5471,
      "▁ثابت": 5472,
      "pr": 5473,
      "▁الزراعية": 5474,
      "▁ابو": 5475,
      "▁محلية": 5476,
      "▁العا": 5477,
      "ْر": 5478,
      "اشات": 5479,
      "▁متوسط": 5480,
      "▁الصحيفة": 5481,
      "▁السويس": 5482,
      "▁مسئ": 5483,
      "▁غياب": 5484,
      "افات": 5485,
      "▁بفيروس": 5486,
      "▁لطحن": 5487,
      "▁وبحسب": 5488,
      "▁كأ": 5489,
      "▁بمحافظة": 5490,
      "روبات": 5491,
      "زق": 5492,
      "شستر": 5493,
      "▁القناة": 5494,
      "▁أمريكي": 5495,
      "▁قرارات": 5496,
      "▁الواحد": 5497,
      "رقية": 5498,
      "▁للتح": 5499,
      "حته": 5500,
      "▁بخصوص": 5501,
      "ده": 5502,
      "▁أساسي": 5503,
      "▁المائة": 5504,
      "ولايات": 5505,
      "▁اتصال": 5506,
      "▁أُ": 5507,
      "▁عاد": 5508,
      "▁الإدارية": 5509,
      "▁بالصور": 5510,
      "وند": 5511,
      "فيق": 5512,
      "اليب": 5513,
      "ليون": 5514,
      "▁عامًا": 5515,
      "▁اللاجئين": 5516,
      "▁طبيعي": 5517,
      "▁الأطراف": 5518,
      "نج": 5519,
      "هت": 5520,
      "ئناف": 5521,
      "▁عادل": 5522,
      "▁الشاب": 5523,
      "▁الرأي": 5524,
      "▁جميل": 5525,
      "▁غال": 5526,
      "▁إير": 5527,
      "▁القهوة": 5528,
      "▁بالذكر": 5529,
      "▁انتخابات": 5530,
      "▁يب": 5531,
      "▁فس": 5532,
      "▁الملكية": 5533,
      "▁يعتمد": 5534,
      "▁ياس": 5535,
      "▁وذ": 5536,
      "▁المركزية": 5537,
      "▁بِ": 5538,
      "▁الحرة": 5539,
      "▁بأس": 5540,
      "org": 5541,
      "حه": 5542,
      "▁الدراسي": 5543,
      "▁السفير": 5544,
      "▁توقيع": 5545,
      "▁ومنت": 5546,
      "▁الانتاج": 5547,
      "▁أمين": 5548,
      "▁سعودي": 5549,
      "▁أنفس": 5550,
      "oogle": 5551,
      "كرون": 5552,
      "▁نقص": 5553,
      "▁توجه": 5554,
      "▁الحيوانات": 5555,
      "شين": 5556,
      "دمي": 5557,
      "▁الانق": 5558,
      "▁جدول": 5559,
      "اريو": 5560,
      "▁طويل": 5561,
      "نز": 5562,
      "▁أين": 5563,
      "تحانات": 5564,
      "▁الهواتف": 5565,
      "▁معنى": 5566,
      "▁الأرب": 5567,
      "عدام": 5568,
      "▁تصنيف": 5569,
      "▁al": 5570,
      "▁غذ": 5571,
      "▁التابع": 5572,
      "▁والسل": 5573,
      "▁ألعاب": 5574,
      "▁العاملة": 5575,
      "يلول": 5576,
      "ناطق": 5577,
      "▁تعيين": 5578,
      "▁خلفية": 5579,
      "▁آخرين": 5580,
      "▁اتفاقية": 5581,
      "▁بقوة": 5582,
      "يتم": 5583,
      "ورين": 5584,
      "▁كلام": 5585,
      "▁رمز": 5586,
      "▁علاقات": 5587,
      "وتيوب": 5588,
      "▁عقود": 5589,
      "▁واضحة": 5590,
      "▁إرها": 5591,
      "▁الإرهابية": 5592,
      "▁النهاية": 5593,
      "شرت": 5594,
      "انيات": 5595,
      "▁كفاءة": 5596,
      "▁والض": 5597,
      "الخ": 5598,
      "▁ظروف": 5599,
      "▁الشؤون": 5600,
      "▁الطالب": 5601,
      "فيفة": 5602,
      "▁تشير": 5603,
      "▁المبيعات": 5604,
      "▁ذوي": 5605,
      "▁اتجاه": 5606,
      "▁الثقافية": 5607,
      "▁السكان": 5608,
      "▁تهدف": 5609,
      "▁الثقافي": 5610,
      "▁كول": 5611,
      "ell": 5612,
      "▁أيار": 5613,
      "راس": 5614,
      "▁احتياجات": 5615,
      "▁آثار": 5616,
      "▁الخصوص": 5617,
      "▁المرور": 5618,
      "▁ضعف": 5619,
      "▁اخرى": 5620,
      "ضمام": 5621,
      "▁النسخة": 5622,
      "▁تزيد": 5623,
      "▁تلق": 5624,
      "▁مطالب": 5625,
      "▁المعرفة": 5626,
      "▁عسكري": 5627,
      "ظهرت": 5628,
      "تام": 5629,
      "▁قض": 5630,
      "ردية": 5631,
      "▁لضمان": 5632,
      "ide": 5633,
      "يسبوك": 5634,
      "▁النصر": 5635,
      "روات": 5636,
      "▁مؤسسات": 5637,
      "▁الدر": 5638,
      "▁المستخدمين": 5639,
      "▁الكام": 5640,
      "▁قادر": 5641,
      "▁المساعدة": 5642,
      "▁تدريب": 5643,
      "▁أماكن": 5644,
      "▁نوعية": 5645,
      "ry": 5646,
      "▁قيا": 5647,
      "▁عامل": 5648,
      "▁الحملة": 5649,
      "حلة": 5650,
      "ماغ": 5651,
      "▁الرعاية": 5652,
      "▁بتقديم": 5653,
      "▁واص": 5654,
      "▁العمال": 5655,
      "▁اق": 5656,
      "خلق": 5657,
      "▁إصلاح": 5658,
      "▁للز": 5659,
      "▁الإمام": 5660,
      "▁الأدوية": 5661,
      "▁الثلاثة": 5662,
      "▁Mar": 5663,
      "ربون": 5664,
      "▁كوريا": 5665,
      "بك": 5666,
      "▁وبر": 5667,
      "▁ثقيلة": 5668,
      "▁الوك": 5669,
      "▁ويع": 5670,
      "▁السيلي": 5671,
      "▁مبلغ": 5672,
      "وريد": 5673,
      "▁المباشر": 5674,
      "▁مناق": 5675,
      "▁الأرج": 5676,
      "▁الاسم": 5677,
      "▁البلدان": 5678,
      "www": 5679,
      "يي": 5680,
      "ؤكد": 5681,
      "▁البنوك": 5682,
      "end": 5683,
      "▁الاستفادة": 5684,
      "▁اكتشاف": 5685,
      "▁!!": 5686,
      "هان": 5687,
      "▁الوظائف": 5688,
      "َس": 5689,
      "خين": 5690,
      "▁ريموند": 5691,
      "▁إضافية": 5692,
      "▁مقالات": 5693,
      "جموعات": 5694,
      "هاجر": 5695,
      "▁المعرض": 5696,
      "▁قليلة": 5697,
      "▁الثقة": 5698,
      "▁الاقت": 5699,
      "▁الصيني": 5700,
      "▁الابتد": 5701,
      "ساط": 5702,
      "▁المذك": 5703,
      "▁اليه": 5704,
      "▁كيلو": 5705,
      "▁جذ": 5706,
      "▁قرر": 5707,
      "▁ضم": 5708,
      "▁الصهي": 5709,
      "نافس": 5710,
      "▁الشبكة": 5711,
      "لافات": 5712,
      "ّب": 5713,
      "▁علامة": 5714,
      "▁سقوط": 5715,
      "▁خز": 5716,
      "▁رام": 5717,
      "▁الموظفين": 5718,
      "▁النووي": 5719,
      "وارئ": 5720,
      "▁التركيز": 5721,
      "▁مول": 5722,
      "ies": 5723,
      "▁جميلة": 5724,
      "▁الأمة": 5725,
      "▁يدخل": 5726,
      "▁صلاة": 5727,
      "▁يواجه": 5728,
      "▁تحصل": 5729,
      "▁السلع": 5730,
      "▁ترغب": 5731,
      "وريت": 5732,
      "▁مراحل": 5733,
      "▁رابط": 5734,
      "▁المدرب": 5735,
      "▁مسرح": 5736,
      "▁حقق": 5737,
      "طرية": 5738,
      "▁الهجرة": 5739,
      "▁قوي": 5740,
      "غار": 5741,
      "▁صباحاً": 5742,
      "شية": 5743,
      "▁شارع": 5744,
      "غرة": 5745,
      "خصة": 5746,
      "▁سيتي": 5747,
      "▁جوز": 5748,
      "▁مميزة": 5749,
      "▁الاتجاه": 5750,
      "دوز": 5751,
      "▁بسعر": 5752,
      "▁هى": 5753,
      "▁التكسير": 5754,
      "▁ثقافة": 5755,
      "▁المسؤولين": 5756,
      "▁قصيرة": 5757,
      "واطنين": 5758,
      "▁ونا": 5759,
      "▁اقتصاد": 5760,
      "تمام": 5761,
      "▁وتطوير": 5762,
      "▁مفاج": 5763,
      "▁وتص": 5764,
      "▁والله": 5765,
      "ish": 5766,
      "▁يكشف": 5767,
      "▁مديرية": 5768,
      "سانية": 5769,
      "▁الدستور": 5770,
      "▁واب": 5771,
      "▁والمد": 5772,
      "▁الطائرة": 5773,
      "يدرولي": 5774,
      "▁أداة": 5775,
      "▁وأنا": 5776,
      "▁طلاب": 5777,
      "▁الكوارتز": 5778,
      "▁والان": 5779,
      "هلية": 5780,
      "ضون": 5781,
      "دمير": 5782,
      "▁وأكثر": 5783,
      "▁الإيرانية": 5784,
      "مات": 5785,
      "▁التل": 5786,
      "▁سكن": 5787,
      "▁هجوم": 5788,
      "▁الفنادق": 5789,
      "▁المطلوب": 5790,
      "يضا": 5791,
      "تمال": 5792,
      "▁يشكل": 5793,
      "ain": 5794,
      "▁فئة": 5795,
      "▁اليمنية": 5796,
      "▁الأخضر": 5797,
      "ربط": 5798,
      "▁المسلسل": 5799,
      "▁الامري": 5800,
      "الفة": 5801,
      "▁مصنعي": 5802,
      "▁قليل": 5803,
      "▁شا": 5804,
      "▁كوم": 5805,
      "▁الدينية": 5806,
      "▁بانت": 5807,
      "▁ووضع": 5808,
      "ثال": 5809,
      "▁أشار": 5810,
      "▁العدل": 5811,
      "▁تدوير": 5812,
      "▁معهم": 5813,
      "▁فار": 5814,
      "▁السريع": 5815,
      "▁بعدم": 5816,
      "▁بتس": 5817,
      "ازل": 5818,
      "▁$": 5819,
      "▁العقل": 5820,
      "▁قمة": 5821,
      "▁يصبح": 5822,
      "▁تفا": 5823,
      "▁خطاب": 5824,
      "▁يرى": 5825,
      "▁نفسك": 5826,
      "▁فضلا": 5827,
      "ياهو": 5828,
      "ترا": 5829,
      "▁استخدامها": 5830,
      "▁قلي": 5831,
      "ائمة": 5832,
      "▁اليابان": 5833,
      "▁ففي": 5834,
      "▁الإسباني": 5835,
      "▁أمل": 5836,
      "حصل": 5837,
      "عمليات": 5838,
      "نه": 5839,
      "▁أعراض": 5840,
      "كتاب": 5841,
      "▁النب": 5842,
      "▁بقيادة": 5843,
      "▁بجانب": 5844,
      "ركان": 5845,
      "▁استقبال": 5846,
      "ريكا": 5847,
      "حوال": 5848,
      "▁وأشارت": 5849,
      "ord": 5850,
      "▁ستة": 5851,
      "قليمي": 5852,
      "هداء": 5853,
      "▁المرج": 5854,
      "▁الحماية": 5855,
      "▁الطلبة": 5856,
      "▁ورقة": 5857,
      "▁عشرات": 5858,
      "▁قول": 5859,
      "▁سيما": 5860,
      "▁ويل": 5861,
      "▁الواقعة": 5862,
      "▁المحتوى": 5863,
      "حركة": 5864,
      "▁مساعدة": 5865,
      "حام": 5866,
      "▁حياته": 5867,
      "ust": 5868,
      "ّع": 5869,
      "َّ": 5870,
      "▁شديد": 5871,
      "▁وبال": 5872,
      "سيارات": 5873,
      "▁وتقديم": 5874,
      "▁إلغاء": 5875,
      "▁الأماكن": 5876,
      "▁للمرة": 5877,
      "▁الدهون": 5878,
      "▁الغرب": 5879,
      "▁تكشف": 5880,
      "▁أوضح": 5881,
      "▁إغلاق": 5882,
      "▁يسمى": 5883,
      "▁سيف": 5884,
      "▁بيد": 5885,
      "▁الأحيان": 5886,
      "▁ودعم": 5887,
      "▁الصيد": 5888,
      "▁مزد": 5889,
      "▁امرأة": 5890,
      "غات": 5891,
      "se": 5892,
      "▁المبادرة": 5893,
      "▁وفقًا": 5894,
      "▁البور": 5895,
      "otel": 5896,
      "▁للي": 5897,
      "▁المدى": 5898,
      "▁الغسيل": 5899,
      "حيح": 5900,
      "▁فهذا": 5901,
      "اااا": 5902,
      "▁قواعد": 5903,
      "▁أصل": 5904,
      "▁سهلة": 5905,
      "▁النهائية": 5906,
      "▁دولية": 5907,
      "▁المصريين": 5908,
      "▁ضوء": 5909,
      "▁الدنيا": 5910,
      "نها": 5911,
      "▁صخرة": 5912,
      "سبوك": 5913,
      "▁يشعر": 5914,
      "▁لمش": 5915,
      "ly": 5916,
      "▁de": 5917,
      "▁الأنشطة": 5918,
      "▁ترتيب": 5919,
      "▁الخروج": 5920,
      "▁والمر": 5921,
      "▁والثق": 5922,
      "▁تور": 5923,
      "ذى": 5924,
      "ie": 5925,
      "▁وفد": 5926,
      "▁العقوبات": 5927,
      "▁حماس": 5928,
      "▁يجري": 5929,
      "جاجات": 5930,
      "sp": 5931,
      "▁واخت": 5932,
      "▁الأعضاء": 5933,
      "اضر": 5934,
      "▁أند": 5935,
      "دريب": 5936,
      "▁ضمان": 5937,
      "▁وحدات": 5938,
      "▁يضم": 5939,
      "▁طبية": 5940,
      "▁نظم": 5941,
      "▁الرأس": 5942,
      "▁ملت": 5943,
      "▁الانتهاء": 5944,
      "ياز": 5945,
      "▁pm": 5946,
      "▁تؤدي": 5947,
      "▁إج": 5948,
      "ئون": 5949,
      "▁تسليم": 5950,
      "▁التوا": 5951,
      "▁ولذلك": 5952,
      "▁المحافظات": 5953,
      "▁قررت": 5954,
      "▁وكيف": 5955,
      "▁إيطاليا": 5956,
      "▁وأوضحت": 5957,
      "▁الإنجليزي": 5958,
      "قلب": 5959,
      "▁تتميز": 5960,
      "▁خطط": 5961,
      "▁عمرو": 5962,
      "ُوا": 5963,
      "ّى": 5964,
      "حويل": 5965,
      "▁والآ": 5966,
      "▁::": 5967,
      "شرطة": 5968,
      "du": 5969,
      "▁التقليدية": 5970,
      "▁السوداني": 5971,
      "▁الألماني": 5972,
      "▁us": 5973,
      "▁اط": 5974,
      "بدء": 5975,
      "▁المعروف": 5976,
      "▁الأسباب": 5977,
      "▁معين": 5978,
      "▁بمر": 5979,
      "ولاية": 5980,
      "كاء": 5981,
      "▁مبيعات": 5982,
      "َنْ": 5983,
      "▁حسابات": 5984,
      "▁أطلق": 5985,
      "▁وأنه": 5986,
      "▁آب": 5987,
      "وانب": 5988,
      "▁الموقف": 5989,
      "▁تنمية": 5990,
      "خيل": 5991,
      "▁الفلب": 5992,
      "وتا": 5993,
      "▁وأخ": 5994,
      "▁سعود": 5995,
      "▁وزيرة": 5996,
      "▁فنادق": 5997,
      "▁ذهب": 5998,
      "▁تأسيس": 5999,
      "ائلات": 6000,
      "▁كنا": 6001,
      "▁السياق": 6002,
      "نياهو": 6003,
      "▁رئاسة": 6004,
      "ran": 6005,
      "▁فاز": 6006,
      "▁للانت": 6007,
      "▁مصالح": 6008,
      "▁المحا": 6009,
      "نام": 6010,
      "ماذج": 6011,
      "زيمة": 6012,
      "▁يعت": 6013,
      "▁مواصفات": 6014,
      "▁الصرف": 6015,
      "▁اك": 6016,
      "سيد": 6017,
      "▁النجم": 6018,
      "▁ومص": 6019,
      "▁بينهما": 6020,
      "▁الأكا": 6021,
      "▁سليمان": 6022,
      "abic": 6023,
      "▁لفترة": 6024,
      "▁لتر": 6025,
      "▁المرة": 6026,
      "▁منتج": 6027,
      "▁مرح": 6028,
      "▁طبيعية": 6029,
      "▁ولكنه": 6030,
      "ّف": 6031,
      "شري": 6032,
      "▁العدالة": 6033,
      "▁am": 6034,
      "▁خلاله": 6035,
      "رائب": 6036,
      "▁الشكل": 6037,
      "▁Pl": 6038,
      "▁إثراء": 6039,
      "▁الشخصي": 6040,
      "▁الانسان": 6041,
      "▁ولل": 6042,
      "▁مسار": 6043,
      "▁جمهورية": 6044,
      "ارته": 6045,
      "▁التوالي": 6046,
      "اوي": 6047,
      "▁سما": 6048,
      "▁الإت": 6049,
      "▁نيسان": 6050,
      "▁حرارة": 6051,
      "▁طائرة": 6052,
      "تيات": 6053,
      "▁عائلة": 6054,
      "▁خليفة": 6055,
      "▁البالغ": 6056,
      "قين": 6057,
      "▁منجم": 6058,
      "▁اهم": 6059,
      "شارات": 6060,
      "نكر": 6061,
      "▁الحزام": 6062,
      "▁تشت": 6063,
      "▁فيسبوك": 6064,
      "▁;": 6065,
      "▁حوار": 6066,
      "▁الترب": 6067,
      "▁لحقوق": 6068,
      "▁رأي": 6069,
      "▁تعاني": 6070,
      "%،": 6071,
      "▁الحدث": 6072,
      "▁الالتزام": 6073,
      "▁طبيب": 6074,
      "▁نيويورك": 6075,
      "▁لقب": 6076,
      "ينت": 6077,
      "ech": 6078,
      "▁وأع": 6079,
      "▁عط": 6080,
      "▁التخطيط": 6081,
      "رابلس": 6082,
      "▁التاريخية": 6083,
      "▁الإعلامية": 6084,
      "▁الكلمات": 6085,
      "راط": 6086,
      "▁تصدر": 6087,
      "▁المرضى": 6088,
      "▁حصلت": 6089,
      "▁لبعض": 6090,
      "▁كبيرا": 6091,
      "▁_": 6092,
      "▁الخطوات": 6093,
      "▁مؤخرا": 6094,
      "▁كلها": 6095,
      "▁الشحن": 6096,
      "▁يقت": 6097,
      "▁وتست": 6098,
      "▁دونالد": 6099,
      "واط": 6100,
      "▁لتص": 6101,
      "علي": 6102,
      "▁لسنة": 6103,
      "وست": 6104,
      "▁الحرير": 6105,
      "▁تؤكد": 6106,
      "▁طهران": 6107,
      "▁رصد": 6108,
      "فز": 6109,
      "▁للعام": 6110,
      "▁مغل": 6111,
      "▁الحرية": 6112,
      "كرر": 6113,
      "صدير": 6114,
      "▁الذكر": 6115,
      "ebook": 6116,
      "▁رسوم": 6117,
      "▁تتعلق": 6118,
      "▁ليفربول": 6119,
      "▁الحوثي": 6120,
      "الحة": 6121,
      "وضة": 6122,
      "▁pdf": 6123,
      "▁عدن": 6124,
      "ارين": 6125,
      "طالب": 6126,
      "▁الخامسة": 6127,
      "▁حلب": 6128,
      "▁عما": 6129,
      "هلا": 6130,
      "▁شكر": 6131,
      "وائر": 6132,
      "▁الرسوم": 6133,
      "▁اعتقال": 6134,
      "▁ويقول": 6135,
      "▁نقوم": 6136,
      "▁تجارة": 6137,
      "▁أشكال": 6138,
      "▁نصائح": 6139,
      "▁ملع": 6140,
      "▁يحاول": 6141,
      "▁يض": 6142,
      "وقوف": 6143,
      "▁تقريب": 6144,
      "▁وأكدت": 6145,
      "▁المشاهد": 6146,
      "▁لحظة": 6147,
      "▁الأنباء": 6148,
      "▁حما": 6149,
      "▁الفرصة": 6150,
      "نبول": 6151,
      "▁وكأن": 6152,
      "▁مدن": 6153,
      "▁خبراء": 6154,
      "▁إسلام": 6155,
      "▁الأقصى": 6156,
      "▁الارت": 6157,
      "ery": 6158,
      "▁شعبية": 6159,
      "▁الذهاب": 6160,
      "▁يعلم": 6161,
      "▁جرى": 6162,
      "▁نصر": 6163,
      "▁الاولى": 6164,
      "ْل": 6165,
      "▁at": 6166,
      "▁التمويل": 6167,
      "▁بأفضل": 6168,
      "▁طارق": 6169,
      "▁ويجب": 6170,
      "ْن": 6171,
      "-%": 6172,
      "بادرات": 6173,
      "قالة": 6174,
      "▁لحماية": 6175,
      "▁الخطوط": 6176,
      "سه": 6177,
      "متاع": 6178,
      "ظاهرات": 6179,
      "▁جون": 6180,
      "▁ناقل": 6181,
      "راسات": 6182,
      "يتامين": 6183,
      "▁رمل": 6184,
      "قدام": 6185,
      "هيار": 6186,
      "ادثة": 6187,
      "▁لإعادة": 6188,
      "▁خصم": 6189,
      "اكمة": 6190,
      "▁تصبح": 6191,
      "حض": 6192,
      "▁سري": 6193,
      "▁مبارك": 6194,
      "سطنبول": 6195,
      "▁لغة": 6196,
      "▁التأمين": 6197,
      "حك": 6198,
      "▁تعيش": 6199,
      "▁الأطعمة": 6200,
      "▁السوداء": 6201,
      "▁الكن": 6202,
      "▁بلدية": 6203,
      "ودا": 6204,
      "▁إط": 6205,
      "▁بسيط": 6206,
      "▁ذكرت": 6207,
      "داعش": 6208,
      "▁العيد": 6209,
      "▁ورق": 6210,
      "▁الدقيق": 6211,
      "▁مراجعة": 6212,
      "▁يتحدث": 6213,
      "▁نجد": 6214,
      "آلة": 6215,
      "▁مقدمة": 6216,
      "”،": 6217,
      "▁تموز": 6218,
      "▁حصول": 6219,
      "▁المبارك": 6220,
      "▁التفكير": 6221,
      "▁بالمئة": 6222,
      "▁سأ": 6223,
      "▁الإخوان": 6224,
      "▁والاجتما": 6225,
      "▁الجيل": 6226,
      "▁سحب": 6227,
      "▁اكبر": 6228,
      "▁اليون": 6229,
      "▁باقي": 6230,
      "▁الترا": 6231,
      "يتد": 6232,
      "▁المتاحة": 6233,
      "زنة": 6234,
      "جلات": 6235,
      "sh": 6236,
      "وقت": 6237,
      "▁سك": 6238,
      "بيئة": 6239,
      "كَ": 6240,
      "غو": 6241,
      "▁منز": 6242,
      "▁بمشاركة": 6243,
      "▁استعمال": 6244,
      "▁غسالة": 6245,
      "ايا": 6246,
      "▁حجز": 6247,
      "▁بمست": 6248,
      "▁وشدد": 6249,
      "▁تسمح": 6250,
      "خفيف": 6251,
      "▁وعندما": 6252,
      "▁ميد": 6253,
      "▁يعلن": 6254,
      "ودان": 6255,
      "▁واقع": 6256,
      "بطولة": 6257,
      "▁أنظمة": 6258,
      "روي": 6259,
      "ابير": 6260,
      "▁وتر": 6261,
      "▁الكلية": 6262,
      "▁السرعة": 6263,
      "▁رحم": 6264,
      "▁أغلب": 6265,
      "ويف": 6266,
      "شى": 6267,
      "▁حالياً": 6268,
      "▁شاء": 6269,
      "مائة": 6270,
      "▁الموجود": 6271,
      "▁بإن": 6272,
      "acebook": 6273,
      "ُون": 6274,
      "▁النيل": 6275,
      "▁مانشستر": 6276,
      "▁المستمر": 6277,
      "\"..": 6278,
      "سيك": 6279,
      "▁ثان": 6280,
      "اناة": 6281,
      "غت": 6282,
      "▁حظ": 6283,
      "▁فات": 6284,
      "سير": 6285,
      "▁خصوصا": 6286,
      "▁أردوغان": 6287,
      "▁الحبوب": 6288,
      "▁الأسلحة": 6289,
      "▁الاستراتيجية": 6290,
      "▁ماء": 6291,
      "قاهرة": 6292,
      "▁مسابقة": 6293,
      "▁وإنما": 6294,
      "▁مصري": 6295,
      "رشيف": 6296,
      "▁الصناعات": 6297,
      "▁الخيار": 6298,
      "▁تطور": 6299,
      "▁لابد": 6300,
      "أم": 6301,
      "▁عصر": 6302,
      "▁وفقاً": 6303,
      "▁price": 6304,
      "ber": 6305,
      "▁تواجد": 6306,
      "هاي": 6307,
      "▁لإنتاج": 6308,
      "كاتب": 6309,
      "▁جيدا": 6310,
      "اوف": 6311,
      "▁اث": 6312,
      "وبية": 6313,
      "▁القي": 6314,
      "▁رسمية": 6315,
      "تهي": 6316,
      "▁بيئة": 6317,
      "▁يرغب": 6318,
      "▁رعاية": 6319,
      "▁موسكو": 6320,
      "ادثات": 6321,
      "▁الأطباء": 6322,
      "▁بعضها": 6323,
      "▁النتيجة": 6324,
      "▁اللق": 6325,
      "▁أولى": 6326,
      "▁العش": 6327,
      "▁ناصر": 6328,
      "▁بدر": 6329,
      "ؤسسة": 6330,
      "▁سلام": 6331,
      "زاء": 6332,
      "ug": 6333,
      "يتين": 6334,
      "▁وزراء": 6335,
      "▁دائمًا": 6336,
      "▁فشل": 6337,
      "وحيد": 6338,
      "ًّا": 6339,
      "ذاكرة": 6340,
      "▁القديم": 6341,
      "▁كف": 6342,
      "▁يجد": 6343,
      "▁خفض": 6344,
      "▁عنا": 6345,
      "▁السيدة": 6346,
      "▁منصور": 6347,
      "▁وتحديد": 6348,
      "▁الكلام": 6349,
      "ابي": 6350,
      "▁قياس": 6351,
      "▁تؤثر": 6352,
      "▁يتطلب": 6353,
      "▁ويُ": 6354,
      "▁ar": 6355,
      "▁مير": 6356,
      "▁الأهداف": 6357,
      "جام": 6358,
      "wit": 6359,
      "net": 6360,
      "ونالد": 6361,
      "وزع": 6362,
      "▁القطاعات": 6363,
      "▁مسيرة": 6364,
      "▁زوجها": 6365,
      "مثل": 6366,
      "شيا": 6367,
      "▁الصحيح": 6368,
      "▁خارجية": 6369,
      "▁السج": 6370,
      "صرف": 6371,
      "راقب": 6372,
      "▁دقيق": 6373,
      "▁هند": 6374,
      "لاعب": 6375,
      "▁حزام": 6376,
      "ارى": 6377,
      "▁التا": 6378,
      "لفات": 6379,
      "▁صديق": 6380,
      "▁بكثير": 6381,
      "ّق": 6382,
      "▁المشاركين": 6383,
      "▁الأصلي": 6384,
      "▁السويد": 6385,
      "▁مرو": 6386,
      "خيصة": 6387,
      "ومان": 6388,
      "▁مشيراً": 6389,
      "▁العناية": 6390,
      "io": 6391,
      "▁الغرف": 6392,
      "▁أور": 6393,
      "▁الجلسة": 6394,
      "ِين": 6395,
      "▁لمعرفة": 6396,
      "▁بعمل": 6397,
      "▁البول": 6398,
      "▁تغذية": 6399,
      "غرق": 6400,
      "ـ«": 6401,
      "▁اثنين": 6402,
      "شراف": 6403,
      "▁الفضاء": 6404,
      "وظفي": 6405,
      "▁لعلاج": 6406,
      "ومني": 6407,
      "▁قفازات": 6408,
      "▁الزيتون": 6409,
      "▁رسائل": 6410,
      "منتجات": 6411,
      "خصصات": 6412,
      "▁المسؤولية": 6413,
      "ax": 6414,
      "▁ويكي": 6415,
      "▁البتر": 6416,
      "▁com": 6417,
      "▁الانف": 6418,
      "▁العملة": 6419,
      "▁تردد": 6420,
      "▁باللغة": 6421,
      "af": 6422,
      "▁أمراض": 6423,
      "روك": 6424,
      "لاص": 6425,
      "كرانيا": 6426,
      "▁فح": 6427,
      "▁شحن": 6428,
      "▁أطلقت": 6429,
      "صائل": 6430,
      "▁العلامة": 6431,
      "هادات": 6432,
      "▁مقت": 6433,
      "▁تمويل": 6434,
      "▁الأولية": 6435,
      "▁الغربي": 6436,
      "فف": 6437,
      "▁مجه": 6438,
      "▁دعوة": 6439,
      "▁ساب": 6440,
      "زيج": 6441,
      "وقعة": 6442,
      "يجابي": 6443,
      "ائعة": 6444,
      "▁يحي": 6445,
      "عيين": 6446,
      "لاين": 6447,
      "▁يملك": 6448,
      "▁مجموعات": 6449,
      "▁يرج": 6450,
      "واه": 6451,
      "▁مصلحة": 6452,
      "▁يعتقد": 6453,
      "▁أقدم": 6454,
      "اجم": 6455,
      "▁جبل": 6456,
      "▁صفقة": 6457,
      "▁لتم": 6458,
      "▁الإنجليزية": 6459,
      "▁العقد": 6460,
      "▁الشمال": 6461,
      "ستها": 6462,
      "ows": 6463,
      "▁وذكرت": 6464,
      "▁ونقل": 6465,
      "▁تبقى": 6466,
      "▁المريض": 6467,
      "شام": 6468,
      "▁للمشاركة": 6469,
      "ile": 6470,
      "▁القنوات": 6471,
      "▁العمومية": 6472,
      "لالات": 6473,
      "▁الإصلاح": 6474,
      "يلة": 6475,
      "▁ثمن": 6476,
      "▁الكلي": 6477,
      "▁يفت": 6478,
      "▁البريطاني": 6479,
      "▁المحيط": 6480,
      "فلت": 6481,
      "▁الإجتما": 6482,
      "▁بمث": 6483,
      "▁الجمع": 6484,
      "▁تأكيد": 6485,
      "اده": 6486,
      "▁=": 6487,
      "▁الآثار": 6488,
      "عاة": 6489,
      "بوط": 6490,
      "▁منافسات": 6491,
      "▁يطلق": 6492,
      "▁قادة": 6493,
      "▁عالي": 6494,
      "▁Com": 6495,
      "▁بلدة": 6496,
      "▁السوريين": 6497,
      "▁التحت": 6498,
      "▁آلية": 6499,
      "▁بجامعة": 6500,
      "فذة": 6501,
      "▁نتنياهو": 6502,
      "برة": 6503,
      "▁عاش": 6504,
      "▁تفعيل": 6505,
      "▁Google": 6506,
      "وقيع": 6507,
      "▁الرسالة": 6508,
      "▁تعاون": 6509,
      "▁الجوي": 6510,
      "▁فج": 6511,
      "▁العائلة": 6512,
      "صيب": 6513,
      "قاش": 6514,
      "▁ولكنها": 6515,
      "▁والخدمات": 6516,
      "▁انع": 6517,
      "جمال": 6518,
      "▁نفسي": 6519,
      "▁الجو": 6520,
      "ديوهات": 6521,
      "▁الليبي": 6522,
      "oad": 6523,
      "▁الشعور": 6524,
      "كرم": 6525,
      "▁هكذا": 6526,
      "▁للجميع": 6527,
      "▁الإخبارية": 6528,
      "لفة": 6529,
      "▁والإن": 6530,
      "▁ظهرت": 6531,
      "▁تسا": 6532,
      "▁شؤون": 6533,
      "▁الرائدة": 6534,
      "▁معهد": 6535,
      "صيلة": 6536,
      "▁الفلبين": 6537,
      "▁٣": 6538,
      "▁الوكالة": 6539,
      "▁يسبب": 6540,
      "▁وجهة": 6541,
      "▁لمد": 6542,
      "▁تقلي": 6543,
      "وائي": 6544,
      "يونيو": 6545,
      "▁المستهلك": 6546,
      "▁sh": 6547,
      "▁آذار": 6548,
      "مب": 6549,
      "▁الخبراء": 6550,
      "تن": 6551,
      "ازة": 6552,
      "▁الصراع": 6553,
      "ower": 6554,
      "▁تهديد": 6555,
      "▁سلم": 6556,
      "▁مشاهد": 6557,
      "▁حادث": 6558,
      "▁منك": 6559,
      "راغ": 6560,
      "▁عاجل": 6561,
      "▁لحم": 6562,
      "▁وتعزيز": 6563,
      "▁يحقق": 6564,
      "▁سيل": 6565,
      "▁فإذا": 6566,
      "▁الصابون": 6567,
      "قدير": 6568,
      "▁المهرجان": 6569,
      "تيش": 6570,
      "▁الخز": 6571,
      "▁معرف": 6572,
      "▁الحساب": 6573,
      "وذ": 6574,
      "▁الأوضاع": 6575,
      "▁حقيقية": 6576,
      "جملة": 6577,
      "فسة": 6578,
      "ديلات": 6579,
      "▁فكر": 6580,
      "▁رياضة": 6581,
      "بلوماسية": 6582,
      "▁للمت": 6583,
      "حاق": 6584,
      "سف": 6585,
      "▁ثورة": 6586,
      "▁الميلاد": 6587,
      "▁لانت": 6588,
      "زه": 6589,
      "فاض": 6590,
      "▁بمثابة": 6591,
      "▁مراقبة": 6592,
      "▁ترى": 6593,
      "▁المئة": 6594,
      "▁المميز": 6595,
      "▁الإيطالي": 6596,
      "▁التهاب": 6597,
      "▁كتلة": 6598,
      "قيبة": 6599,
      "▁الإطلاق": 6600,
      "ديال": 6601,
      "▁السك": 6602,
      "وكب": 6603,
      "▁ورغم": 6604,
      "▁دائماً": 6605,
      "دو": 6606,
      "▁سيع": 6607,
      "▁جرائم": 6608,
      "يتش": 6609,
      "▁News": 6610,
      "▁الشديد": 6611,
      "ee": 6612,
      "▁دير": 6613,
      "ظى": 6614,
      "اجد": 6615,
      "▁والأم": 6616,
      "تيال": 6617,
      "▁يمتلك": 6618,
      "ائط": 6619,
      "▁صي": 6620,
      "▁كله": 6621,
      "▁خروج": 6622,
      "▁الجنس": 6623,
      "▁أجمل": 6624,
      "▁لتطوير": 6625,
      "▁جير": 6626,
      "▁المحتلة": 6627,
      "▁مستمر": 6628,
      "▁\".": 6629,
      "▁العروض": 6630,
      "▁مقال": 6631,
      "▁رحلات": 6632,
      "▁قدمت": 6633,
      "▁جولة": 6634,
      "ميق": 6635,
      "وكي": 6636,
      "▁التحتية": 6637,
      "ئك": 6638,
      "أخبار": 6639,
      "مسا": 6640,
      "▁مطلع": 6641,
      "ره": 6642,
      "▁المصرى": 6643,
      "▁جزيرة": 6644,
      "ربونات": 6645,
      "▁المخدرات": 6646,
      "عله": 6647,
      "▁يسعى": 6648,
      "▁القاعدة": 6649,
      "▁جمي": 6650,
      "▁يشارك": 6651,
      "▁مطلوب": 6652,
      "▁تأمين": 6653,
      "▁ايران": 6654,
      "▁تمتلك": 6655,
      "▁الوفد": 6656,
      "▁المنافسة": 6657,
      "▁ورفع": 6658,
      "▁الرأ": 6659,
      "▁الطف": 6660,
      "▁النفسية": 6661,
      "▁الصاد": 6662,
      "▁العمودية": 6663,
      "▁ويح": 6664,
      "ؤل": 6665,
      "▁أنشطة": 6666,
      "▁الصغير": 6667,
      "وده": 6668,
      "▁Sp": 6669,
      "كوم": 6670,
      "▁الزيارة": 6671,
      "▁تثبيت": 6672,
      "روسيا": 6673,
      "▁السلاح": 6674,
      "▁التنسيق": 6675,
      "▁زوجته": 6676,
      "▁ترح": 6677,
      "▁المنازل": 6678,
      "بلد": 6679,
      "▁الغيار": 6680,
      "▁وبدأ": 6681,
      "سته": 6682,
      "▁اقتصادية": 6683,
      "▁وخلال": 6684,
      "▁القمة": 6685,
      "▁تحول": 6686,
      "بيان": 6687,
      "▁البرازيل": 6688,
      "وفة": 6689,
      "▁مقدم": 6690,
      "جازات": 6691,
      "▁موسى": 6692,
      "الفات": 6693,
      "ئت": 6694,
      "▁البوا": 6695,
      "rom": 6696,
      "▁الجماهير": 6697,
      "▁يشت": 6698,
      "ian": 6699,
      "▁منظومة": 6700,
      "▁أمنية": 6701,
      "شرح": 6702,
      "طى": 6703,
      "جو": 6704,
      "▁التحديات": 6705,
      "صلحة": 6706,
      "▁المخاطر": 6707,
      "▁أعد": 6708,
      "هرات": 6709,
      "▁لتع": 6710,
      "▁الحمراء": 6711,
      "▁التشري": 6712,
      "يدن": 6713,
      "▁فيتامين": 6714,
      "ينغ": 6715,
      "▁الموس": 6716,
      "ld": 6717,
      "▁مغلقة": 6718,
      "▁وجل": 6719,
      "ستخدمي": 6720,
      "▁المكرمة": 6721,
      "▁الديمقراطي": 6722,
      "يمن": 6723,
      "▁الالكتروني": 6724,
      "▁والتى": 6725,
      "▁سبح": 6726,
      "البات": 6727,
      "▁لمنع": 6728,
      "▁بدا": 6729,
      "ونايتد": 6730,
      "▁لعدم": 6731,
      "▁أسابيع": 6732,
      "▁الجميلة": 6733,
      "▁حدد": 6734,
      "▁الملي": 6735,
      "▁عُ": 6736,
      "▁للوصول": 6737,
      "▁يدعم": 6738,
      "هذه": 6739,
      "وعي": 6740,
      "▁مشترك": 6741,
      "▁تتبع": 6742,
      "▁والعالم": 6743,
      "▁حتي": 6744,
      "▁يؤثر": 6745,
      "سمى": 6746,
      "▁القمر": 6747,
      "▁بالتن": 6748,
      "▁جهد": 6749,
      "ائك": 6750,
      "▁فاع": 6751,
      "ial": 6752,
      "▁القمح": 6753,
      "▁وطنية": 6754,
      "▁عائل": 6755,
      "▁سيناء": 6756,
      "▁الجهة": 6757,
      "▁مئات": 6758,
      "▁المشروعات": 6759,
      "قيه": 6760,
      "أمين": 6761,
      "▁متك": 6762,
      "▁x": 6763,
      "▁الوقود": 6764,
      "▁اعتبر": 6765,
      "شعر": 6766,
      "▁تجارية": 6767,
      "▁الفائدة": 6768,
      "▁تجار": 6769,
      "▁الحكومي": 6770,
      "▁للأمم": 6771,
      "▁الاير": 6772,
      "▁طرابلس": 6773,
      "▁سيس": 6774,
      "▁القرارات": 6775,
      "▁مسؤولية": 6776,
      "وته": 6777,
      "▁الاصطنا": 6778,
      "▁أى": 6779,
      "▁المنزلية": 6780,
      "▁الدكتورة": 6781,
      "▁مكون": 6782,
      "▁تختلف": 6783,
      "td": 6784,
      "▁وربما": 6785,
      "سفة": 6786,
      "▁الفعل": 6787,
      "▁المناخ": 6788,
      "▁تضمن": 6789,
      "▁إشارة": 6790,
      "▁الحاج": 6791,
      "ـ.": 6792,
      "▁منازل": 6793,
      "▁تجديد": 6794,
      "فيز": 6795,
      "▁البرلم": 6796,
      "▁الضفة": 6797,
      "تحان": 6798,
      "ارئ": 6799,
      "▁الدرجة": 6800,
      "َال": 6801,
      "▁شيئ": 6802,
      "▁الخشب": 6803,
      "▁يخص": 6804,
      "فتاء": 6805,
      "▁وإلى": 6806,
      "▁النفايات": 6807,
      "فعال": 6808,
      "▁سياق": 6809,
      "▁الإسكندرية": 6810,
      "▁وتوفير": 6811,
      "▁يضع": 6812,
      "جمعية": 6813,
      "▁المباريات": 6814,
      "▁فائ": 6815,
      "▁وفى": 6816,
      "▁معدلات": 6817,
      "▁الجي": 6818,
      "▁يشير": 6819,
      "▁نبات": 6820,
      "▁بدعم": 6821,
      "▁موقعنا": 6822,
      "▁مكونات": 6823,
      "ثمارية": 6824,
      "جوء": 6825,
      "▁ذي": 6826,
      "▁الغذائي": 6827,
      "▁العصر": 6828,
      "▁الجه": 6829,
      "شم": 6830,
      "▁وزيادة": 6831,
      "▁مضيف": 6832,
      "▁كاف": 6833,
      "ary": 6834,
      "ستير": 6835,
      "رابات": 6836,
      "فرن": 6837,
      "▁مهارات": 6838,
      "▁يه": 6839,
      "▁المكونات": 6840,
      "▁أفكار": 6841,
      "▁أسهم": 6842,
      "▁بجميع": 6843,
      "المزيد": 6844,
      "راتيجيات": 6845,
      "▁الرائعة": 6846,
      "▁الأردنية": 6847,
      "▁التراث": 6848,
      "كلم": 6849,
      "ّت": 6850,
      "▁ادارة": 6851,
      "ناح": 6852,
      "▁حديد": 6853,
      "▁مشاركت": 6854,
      "▁الحيوية": 6855,
      "▁يعانون": 6856,
      "▁التغذية": 6857,
      "▁مرس": 6858,
      "▁اليس": 6859,
      "▁الرؤية": 6860,
      "▁تعب": 6861,
      "ong": 6862,
      "افلة": 6863,
      "▁هول": 6864,
      "▁علماء": 6865,
      "▁التدخل": 6866,
      "▁جورج": 6867,
      "▁الامر": 6868,
      "امرة": 6869,
      "▁لنقل": 6870,
      "▁هواتف": 6871,
      "▁غالب": 6872,
      "▁فم": 6873,
      "ِر": 6874,
      "▁السلامة": 6875,
      "▁أولا": 6876,
      "ink": 6877,
      "▁نح": 6878,
      "ناد": 6879,
      "▁كثيراً": 6880,
      "▁Co": 6881,
      "▁السمو": 6882,
      "▁بالا": 6883,
      "كاب": 6884,
      "▁تدعم": 6885,
      "▁زجاج": 6886,
      "▁الذرة": 6887,
      "راوي": 6888,
      "▁موت": 6889,
      "يمات": 6890,
      "▁ربع": 6891,
      "▁الألغ": 6892,
      "▁النقاط": 6893,
      "▁علامات": 6894,
      "ضادة": 6895,
      "▁وجدت": 6896,
      "▁أية": 6897,
      "▁الاستقرار": 6898,
      "▁أسواق": 6899,
      "▁أولاً": 6900,
      "▁ليكون": 6901,
      "▁بنظام": 6902,
      "لفية": 6903,
      "كاة": 6904,
      "▁السيليكا": 6905,
      "▁الصحراء": 6906,
      "▁كور": 6907,
      "▁متى": 6908,
      "--------": 6909,
      "قاق": 6910,
      "▁التصنيع": 6911,
      "▁مشيرة": 6912,
      "▁يمكننا": 6913,
      "▁المطحنة": 6914,
      "▁المفاوضات": 6915,
      "▁عمله": 6916,
      "▁محددة": 6917,
      "▁البلدية": 6918,
      "▁الخبرة": 6919,
      "نيها": 6920,
      "▁التعرف": 6921,
      "▁وهل": 6922,
      "▁الجنوبي": 6923,
      "▁تجنب": 6924,
      "▁يدفع": 6925,
      "▁الصعب": 6926,
      "ign": 6927,
      "مييز": 6928,
      "▁غضون": 6929,
      "▁الربع": 6930,
      "▁يجوز": 6931,
      "▁انق": 6932,
      "▁غيرها": 6933,
      "▁الليبية": 6934,
      "صفر": 6935,
      "بتد": 6936,
      "▁قصر": 6937,
      "▁ده": 6938,
      "شك": 6939,
      "▁صلة": 6940,
      "▁معاي": 6941,
      "▁أقصى": 6942,
      "▁المستثمرين": 6943,
      "▁الحص": 6944,
      "▁لتعزيز": 6945,
      "▁منس": 6946,
      "hat": 6947,
      "قلق": 6948,
      "بان": 6949,
      "▁شف": 6950,
      "▁كلما": 6951,
      "▁تقريبا": 6952,
      "▁التكلفة": 6953,
      "▁للبن": 6954,
      "▁الصندوق": 6955,
      "▁سلطان": 6956,
      "رافق": 6957,
      "▁أرسل": 6958,
      "▁يتميز": 6959,
      "▁يلعب": 6960,
      "▁الالكترونية": 6961,
      "▁الإشارة": 6962,
      "▁الممتاز": 6963,
      "▁تكوين": 6964,
      "▁العظيم": 6965,
      "▁لشراء": 6966,
      "▁اسمه": 6967,
      "حوث": 6968,
      "▁وأد": 6969,
      "▁crusher": 6970,
      "▁مفهوم": 6971,
      "▁أحب": 6972,
      "▁الشوط": 6973,
      "َح": 6974,
      "▁الحرمين": 6975,
      "▁لمجلس": 6976,
      "▁الاكت": 6977,
      "▁والتق": 6978,
      "▁الخلايا": 6979,
      "▁ميت": 6980,
      "indows": 6981,
      "▁٢٠١": 6982,
      "▁أقرب": 6983,
      "▁المشهد": 6984,
      "▁لاحق": 6985,
      "▁بمد": 6986,
      "▁منصب": 6987,
      "ومنيوم": 6988,
      "عاش": 6989,
      "▁أوب": 6990,
      "▁سهل": 6991,
      "▁بإمكان": 6992,
      "▁ستت": 6993,
      "▁استهلاك": 6994,
      "زامن": 6995,
      "▁مخاطر": 6996,
      "▁وحسب": 6997,
      "ونيا": 6998,
      "▁بطل": 6999,
      "مج": 7000,
      "▁كلّ": 7001,
      "▁مقاومة": 7002,
      "▁للحفاظ": 7003,
      "رطوم": 7004,
      "▁الذاتية": 7005,
      "▁إنّ": 7006,
      "يرًا": 7007,
      "بيديا": 7008,
      "▁الراحل": 7009,
      "▁إقليم": 7010,
      "تان": 7011,
      "ؤها": 7012,
      "▁سريعة": 7013,
      "▁لمكافحة": 7014,
      "▁ميزة": 7015,
      "▁بدلاً": 7016,
      "▁الشهيد": 7017,
      "eg": 7018,
      "▁الأساس": 7019,
      "▁Ad": 7020,
      "رادة": 7021,
      "▁السجن": 7022,
      "▁جائحة": 7023,
      "▁متخصص": 7024,
      "▁أوراق": 7025,
      "▁وعمل": 7026,
      "كيم": 7027,
      "▁متأ": 7028,
      "نتين": 7029,
      "؟!": 7030,
      "▁المتخصصة": 7031,
      "▁المجموعات": 7032,
      "▁الصعيد": 7033,
      "▁مؤقت": 7034,
      "▁فق": 7035,
      "▁لوزارة": 7036,
      "▁مطرقة": 7037,
      "▁تضع": 7038,
      "▁اتخذ": 7039,
      "▁واستخدام": 7040,
      "▁كاب": 7041,
      "▁البياني": 7042,
      "asia": 7043,
      "▁المميزة": 7044,
      "اليف": 7045,
      "صورة": 7046,
      "▁يتضمن": 7047,
      "▁وبم": 7048,
      "▁سالم": 7049,
      "▁الغير": 7050,
      "▁ويف": 7051,
      "فلسط": 7052,
      "▁بالاست": 7053,
      "ff": 7054,
      "▁بكر": 7055,
      "▁الإقامة": 7056,
      "▁Bl": 7057,
      "▁وبناء": 7058,
      "▁الانتخابية": 7059,
      "▁وقعت": 7060,
      "غطي": 7061,
      "▁بدي": 7062,
      "▁الشراء": 7063,
      "كتابة": 7064,
      "▁مناجم": 7065,
      "▁الشروط": 7066,
      "▁And": 7067,
      "يطان": 7068,
      "▁الظهر": 7069,
      "▁أسفل": 7070,
      "يّة": 7071,
      "▁جيش": 7072,
      "▁المسئ": 7073,
      "▁صعوبة": 7074,
      "▁رصيد": 7075,
      "لفل": 7076,
      "▁المعم": 7077,
      "سيج": 7078,
      "▁وتحقيق": 7079,
      "يداع": 7080,
      "▁الكيميائية": 7081,
      "شيد": 7082,
      "مائ": 7083,
      "▁قادرة": 7084,
      "▁رغ": 7085,
      "▁Read": 7086,
      "▁الكال": 7087,
      "▁تأجير": 7088,
      "▁فقدان": 7089,
      "▁جدوى": 7090,
      "ددا": 7091,
      "witter": 7092,
      "vi": 7093,
      "▁الائ": 7094,
      "▁الأسئلة": 7095,
      "اميك": 7096,
      "▁وتط": 7097,
      "وسائل": 7098,
      "▁موجود": 7099,
      "▁كميات": 7100,
      "▁الرئاسة": 7101,
      "▁سيم": 7102,
      "▁يمر": 7103,
      "لقي": 7104,
      "▁ميلاد": 7105,
      "ram": 7106,
      "وضيح": 7107,
      "▁القضائية": 7108,
      "▁الأدوات": 7109,
      "▁الغذاء": 7110,
      "▁نظرة": 7111,
      "▁المساعدات": 7112,
      "▁آن": 7113,
      "▁نظرا": 7114,
      "▁الشتاء": 7115,
      "حيدة": 7116,
      "عدة": 7117,
      "ure": 7118,
      "▁سوء": 7119,
      "▁النهضة": 7120,
      "▁يبقى": 7121,
      "▁خطيرة": 7122,
      "▁يتيح": 7123,
      "▁ساهم": 7124,
      "ng": 7125,
      "▁غرامة": 7126,
      "كما": 7127,
      "ِم": 7128,
      "▁الحادث": 7129,
      "▁متاب": 7130,
      "ذاكر": 7131,
      "▁يتعرض": 7132,
      "):": 7133,
      "▁الألوان": 7134,
      "▁وقبل": 7135,
      "▁حلقة": 7136,
      "▁قنوات": 7137,
      "▁يتمكن": 7138,
      "▁تشعر": 7139,
      "▁ad": 7140,
      "▁مهام": 7141,
      "▁زم": 7142,
      "غيرات": 7143,
      "▁الشهيرة": 7144,
      "▁ومل": 7145,
      "▁قي": 7146,
      "▁لحل": 7147,
      "ربت": 7148,
      "▁مضيفا": 7149,
      "▁شخصا": 7150,
      "جنبي": 7151,
      "▁شرائ": 7152,
      "اصر": 7153,
      "▁أيلول": 7154,
      "▁تخفيض": 7155,
      "▁الولادة": 7156,
      "بول": 7157,
      "▁المصابين": 7158,
      "▁التنفيذية": 7159,
      "▁سبورت": 7160,
      "▁المعدة": 7161,
      "▁راشد": 7162,
      "لقب": 7163,
      "▁ببعض": 7164,
      "▁نهر": 7165,
      "▁المدنيين": 7166,
      "غنيز": 7167,
      "▁الأزهر": 7168,
      "▁يشهد": 7169,
      "نادي": 7170,
      "يتهم": 7171,
      "▁المخروط": 7172,
      "ُر": 7173,
      "▁الحفل": 7174,
      "▁بتش": 7175,
      "▁الجزائرية": 7176,
      "▁البدء": 7177,
      "ark": 7178,
      "▁مواضيع": 7179,
      "OS": 7180,
      "▁القريبة": 7181,
      "كنت": 7182,
      "تمدة": 7183,
      "▁يونايتد": 7184,
      "▁بالعمل": 7185,
      "لاغ": 7186,
      "▁والأن": 7187,
      "▁الاردن": 7188,
      "▁لسحق": 7189,
      "▁بموجب": 7190,
      "▁وعم": 7191,
      "يكاني": 7192,
      "▁لتكون": 7193,
      "▁الشارقة": 7194,
      "▁المؤمن": 7195,
      "▁واحت": 7196,
      "▁مايك": 7197,
      "نازل": 7198,
      "▁الأر": 7199,
      "▁البا": 7200,
      "▁الكون": 7201,
      "tph": 7202,
      "فتاح": 7203,
      "▁عكس": 7204,
      "▁التنظيف": 7205,
      "َف": 7206,
      "▁بلدان": 7207,
      "بيعة": 7208,
      "▁ينتظر": 7209,
      "▁فنية": 7210,
      "▁متطلبات": 7211,
      "▁التأثير": 7212,
      "▁ويمكنك": 7213,
      "▁كيلوم": 7214,
      "يوخ": 7215,
      "▁الحقيقية": 7216,
      "▁اضافة": 7217,
      "▁حديثة": 7218,
      "▁استخدامه": 7219,
      "▁مور": 7220,
      "▁وبا": 7221,
      "▁تبدو": 7222,
      "كيلة": 7223,
      "▁بكم": 7224,
      "▁الشيء": 7225,
      "▁نكون": 7226,
      "▁الامير": 7227,
      "▁الفتاح": 7228,
      "▁تسع": 7229,
      "▁ظاهرة": 7230,
      "▁المراكز": 7231,
      "▁تابعة": 7232,
      "ليغ": 7233,
      "▁الهندسة": 7234,
      "قاب": 7235,
      "▁محافظات": 7236,
      "▁منف": 7237,
      "▁بالتأكيد": 7238,
      "▁بالرياض": 7239,
      "▁ملاح": 7240,
      "يور": 7241,
      "▁الطوارئ": 7242,
      "سيما": 7243,
      "▁الأوراق": 7244,
      "▁دفاع": 7245,
      "▁الأفلام": 7246,
      "الدردشة": 7247,
      "هوري": 7248,
      "▁إيقاف": 7249,
      "▁الصحف": 7250,
      "▁الحلول": 7251,
      "ماذا": 7252,
      "▁الطوب": 7253,
      "▁احترام": 7254,
      "ثبت": 7255,
      "▁مدر": 7256,
      "▁خطأ": 7257,
      "▁الحمد": 7258,
      "▁ورح": 7259,
      "▁لتق": 7260,
      "▁الراحة": 7261,
      "▁يتمتع": 7262,
      "▁أعداد": 7263,
      "ديان": 7264,
      "قدة": 7265,
      "▁السفارة": 7266,
      "قتين": 7267,
      "▁نفذ": 7268,
      "▁الأفراد": 7269,
      "▁العميل": 7270,
      "سيطر": 7271,
      "واحين": 7272,
      "▁للحد": 7273,
      "▁يدعو": 7274,
      "▁اليدين": 7275,
      "▁باستمرار": 7276,
      "▁هوا": 7277,
      "ئاب": 7278,
      "ناعات": 7279,
      "▁الدائرة": 7280,
      "▁صنعاء": 7281,
      "يال": 7282,
      "▁المنام": 7283,
      "▁الكالسيوم": 7284,
      "▁أسرع": 7285,
      "▁التونسية": 7286,
      "▁الطرف": 7287,
      "▁المأ": 7288,
      "▁جر": 7289,
      "▁القوانين": 7290,
      "▁الاعتماد": 7291,
      "▁العقود": 7292,
      "ورى": 7293,
      "عون": 7294,
      "▁الحمام": 7295,
      "▁قيد": 7296,
      "▁إما": 7297,
      "▁المسار": 7298,
      "▁رواية": 7299,
      "▁مستمرة": 7300,
      "▁جريمة": 7301,
      "لاحية": 7302,
      "▁المطار": 7303,
      "▁السرطان": 7304,
      "▁فتاة": 7305,
      "▁تعبير": 7306,
      "▁استغلال": 7307,
      "يدي": 7308,
      "▁مواقف": 7309,
      ":\"": 7310,
      "▁حار": 7311,
      "▁أشرف": 7312,
      "▁موظف": 7313,
      "▁كسر": 7314,
      "▁كرات": 7315,
      "▁شاملة": 7316,
      "بادة": 7317,
      "ext": 7318,
      "▁بقلم": 7319,
      "▁اللَّ": 7320,
      "▁حظر": 7321,
      "▁بحلول": 7322,
      "▁اتباع": 7323,
      "▁أراضي": 7324,
      "ؤه": 7325,
      "▁مرف": 7326,
      "زو": 7327,
      "▁إيجاد": 7328,
      "▁ملعقة": 7329,
      "▁زال": 7330,
      "دل": 7331,
      "▁النفطية": 7332,
      "لامي": 7333,
      "▁سلاح": 7334,
      "▁تري": 7335,
      "شيخ": 7336,
      "▁العدو": 7337,
      "▁قبول": 7338,
      "▁القائد": 7339,
      "هية": 7340,
      "▁مجان": 7341,
      "▁التجربة": 7342,
      "▁عمال": 7343,
      "زت": 7344,
      "▁الجماعة": 7345,
      "▁حرية": 7346,
      "خاء": 7347,
      "▁ربط": 7348,
      "ru": 7349,
      "ماعة": 7350,
      "▁الدراسية": 7351,
      "كسر": 7352,
      "افرين": 7353,
      "شيط": 7354,
      "امنة": 7355,
      "لندا": 7356,
      "▁الحريري": 7357,
      "▁خرج": 7358,
      "▁افريقيا": 7359,
      "ناقشة": 7360,
      "▁تمكنت": 7361,
      "▁”": 7362,
      "▁بالفيديو": 7363,
      "مصر": 7364,
      "▁ومحمد": 7365,
      "قلين": 7366,
      "▁يعرض": 7367,
      "▁ونصف": 7368,
      "▁الإقليمية": 7369,
      "▁بدقة": 7370,
      "▁شكرا": 7371,
      "لياف": 7372,
      "▁الصادر": 7373,
      "▁الملت": 7374,
      "▁اضط": 7375,
      "▁نع": 7376,
      "▁للمواطنين": 7377,
      "يجا": 7378,
      "ينه": 7379,
      "▁وسيلة": 7380,
      "حاولة": 7381,
      "▁سامسون": 7382,
      "▁عالمي": 7383,
      "▁لتنفيذ": 7384,
      "▁الصهيوني": 7385,
      "▁قابلة": 7386,
      "▁خبرة": 7387,
      "▁إليك": 7388,
      "▁مقات": 7389,
      "▁الجريمة": 7390,
      "▁الطين": 7391,
      "...]": 7392,
      "▁أراد": 7393,
      "▁طيب": 7394,
      "▁بدلا": 7395,
      "▁بوضع": 7396,
      "▁الفرص": 7397,
      "عربي": 7398,
      "▁العشرين": 7399,
      "▁الشهير": 7400,
      "▁الإبداع": 7401,
      "▁بخط": 7402,
      "▁سفر": 7403,
      "▁الشأن": 7404,
      "▁نُ": 7405,
      "▁يهدف": 7406,
      "▁الحسين": 7407,
      "▁والأمن": 7408,
      "▁موبايل": 7409,
      "▁خادم": 7410,
      "▁موجودة": 7411,
      "اضافة": 7412,
      "▁التحليل": 7413,
      "▁وجميع": 7414,
      "ep": 7415,
      "▁استقرار": 7416,
      "hing": 7417,
      "وابط": 7418,
      "▁كريست": 7419,
      "▁سود": 7420,
      "لاه": 7421,
      "اعية": 7422,
      "▁طباعة": 7423,
      "▁كينيا": 7424,
      "زوج": 7425,
      "▁الفئة": 7426,
      "وفا": 7427,
      "▁محتوى": 7428,
      "▁السكري": 7429,
      "▁الشخصيات": 7430,
      "مص": 7431,
      "▁معايير": 7432,
      "min": 7433,
      "▁العوامل": 7434,
      "غانستان": 7435,
      "▁تستهدف": 7436,
      "▁Home": 7437,
      "سيطرة": 7438,
      "▁فهل": 7439,
      "▁فيصل": 7440,
      "▁المختصة": 7441,
      "▁مدارس": 7442,
      "▁يمنع": 7443,
      "▁الدولوميت": 7444,
      "▁سابقة": 7445,
      "▁قلق": 7446,
      "▁عال": 7447,
      "▁السادسة": 7448,
      "▁المتم": 7449,
      "▁الخارجي": 7450,
      "منتخب": 7451,
      "▁المستشفيات": 7452,
      "▁متط": 7453,
      "▁التمر": 7454,
      "وائح": 7455,
      "وضى": 7456,
      "▁الدماغ": 7457,
      "بالغ": 7458,
      "وبا": 7459,
      "▁الألغام": 7460,
      "▁البلاستيك": 7461,
      "▁فضل": 7462,
      "▁الحضور": 7463,
      "▁تمامًا": 7464,
      "▁كبرى": 7465,
      "▁الطبيعة": 7466,
      "▁الأمني": 7467,
      "▁المائية": 7468,
      "ne": 7469,
      "▁يشمل": 7470,
      "▁غدا": 7471,
      "▁معركة": 7472,
      "ذف": 7473,
      "▁تخزين": 7474,
      "▁طبيعة": 7475,
      "ئل": 7476,
      "▁جنب": 7477,
      "▁والانت": 7478,
      "وضية": 7479,
      "▁الإعداد": 7480,
      "▁وإعادة": 7481,
      "▁اتهام": 7482,
      "▁الطائرات": 7483,
      "▁زر": 7484,
      "▁فضلاً": 7485,
      "▁نظيره": 7486,
      "▁الطقس": 7487,
      "▁تذكر": 7488,
      "▁بضرورة": 7489,
      "▁عثمان": 7490,
      "▁تبادل": 7491,
      "▁رخيصة": 7492,
      "▁تخصيص": 7493,
      "ical": 7494,
      "▁الاسلامية": 7495,
      "▁المحدودة": 7496,
      "IN": 7497,
      "▁الخطة": 7498,
      "▁أسرة": 7499,
      "وفية": 7500,
      "ree": 7501,
      "▁وكيفية": 7502,
      "حى": 7503,
      "▁مبنى": 7504,
      "سلسل": 7505,
      "وادر": 7506,
      "▁المقابل": 7507,
      "▁سلطة": 7508,
      "شخاص": 7509,
      "rad": 7510,
      "▁الدعوة": 7511,
      "▁الأفكار": 7512,
      "▁البيض": 7513,
      "▁تلقي": 7514,
      "▁ويعتبر": 7515,
      "هيد": 7516,
      "▁ساحة": 7517,
      "▁الماس": 7518,
      "▁والبح": 7519,
      "حتها": 7520,
      "▁[...]": 7521,
      "حيل": 7522,
      "▁بدوره": 7523,
      "▁الرقمي": 7524,
      "▁يوتيوب": 7525,
      "▁شباط": 7526,
      "▁ورشة": 7527,
      "▁نهائ": 7528,
      "▁تقليل": 7529,
      "▁صعبة": 7530,
      "▁الشهداء": 7531,
      "▁ويكيبيديا": 7532,
      "ire": 7533,
      "US": 7534,
      "▁حا": 7535,
      "▁أقوى": 7536,
      "دران": 7537,
      "▁منخفضة": 7538,
      "▁بمجرد": 7539,
      "▁اقتصادي": 7540,
      "▁العاج": 7541,
      "ُن": 7542,
      "▁مصغرة": 7543,
      "▁الجملة": 7544,
      "▁والمه": 7545,
      "eng": 7546,
      "▁with": 7547,
      "▁لبناء": 7548,
      "▁الأض": 7549,
      "▁فني": 7550,
      "▁وتخ": 7551,
      "▁وادي": 7552,
      "▁اللهم": 7553,
      "▁التصوير": 7554,
      "▁المستعملة": 7555,
      "▁للض": 7556,
      "▁الناتج": 7557,
      "▁بوجود": 7558,
      "▁الرئاسية": 7559,
      "▁صفحات": 7560,
      "فح": 7561,
      "▁توقعات": 7562,
      "▁الشمالي": 7563,
      "▁وهنا": 7564,
      "قيمين": 7565,
      "ؤولة": 7566,
      "▁الخمس": 7567,
      "▁كفر": 7568,
      "▁تطلق": 7569,
      "▁للصح": 7570,
      "▁الساعات": 7571,
      "▁الإطار": 7572,
      "أنا": 7573,
      "▁صل": 7574,
      "ليمون": 7575,
      "▁للدولة": 7576,
      "▁الدخل": 7577,
      "▁توصل": 7578,
      "▁pl": 7579,
      "▁Facebook": 7580,
      "▁أسر": 7581,
      "▁والبر": 7582,
      "▁المعلم": 7583,
      "طال": 7584,
      "▁الساحة": 7585,
      "▁زراعة": 7586,
      "▁يوف": 7587,
      "▁الكلمة": 7588,
      "▁سلوك": 7589,
      "▁كلي": 7590,
      "▁التعبير": 7591,
      "ox": 7592,
      "▁الخبث": 7593,
      "رابة": 7594,
      "▁وكذا": 7595,
      "▁طاقة": 7596,
      "▁المنغنيز": 7597,
      "▁تام": 7598,
      "بوت": 7599,
      "▁الخضراء": 7600,
      "▁يومين": 7601,
      "صير": 7602,
      "▁انتخاب": 7603,
      "▁الغبار": 7604,
      "▁واد": 7605,
      "▁مسألة": 7606,
      "▁قصص": 7607,
      "▁فهد": 7608,
      "▁لتوفير": 7609,
      "▁للعم": 7610,
      "▁الرسائل": 7611,
      "▁الأرز": 7612,
      "▁يكفي": 7613,
      "▁كساره": 7614,
      "▁تتراوح": 7615,
      "▁مستشار": 7616,
      "▁أجر": 7617,
      "▁مبر": 7618,
      "وفت": 7619,
      "▁يطالب": 7620,
      "ميت": 7621,
      "▁الهندي": 7622,
      "▁تكاليف": 7623,
      "▁جميعا": 7624,
      "▁المطبخ": 7625,
      "▁نوم": 7626,
      "▁صابون": 7627,
      "▁عَل": 7628,
      "▁برصيد": 7629,
      "▁ومنتجات": 7630,
      "▁سقط": 7631,
      "▁بايدن": 7632,
      "▁والبحث": 7633,
      "▁جا": 7634,
      "وسم": 7635,
      "roid": 7636,
      "▁وقدم": 7637,
      "مايو": 7638,
      "▁الرسول": 7639,
      "▁الوحدات": 7640,
      "▁عمودية": 7641,
      "▁الملعب": 7642,
      "بيا": 7643,
      "▁مصرية": 7644,
      "▁التوتر": 7645,
      "▁انتهت": 7646,
      "▁قائلاً": 7647,
      "▁العقاري": 7648,
      "▁شديدة": 7649,
      "▁تلقى": 7650,
      "▁ذكرى": 7651,
      "▁تأجيل": 7652,
      "أمل": 7653,
      "▁نجح": 7654,
      "غاث": 7655,
      "▁شيخ": 7656,
      "▁للتنمية": 7657,
      "▁حذف": 7658,
      "▁التسويق": 7659,
      "▁الكروم": 7660,
      "اسعة": 7661,
      "▁قمت": 7662,
      "▁الطرفين": 7663,
      "كشف": 7664,
      "▁الملح": 7665,
      "▁تايم": 7666,
      "▁الجير": 7667,
      "جازة": 7668,
      "▁العدوان": 7669,
      "انغ": 7670,
      "▁قوى": 7671,
      "▁المنظمات": 7672,
      "قالات": 7673,
      "▁مني": 7674,
      "▁التوصل": 7675,
      "▁مطعم": 7676,
      "▁التيار": 7677,
      "oft": 7678,
      "▁بنات": 7679,
      "فار": 7680,
      "▁أسلوب": 7681,
      "▁طلبات": 7682,
      "▁المغناط": 7683,
      "▁التطوير": 7684,
      "▁التجميل": 7685,
      "▁ومعدات": 7686,
      "▁فريقه": 7687,
      "اتل": 7688,
      "جيال": 7689,
      "توك": 7690,
      "▁تنظم": 7691,
      "شفت": 7692,
      "▁فلم": 7693,
      "▁المسابقة": 7694,
      "▁تحضير": 7695,
      "▁بدل": 7696,
      "جرام": 7697,
      "▁إدخال": 7698,
      "▁الصلة": 7699,
      "هاجرين": 7700,
      "▁بعضهم": 7701,
      "▁التحديث": 7702,
      "قرر": 7703,
      "▁ووفق": 7704,
      "▁لصناعة": 7705,
      "▁المقالة": 7706,
      "▁جمهور": 7707,
      "▁be": 7708,
      "▁مليارات": 7709,
      "▁ومؤ": 7710,
      "▁طل": 7711,
      "▁الأثر": 7712,
      "for": 7713,
      "▁المعارض": 7714,
      "▁عاصمة": 7715,
      "▁الممثل": 7716,
      "▁بنحو": 7717,
      "▁للأن": 7718,
      "اميم": 7719,
      "كورونا": 7720,
      "ثبيت": 7721,
      "قاعد": 7722,
      "▁خلط": 7723,
      "▁خصائص": 7724,
      "▁يدل": 7725,
      "achin": 7726,
      "▁طعام": 7727,
      "▁تماماً": 7728,
      "▁الشاعر": 7729,
      "▁]": 7730,
      "▁ويكون": 7731,
      "▁بريد": 7732,
      "ديس": 7733,
      "ظهار": 7734,
      "وقاف": 7735,
      "▁الكفاءة": 7736,
      "وائم": 7737,
      "ظات": 7738,
      "rou": 7739,
      "▁......": 7740,
      "▁وقوع": 7741,
      "واكه": 7742,
      "▁لمست": 7743,
      "عوة": 7744,
      "▁Windows": 7745,
      "يدروليكية": 7746,
      "▁صاح": 7747,
      "▁رونالد": 7748,
      "▁بوصة": 7749,
      "▁جرا": 7750,
      "▁الكتابة": 7751,
      "▁تقت": 7752,
      "▁منص": 7753,
      "▁النفسي": 7754,
      "ندر": 7755,
      "▁البقاء": 7756,
      "▁الكويتية": 7757,
      "▁تركيز": 7758,
      "خار": 7759,
      "▁نم": 7760,
      "▁العادية": 7761,
      "▁ليل": 7762,
      "▁وارت": 7763,
      "▁والسلام": 7764,
      "▁فول": 7765,
      "▁نار": 7766,
      "▁رضي": 7767,
      "nt": 7768,
      "جوز": 7769,
      "▁ونشر": 7770,
      "▁مؤكدة": 7771,
      "اصرة": 7772,
      "▁النهار": 7773,
      "طيل": 7774,
      "▁وخصوص": 7775,
      "▁الكث": 7776,
      "قدس": 7777,
      "يرون": 7778,
      "راتيجي": 7779,
      "▁الوعي": 7780,
      "كشاف": 7781,
      "▁الميد": 7782,
      "duct": 7783,
      "▁للان": 7784,
      "▁طيران": 7785,
      "▁احتجاج": 7786,
      "▁الدواء": 7787,
      "سيارة": 7788,
      "جها": 7789,
      "▁موث": 7790,
      "قاومة": 7791,
      "▁زيار": 7792,
      "ابية": 7793,
      "▁لأكثر": 7794,
      "▁لرئيس": 7795,
      "▁الأحزاب": 7796,
      "▁تتطلب": 7797,
      "خبة": 7798,
      "▁الفض": 7799,
      "▁أضاف": 7800,
      "▁مودي": 7801,
      "اركات": 7802,
      "▁يخت": 7803,
      "ok": 7804,
      "▁القائم": 7805,
      "▁العلام": 7806,
      "اخرة": 7807,
      "▁الحسن": 7808,
      "ros": 7809,
      "▁أنفسهم": 7810,
      "ؤدي": 7811,
      "▁التصويت": 7812,
      "جحة": 7813,
      "▁باتجاه": 7814,
      "▁الموسيقى": 7815,
      "▁إسبانيا": 7816,
      "وراً": 7817,
      "▁Th": 7818,
      "▁وجبة": 7819,
      "▁الأعراض": 7820,
      "نات": 7821,
      "تملة": 7822,
      "▁الأردني": 7823,
      "▁مشتركة": 7824,
      "فوق": 7825,
      "فين": 7826,
      "▁ثقة": 7827,
      "▁صرح": 7828,
      "ديك": 7829,
      "▁الأندية": 7830,
      "▁ويندوز": 7831,
      "▁أرباح": 7832,
      "▁وهى": 7833,
      "▁للطاقة": 7834,
      "▁بالله": 7835,
      "▁القيم": 7836,
      "▁واضاف": 7837,
      "ياته": 7838,
      "▁عا": 7839,
      "▁بتص": 7840,
      "▁غاز": 7841,
      "enc": 7842,
      "▁يشار": 7843,
      "▁ارتداء": 7844,
      "▁المعي": 7845,
      "▁الهامة": 7846,
      "▁مسجد": 7847,
      "ina": 7848,
      "اخبار": 7849,
      "▁بحر": 7850,
      "▁نرى": 7851,
      "▁بتع": 7852,
      "ريضة": 7853,
      "▁اللجوء": 7854,
      "وشي": 7855,
      "▁معي": 7856,
      "▁تتيح": 7857,
      "▁إدلب": 7858,
      "▁الشام": 7859,
      "▁بالتح": 7860,
      "__": 7861,
      "▁الاطفال": 7862,
      "▁حيدر": 7863,
      "▁سهولة": 7864,
      "▁تقدير": 7865,
      "▁الحرارية": 7866,
      "▁بالجملة": 7867,
      "▁الويب": 7868,
      "سيس": 7869,
      "▁ميناء": 7870,
      "▁لبيع": 7871,
      "▁بأسعار": 7872,
      "وياً": 7873,
      "▁الفقر": 7874,
      "▁qu": 7875,
      "▁تشارك": 7876,
      "▁الاربع": 7877,
      "▁كات": 7878,
      "▁مؤكداً": 7879,
      "▁الصادرة": 7880,
      "▁مجمع": 7881,
      "ترام": 7882,
      "▁الكربون": 7883,
      "▁طائرات": 7884,
      "كتشف": 7885,
      "▁يستحق": 7886,
      "▁اسرائيل": 7887,
      "▁لوكالة": 7888,
      "▁وفيما": 7889,
      "▁للتس": 7890,
      "▁جهته": 7891,
      "▁والمص": 7892,
      "▁تصاد": 7893,
      "ِينَ": 7894,
      "▁يفضل": 7895,
      "▁مناقشة": 7896,
      "▁تتمتع": 7897,
      "▁القليلة": 7898,
      "▁وعل": 7899,
      "صين": 7900,
      "داب": 7901,
      "▁تحاول": 7902,
      "▁المتقدم": 7903,
      "ادلة": 7904,
      "▁لزيادة": 7905,
      "▁الفرد": 7906,
      "▁فحم": 7907,
      "▁حام": 7908,
      "▁تخطيط": 7909,
      "▁خسائر": 7910,
      "مجة": 7911,
      "▁بشدة": 7912,
      "▁ساح": 7913,
      "بادي": 7914,
      "ix": 7915,
      "▁روب": 7916,
      "▁مظ": 7917,
      "▁وخط": 7918,
      "▁القلق": 7919,
      "صبحت": 7920,
      "▁الجمال": 7921,
      "▁الطاحن": 7922,
      "▁استمر": 7923,
      "طبق": 7924,
      "▁بزيارة": 7925,
      "▁سوري": 7926,
      "▁وبي": 7927,
      "جمعات": 7928,
      "▁جهات": 7929,
      "فاقيات": 7930,
      "▁البنية": 7931,
      "برات": 7932,
      "▁الاض": 7933,
      "▁الخرطوم": 7934,
      "▁بدور": 7935,
      "ُونَ": 7936,
      "▁غاية": 7937,
      "▁الانتقال": 7938,
      "▁وقام": 7939,
      "▁كوفيد": 7940,
      "▁ميسي": 7941,
      "▁القصة": 7942,
      "▁إنهاء": 7943,
      "▁تخت": 7944,
      "▁ممار": 7945,
      "▁مسلم": 7946,
      "▁عنصر": 7947,
      "▁الفا": 7948,
      "▁محاولات": 7949,
      "▁أسط": 7950,
      "▁مقابلة": 7951,
      "▁كمال": 7952,
      "راجات": 7953,
      "▁رئيسة": 7954,
      "كتيريا": 7955,
      "شاري": 7956,
      "▁سفير": 7957,
      "▁Ex": 7958,
      "▁حديقة": 7959,
      "▁للمع": 7960,
      "ِب": 7961,
      "▁المرش": 7962,
      "▁الضر": 7963,
      "▁علمية": 7964,
      "▁إيجابية": 7965,
      "راقية": 7966,
      "▁دب": 7967,
      "▁الصيانة": 7968,
      "▁الشعوب": 7969,
      "▁النووية": 7970,
      "▁النصف": 7971,
      "▁جماهير": 7972,
      "▁لاستخدام": 7973,
      "كمبيوتر": 7974,
      "▁Cl": 7975,
      "ئوية": 7976,
      "▁الشرقي": 7977,
      "▁لوحات": 7978,
      "▁جيل": 7979,
      "▁المحتمل": 7980,
      "جيب": 7981,
      "▁أوكرانيا": 7982,
      "▁يجمع": 7983,
      "▁الخبز": 7984,
      "▁لخدمة": 7985,
      "▁مفتوحة": 7986,
      "ue": 7987,
      "AR": 7988,
      "▁وموا": 7989,
      "▁هشام": 7990,
      "ذان": 7991,
      "ازينو": 7992,
      "▁التقارير": 7993,
      "يرن": 7994,
      "▁الده": 7995,
      "اهير": 7996,
      "▁المتداول": 7997,
      "▁للمرأة": 7998,
      "▁السماح": 7999,
      "▁يرجى": 8000,
      "الط": 8001,
      "ينيات": 8002,
      "بلوماسي": 8003,
      "▁لإدارة": 8004,
      "▁أفلام": 8005,
      "▁المعهد": 8006,
      "▁الة": 8007,
      "▁استقبل": 8008,
      "▁غانا": 8009,
      "▁الأشهر": 8010,
      "▁العلامات": 8011,
      "▁للمد": 8012,
      "▁القطع": 8013,
      "▁أدنى": 8014,
      "كى": 8015,
      "▁مواصلة": 8016,
      "▁التاسع": 8017,
      "▁صدور": 8018,
      "▁مسافة": 8019,
      "ربات": 8020,
      "▁تخرج": 8021,
      "▁انط": 8022,
      "▁السنوي": 8023,
      "يئة": 8024,
      "اردة": 8025,
      "▁القنب": 8026,
      "▁ويأتي": 8027,
      "▁مكعب": 8028,
      "ets": 8029,
      "▁السلم": 8030,
      "جزائر": 8031,
      "any": 8032,
      "َّم": 8033,
      "▁عاط": 8034,
      "▁يطلب": 8035,
      "▁ab": 8036,
      "فه": 8037,
      "▁هاد": 8038,
      "▁المرتبة": 8039,
      "▁وآخر": 8040,
      "يوف": 8041,
      "▁حقيقي": 8042,
      "▁يومياً": 8043,
      "▁محف": 8044,
      "▁الثل": 8045,
      "▁اندونيسيا": 8046,
      "▁عود": 8047,
      "▁وأنت": 8048,
      "▁مالك": 8049,
      "▁سد": 8050,
      "▁تتمكن": 8051,
      "▁الامن": 8052,
      "▁مكتبة": 8053,
      "▁لنفس": 8054,
      "▁تنسيق": 8055,
      "▁شامل": 8056,
      "▁التحقيقات": 8057,
      "▁للمش": 8058,
      "لزمات": 8059,
      "▁الإقليمي": 8060,
      "▁الشوارع": 8061,
      "▁عددا": 8062,
      "▁البورصة": 8063,
      "▁لعم": 8064,
      "▁النج": 8065,
      "▁فلسطيني": 8066,
      "▁المتظاهر": 8067,
      "▁زالت": 8068,
      "▁القاضي": 8069,
      "▁أرج": 8070,
      "▁يقود": 8071,
      "سبار": 8072,
      "▁بيل": 8073,
      "▁التصنيف": 8074,
      "راما": 8075,
      "▁معروف": 8076,
      "▁طبق": 8077,
      ".[": 8078,
      "▁رئيسي": 8079,
      "ثات": 8080,
      "اضرة": 8081,
      "▁ربيع": 8082,
      "▁مقطع": 8083,
      "ابعت": 8084,
      "▁القطري": 8085,
      "▁بمختلف": 8086,
      "▁تملك": 8087,
      "▁المصالح": 8088,
      "▁انتظار": 8089,
      "▁خر": 8090,
      "▁ex": 8091,
      "▁خلاف": 8092,
      "▁لأس": 8093,
      "▁ختام": 8094,
      "▁الصدر": 8095,
      "ارتها": 8096,
      "▁هامش": 8097,
      "▁مشروعات": 8098,
      "▁امس": 8099,
      "رقم": 8100,
      "▁ووا": 8101,
      "لاثة": 8102,
      "▁وسيتم": 8103,
      "▁والتعاون": 8104,
      "AA": 8105,
      "ذور": 8106,
      "▁عزل": 8107,
      "ric": 8108,
      "▁فعال": 8109,
      "▁تستمر": 8110,
      "تزاز": 8111,
      "▁والأح": 8112,
      "▁التوص": 8113,
      "▁فريد": 8114,
      "▁للفريق": 8115,
      "ذير": 8116,
      "▁الممار": 8117,
      "▁فخ": 8118,
      "▁صعب": 8119,
      "نال": 8120,
      "▁اليومي": 8121,
      "▁الدار": 8122,
      "اورة": 8123,
      "▁المعروفة": 8124,
      "▁الأمل": 8125,
      "▁ويش": 8126,
      "▁والتع": 8127,
      "▁بالمنطقة": 8128,
      "▁مورد": 8129,
      "▁((": 8130,
      "▁السابعة": 8131,
      "▁مستخدم": 8132,
      "▁أثبت": 8133,
      "▁اكتشف": 8134,
      "▁بوتين": 8135,
      "▁ضحايا": 8136,
      "مير": 8137,
      "رويت": 8138,
      "ائهم": 8139,
      "▁الشامل": 8140,
      "▁وليد": 8141,
      "▁خطورة": 8142,
      "▁معالي": 8143,
      "▁ودعا": 8144,
      "عاقة": 8145,
      "▁تنفي": 8146,
      "ضاءة": 8147,
      "▁كافية": 8148,
      "▁الربيع": 8149,
      "»:": 8150,
      "غالي": 8151,
      "زلي": 8152,
      "▁وتعتبر": 8153,
      "▁الدموية": 8154,
      "كِ": 8155,
      "ردد": 8156,
      "لط": 8157,
      "▁استهداف": 8158,
      "▁المرافق": 8159,
      "▁الاعتبار": 8160,
      "▁المستدامة": 8161,
      "▁السماء": 8162,
      "▁هيكل": 8163,
      "▁الشمسية": 8164,
      "ابه": 8165,
      "▁الشكر": 8166,
      "▁أستاذ": 8167,
      "▁الإداري": 8168,
      "بناء": 8169,
      "يوبيا": 8170,
      "▁الأنا": 8171,
      "▁سبحانه": 8172,
      "▁استعادة": 8173,
      "وكسيت": 8174,
      "▁الربح": 8175,
      "▁بقية": 8176,
      "▁شرف": 8177,
      "تويتر": 8178,
      "▁متوسطة": 8179,
      "▁الطا": 8180,
      "▁يخرج": 8181,
      "▁نظيفة": 8182,
      "▁الأصل": 8183,
      "▁المواصفات": 8184,
      "ock": 8185,
      "▁فرد": 8186,
      "▁ملحو": 8187,
      "▁تصرف": 8188,
      "▁شريك": 8189,
      "▁الاستثمارات": 8190,
      "▁التلق": 8191,
      "▁تبين": 8192,
      "▁عوامل": 8193,
      "▁ضيف": 8194,
      "زيلي": 8195,
      "▁بالمائة": 8196,
      "▁استكمال": 8197,
      "▁رئيسية": 8198,
      "▁عنهم": 8199,
      "جأ": 8200,
      "▁مؤخراً": 8201,
      "▁App": 8202,
      "ED": 8203,
      "▁وطالب": 8204,
      "▁لموقع": 8205,
      "▁ممث": 8206,
      "ale": 8207,
      "▁الصحفيين": 8208,
      "▁انفجار": 8209,
      "▁يقف": 8210,
      "تمكن": 8211,
      "▁أنني": 8212,
      "▁والأد": 8213,
      "▁القوية": 8214,
      "▁قلوب": 8215,
      "▁أهالي": 8216,
      "▁للشركة": 8217,
      "▁قابل": 8218,
      "▁أسئلة": 8219,
      "▁للرئيس": 8220,
      "▁الليلة": 8221,
      "▁غريب": 8222,
      "▁هامة": 8223,
      "▁بالاضافة": 8224,
      "▁الحليب": 8225,
      "▁قضاء": 8226,
      "ريخ": 8227,
      "ماج": 8228,
      "▁متخصصة": 8229,
      "▁سامسونج": 8230,
      "فرقة": 8231,
      "▁الرقابة": 8232,
      "▁الاحتياجات": 8233,
      "دون": 8234,
      "حيانا": 8235,
      "▁الاط": 8236,
      "ابط": 8237,
      "▁le": 8238,
      "▁الألومنيوم": 8239,
      "▁الأسرى": 8240,
      "نته": 8241,
      "▁للحكومة": 8242,
      "▁أصول": 8243,
      "▁أرقام": 8244,
      "وفيق": 8245,
      "▁ونظ": 8246,
      "▁فاصل": 8247,
      "كسارات": 8248,
      "▁الإصابات": 8249,
      "▁المفض": 8250,
      "ash": 8251,
      "▁وعرض": 8252,
      "▁موظفي": 8253,
      "لون": 8254,
      "▁تخصص": 8255,
      "▁المتقدمة": 8256,
      "▁الأدنى": 8257,
      "انو": 8258,
      "رال": 8259,
      "▁سج": 8260,
      "▁عامين": 8261,
      "▁زاد": 8262,
      "▁مذه": 8263,
      "▁للاس": 8264,
      "▁بالمر": 8265,
      "هاية": 8266,
      "▁واعتبر": 8267,
      "روعة": 8268,
      "▁البترول": 8269,
      "▁تهم": 8270,
      "▁أبواب": 8271,
      "▁الأصول": 8272,
      "▁المبلغ": 8273,
      "ناها": 8274,
      "▁الهر": 8275,
      "▁المحر": 8276,
      "▁الطويل": 8277,
      "حصاء": 8278,
      "▁التسوق": 8279,
      "▁للقوات": 8280,
      "▁الفطر": 8281,
      "▁اضغط": 8282,
      "▁مزايا": 8283,
      "▁ولهذا": 8284,
      "▁انتقال": 8285,
      "▁احدث": 8286,
      "▁الشريفين": 8287,
      "ev": 8288,
      "▁انشاء": 8289,
      "طحنة": 8290,
      "شئة": 8291,
      "▁ليرة": 8292,
      "▁دراسات": 8293,
      "لكية": 8294,
      "▁الذهبية": 8295,
      "▁اعمال": 8296,
      "َهُ": 8297,
      "حوا": 8298,
      "احنة": 8299,
      "▁يوماً": 8300,
      "▁المطاعم": 8301,
      "▁الرصاص": 8302,
      "▁الجاه": 8303,
      "▁أنَّ": 8304,
      "▁والاجتماعية": 8305,
      "▁أثار": 8306,
      "▁وأيضا": 8307,
      "▁والمؤ": 8308,
      "▁وزن": 8309,
      "▁الدجاج": 8310,
      "قدرة": 8311,
      "▁حمام": 8312,
      "▁مميزات": 8313,
      "▁خصوصاً": 8314,
      "▁السلوك": 8315,
      "▁الثابت": 8316,
      "ace": 8317,
      "▁أصيب": 8318,
      "▁كبيراً": 8319,
      "▁المتع": 8320,
      "وتين": 8321,
      "ثنائية": 8322,
      "▁أنباء": 8323,
      "ريغ": 8324,
      "▁تلت": 8325,
      "▁النجوم": 8326,
      "▁محيط": 8327,
      "▁تجرب": 8328,
      "▁تعرضت": 8329,
      "كلي": 8330,
      "▁تتجاوز": 8331,
      "ight": 8332,
      "ستاني": 8333,
      "▁سعاد": 8334,
      "▁الصلبة": 8335,
      "مه": 8336,
      "▁العسل": 8337,
      "▁الدائم": 8338,
      "حسن": 8339,
      "عومة": 8340,
      "▁المرتبطة": 8341,
      "▁دولي": 8342,
      "▁السكنية": 8343,
      "ions": 8344,
      "me": 8345,
      "ريه": 8346,
      "▁الاع": 8347,
      "ائيات": 8348,
      "▁والمؤسسات": 8349,
      "▁التوجه": 8350,
      "▁ممتاز": 8351,
      "▁مفيد": 8352,
      "▁الاصطناعي": 8353,
      "▁الدستورية": 8354,
      "▁المواضيع": 8355,
      "▁السائل": 8356,
      "▁آمنة": 8357,
      "▁إلكترونية": 8358,
      "▁رجب": 8359,
      "▁الاسبوع": 8360,
      "▁بموقع": 8361,
      "▁المخصصة": 8362,
      "▁كرد": 8363,
      "جزء": 8364,
      "▁مطل": 8365,
      "▁التعاقد": 8366,
      "ous": 8367,
      "▁رأى": 8368,
      "▁الإسمنت": 8369,
      "▁الوقاية": 8370,
      "▁القطرية": 8371,
      "بكات": 8372,
      "اضات": 8373,
      "باحة": 8374,
      "ركي": 8375,
      "▁ايام": 8376,
      "▁أمور": 8377,
      "▁فيس": 8378,
      "قود": 8379,
      "روضة": 8380,
      "▁ch": 8381,
      "ركية": 8382,
      "▁للشباب": 8383,
      "▁الفتاة": 8384,
      "▁سلا": 8385,
      "وقعات": 8386,
      "▁سورة": 8387,
      "▁العامل": 8388,
      "▁وسم": 8389,
      "▁شريط": 8390,
      "▁والتس": 8391,
      "▁للسل": 8392,
      "▁الفم": 8393,
      "مارة": 8394,
      "َان": 8395,
      "▁وتحت": 8396,
      "‬,": 8397,
      "▁الأك": 8398,
      "▁كأن": 8399,
      "ذاب": 8400,
      "َج": 8401,
      "▁سبع": 8402,
      "▁الصعبة": 8403,
      "▁Hotel": 8404,
      "▁اللحظة": 8405,
      "▁يتجاوز": 8406,
      "▁نمط": 8407,
      "▁بالقاهرة": 8408,
      "▁النور": 8409,
      "▁لتحديد": 8410,
      "عيه": 8411,
      "▁زعيم": 8412,
      "▁لقاح": 8413,
      "▁شأنها": 8414,
      "▁فوركس": 8415,
      "▁حالي": 8416,
      "▁بمح": 8417,
      "▁الضروري": 8418,
      "▁حامل": 8419,
      "▁رضا": 8420,
      "▁للتص": 8421,
      "▁الألب": 8422,
      "▁نعرف": 8423,
      "▁الموصل": 8424,
      "▁ابراهيم": 8425,
      "▁لعدد": 8426,
      "▁وطلب": 8427,
      "▁تفقد": 8428,
      "▁فاي": 8429,
      "▁وكشف": 8430,
      "▁نقابة": 8431,
      "▁علوم": 8432,
      "▁الحوثيين": 8433,
      "▁يعطي": 8434,
      "▁أحكام": 8435,
      "ئه": 8436,
      "▁مرتين": 8437,
      "مادي": 8438,
      "▁متاحة": 8439,
      "▁المحرك": 8440,
      "▁عيسى": 8441,
      "يلات": 8442,
      "▁شرب": 8443,
      "▁لخام": 8444,
      "▁الآلاف": 8445,
      "▁موضح": 8446,
      "▁الباز": 8447,
      "▁الروح": 8448,
      "▁الإط": 8449,
      "▁أوت": 8450,
      "▁ارتفع": 8451,
      "محمد": 8452,
      "ّات": 8453,
      "▁يختلف": 8454,
      "ظي": 8455,
      "▁الند": 8456,
      "▁مكاف": 8457,
      "▁you": 8458,
      "▁دست": 8459,
      "ياطي": 8460,
      "hone": 8461,
      "▁استثمار": 8462,
      "نحن": 8463,
      "▁استد": 8464,
      "▁تبر": 8465,
      "هرباء": 8466,
      "▁الارض": 8467,
      "▁بوزارة": 8468,
      "▁وكما": 8469,
      "▁البطن": 8470,
      "▁البوكسيت": 8471,
      "orld": 8472,
      "▁نض": 8473,
      "▁مؤشرات": 8474,
      "▁بالماء": 8475,
      "▁أوا": 8476,
      "▁إند": 8477,
      "▁بعدد": 8478,
      "نتها": 8479,
      "▁تخفيف": 8480,
      "▁الواحدة": 8481,
      "▁خض": 8482,
      "▁لنظام": 8483,
      "▁الاستخ": 8484,
      "▁تأخذ": 8485,
      "ـ.ـ": 8486,
      "كيك": 8487,
      "▁سكر": 8488,
      "غلب": 8489,
      "▁صعيد": 8490,
      "ديمي": 8491,
      "▁تركي": 8492,
      "▁مصير": 8493,
      "لوان": 8494,
      "▁تلعب": 8495,
      "▁المهني": 8496,
      "ثي": 8497,
      "▁للمح": 8498,
      "وووو": 8499,
      "▁مفيدة": 8500,
      "▁سبعة": 8501,
      "old": 8502,
      "▁بلاغ": 8503,
      "▁شاشات": 8504,
      "▁الشاي": 8505,
      "▁الأزرق": 8506,
      "▁الأكس": 8507,
      "▁HD": 8508,
      "▁الاحتفال": 8509,
      "▁الاعتداء": 8510,
      "▁رؤساء": 8511,
      "▁حت": 8512,
      "''": 8513,
      "▁السودانية": 8514,
      "تمت": 8515,
      "ليمة": 8516,
      "▁المخاب": 8517,
      "▁سعة": 8518,
      "▁برميل": 8519,
      "▁يتوقع": 8520,
      "sa": 8521,
      "▁الآلي": 8522,
      "سعيد": 8523,
      "▁لتجهيز": 8524,
      "▁وتحسين": 8525,
      "▁كو": 8526,
      "▁خسارة": 8527,
      "▁للاتحاد": 8528,
      "▁فالم": 8529,
      "▁كود": 8530,
      "▁مقاطعة": 8531,
      "▁iP": 8532,
      "▁رونالدو": 8533,
      "▁سمير": 8534,
      "▁رغبة": 8535,
      "جعل": 8536,
      "▁سابقا": 8537,
      "▁الأسر": 8538,
      "▁شبكات": 8539,
      "▁البحري": 8540,
      "▁واق": 8541,
      "▁بالرغم": 8542,
      "أثر": 8543,
      "▁Qu": 8544,
      "▁Un": 8545,
      "▁المعلمين": 8546,
      "ood": 8547,
      "▁الآسي": 8548,
      "▁الإماراتي": 8549,
      "▁ميديا": 8550,
      "▁التعلم": 8551,
      "ّز": 8552,
      "▁هما": 8553,
      "▁الهوية": 8554,
      "جنوب": 8555,
      "▁طراز": 8556,
      "▁الفئات": 8557,
      "▁الصحيحة": 8558,
      "▁الجنسي": 8559,
      "▁أساسية": 8560,
      "▁سجن": 8561,
      "▁الوحيدة": 8562,
      "▁سبل": 8563,
      "▁الحديدية": 8564,
      "جران": 8565,
      "▁الضع": 8566,
      "▁مذكرة": 8567,
      "وطة": 8568,
      "قبة": 8569,
      "si": 8570,
      "يرين": 8571,
      "▁وضعت": 8572,
      "مني": 8573,
      "▁يفعل": 8574,
      "▁غيره": 8575,
      "▁الانس": 8576,
      "هنة": 8577,
      "▁التعويم": 8578,
      "نترنت": 8579,
      "▁عملها": 8580,
      "▁ساعد": 8581,
      "▁استيراد": 8582,
      "▁الخش": 8583,
      "▁لافتا": 8584,
      "▁يهم": 8585,
      "▁خش": 8586,
      "▁المنصة": 8587,
      "افل": 8588,
      "ميه": 8589,
      "▁الإع": 8590,
      "▁النموذج": 8591,
      "▁الاند": 8592,
      "يطة": 8593,
      "جلد": 8594,
      "▁أظهرت": 8595,
      "▁يو": 8596,
      "lish": 8597,
      "▁جلسات": 8598,
      "rushing": 8599,
      "▁more": 8600,
      "▁الوباء": 8601,
      "▁الدوحة": 8602,
      "▁عبدالرح": 8603,
      "▁رسميا": 8604,
      "▁ألوان": 8605,
      "▁الشاملة": 8606,
      "▁للمستخدم": 8607,
      "▁الأبحاث": 8608,
      "▁الود": 8609,
      "▁أوباما": 8610,
      "▁يضمن": 8611,
      "▁تتوفر": 8612,
      "الله": 8613,
      "▁للقيام": 8614,
      "▁أبنائ": 8615,
      "▁يأخذ": 8616,
      "▁رواد": 8617,
      "▁الحاكم": 8618,
      "▁لاعبي": 8619,
      "وقي": 8620,
      "▁منصات": 8621,
      "اسوب": 8622,
      "▁الوسطى": 8623,
      "بيلة": 8624,
      "كسل": 8625,
      "▁القرية": 8626,
      "يتك": 8627,
      "▁الجيد": 8628,
      "▁سجلت": 8629,
      "احنات": 8630,
      "▁تصدير": 8631,
      "▁للاحت": 8632,
      "▁للتع": 8633,
      "▁للبر": 8634,
      "▁الأمطار": 8635,
      "▁صناعية": 8636,
      "انك": 8637,
      "▁والمط": 8638,
      "▁كير": 8639,
      "▁صن": 8640,
      "▁الثامن": 8641,
      "▁الصع": 8642,
      "▁أقر": 8643,
      "▁والعشرين": 8644,
      "شيح": 8645,
      "درج": 8646,
      "▁المديرية": 8647,
      "▁طفلك": 8648,
      "▁وتقدم": 8649,
      "▁قانونية": 8650,
      "فاصيل": 8651,
      "ذاء": 8652,
      "لاس": 8653,
      "مراض": 8654,
      "▁اختر": 8655,
      "▁بالطبع": 8656,
      "▁ممتازة": 8657,
      "▁شئ": 8658,
      "ماط": 8659,
      "ثف": 8660,
      "edia": 8661,
      "▁لعمل": 8662,
      "▁ريف": 8663,
      "▁الإسكان": 8664,
      "▁أمريكية": 8665,
      "▁الإرهابي": 8666,
      "▁الخيرية": 8667,
      "باكات": 8668,
      "▁الصد": 8669,
      "▁تميز": 8670,
      "DF": 8671,
      "وتن": 8672,
      "▁انقر": 8673,
      "▁الرحلات": 8674,
      "▁الجدول": 8675,
      "▁جرام": 8676,
      "كيف": 8677,
      "▁وسجل": 8678,
      "▁بود": 8679,
      "▁مثلا": 8680,
      "▁قدرات": 8681,
      "▁الكنيسة": 8682,
      "بعوث": 8683,
      "ER": 8684,
      "▁قريبة": 8685,
      "▁عون": 8686,
      "▁عجلة": 8687,
      "رهاب": 8688,
      "get": 8689,
      "▁وهكذا": 8690,
      "▁البنت": 8691,
      "▁الهاد": 8692,
      "لاميذ": 8693,
      "▁سائق": 8694,
      "▁ومنع": 8695,
      "▁التقنيات": 8696,
      "▁الباحثون": 8697,
      "▁الحشرات": 8698,
      "▁يستمر": 8699,
      "▁خليل": 8700,
      "▁محلي": 8701,
      "▁الثامنة": 8702,
      "▁الأرقام": 8703,
      "▁الاختيار": 8704,
      "▁الإح": 8705,
      "ديها": 8706,
      "▁التلفزيون": 8707,
      "▁موجة": 8708,
      "▁للسيارات": 8709,
      "▁لاي": 8710,
      "▁لتنظيم": 8711,
      "able": 8712,
      "▁سح": 8713,
      "▁يكتب": 8714,
      "▁المنشآت": 8715,
      "int": 8716,
      "▁ضخمة": 8717,
      "▁إنما": 8718,
      "كاية": 8719,
      "▁تقنيات": 8720,
      "راءات": 8721,
      "line": 8722,
      "▁ونقلت": 8723,
      "%.": 8724,
      "▁مرب": 8725,
      "▁شرط": 8726,
      "▁خلايا": 8727,
      "▁العظام": 8728,
      "▁توصيل": 8729,
      "روسوفت": 8730,
      "▁ويب": 8731,
      "▁سباق": 8732,
      "▁حكومية": 8733,
      "▁ومنذ": 8734,
      "ond": 8735,
      "▁حبوب": 8736,
      "▁بذور": 8737,
      "▁تدفع": 8738,
      "▁عملي": 8739,
      "▁مراسل": 8740,
      "یة": 8741,
      "▁عزي": 8742,
      "▁لإنشاء": 8743,
      "ظيمة": 8744,
      "صت": 8745,
      "راها": 8746,
      "▁حينما": 8747,
      "▁إسماعيل": 8748,
      "رويترز": 8749,
      "▁الوسائل": 8750,
      "يرو": 8751,
      "▁أسود": 8752,
      "▁أعوام": 8753,
      "achinery": 8754,
      "▁الاستعداد": 8755,
      "mm": 8756,
      "▁رياضية": 8757,
      "▁تحالف": 8758,
      "▁والتم": 8759,
      "ِد": 8760,
      "▁الكهربائي": 8761,
      "كنات": 8762,
      "▁جملة": 8763,
      "up": 8764,
      "▁from": 8765,
      "نافسية": 8766,
      "نوب": 8767,
      "▁الفكرة": 8768,
      "▁أكمل": 8769,
      "▁منهما": 8770,
      "▁مثال": 8771,
      "▁استطاع": 8772,
      "ذات": 8773,
      "▁لتحسين": 8774,
      "▁سيدة": 8775,
      "قان": 8776,
      "▁التأكد": 8777,
      "تمرات": 8778,
      "روية": 8779,
      "▁or": 8780,
      "لاحظات": 8781,
      "▁المرف": 8782,
      "طمئ": 8783,
      "▁التطور": 8784,
      "▁المجتمعات": 8785,
      "ge": 8786,
      "▁العميد": 8787,
      "▁الكتر": 8788,
      "▁Post": 8789,
      "ريان": 8790,
      "▁لمعالجة": 8791,
      "▁الغد": 8792,
      "▁القدرات": 8793,
      "▁يتكون": 8794,
      "يسر": 8795,
      "▁الجامعي": 8796,
      "▁زواج": 8797,
      "▁مقاطع": 8798,
      "▁للسيا": 8799,
      "▁الموافقة": 8800,
      "▁للاستثمار": 8801,
      "▁يصدر": 8802,
      "راعات": 8803,
      "▁أغنية": 8804,
      "▁الرحم": 8805,
      "▁الأجانب": 8806,
      "ليق": 8807,
      "جزيرة": 8808,
      "فرد": 8809,
      "▁الاربعاء": 8810,
      "▁آمن": 8811,
      "▁نريد": 8812,
      "▁Chat": 8813,
      "▁مصاب": 8814,
      "ادير": 8815,
      "فاهيم": 8816,
      "▁العادي": 8817,
      "▁تدور": 8818,
      "▁بارك": 8819,
      "▁تدعو": 8820,
      "حون": 8821,
      "▁وطحن": 8822,
      "▁والإعلام": 8823,
      "أو": 8824,
      "▁الحلم": 8825,
      "▁ترجمة": 8826,
      "▁وسن": 8827,
      "▁تعني": 8828,
      "يتا": 8829,
      "▁الشراكة": 8830,
      "▁البوابة": 8831,
      "▁النيا": 8832,
      "رسوم": 8833,
      "▁الكي": 8834,
      "AN": 8835,
      "▁ميلي": 8836,
      "▁الفار": 8837,
      "ining": 8838,
      "▁وتكون": 8839,
      "مش": 8840,
      "ذاك": 8841,
      "▁الإنساني": 8842,
      "▁تسمى": 8843,
      "▁يقرب": 8844,
      "▁كتبت": 8845,
      "▁لام": 8846,
      "▁المرح": 8847,
      "▁المقدسة": 8848,
      "▁شيئا": 8849,
      "▁الهول": 8850,
      "يرت": 8851,
      "▁العيش": 8852,
      "▁تسل": 8853,
      "ick": 8854,
      "▁فحسب": 8855,
      "▁استط": 8856,
      "وقاية": 8857,
      "▁الجبهة": 8858,
      "▁ويعد": 8859,
      "ميص": 8860,
      "▁رفي": 8861,
      "▁قلت": 8862,
      "▁خفيفة": 8863,
      "▁فجر": 8864,
      "قولة": 8865,
      "▁الكونغ": 8866,
      "▁احتف": 8867,
      "ذاعة": 8868,
      "▁مارت": 8869,
      "▁الجغ": 8870,
      "▁الأفريقية": 8871,
      "▁إخراج": 8872,
      "▁باه": 8873,
      "▁مبت": 8874,
      "جمالية": 8875,
      "▁Android": 8876,
      "▁جسد": 8877,
      "▁جلال": 8878,
      "نتوس": 8879,
      "ِهِ": 8880,
      "▁جبهة": 8881,
      "▁المعايير": 8882,
      "قاطعة": 8883,
      "▁ندوة": 8884,
      "▁حسابه": 8885,
      "▁البال": 8886,
      "ريجي": 8887,
      "▁محدودة": 8888,
      "▁أوقات": 8889,
      "لاجات": 8890,
      "▁قن": 8891,
      "▁عمره": 8892,
      "▁المهام": 8893,
      "▁تفت": 8894,
      "اتم": 8895,
      "▁أطراف": 8896,
      "فرت": 8897,
      "▁الأنظمة": 8898,
      "▁تجارب": 8899,
      "▁الخوف": 8900,
      "▁الأصلية": 8901,
      "▁الليمون": 8902,
      "الل": 8903,
      "ناز": 8904,
      "▁يرفض": 8905,
      "▁سيدي": 8906,
      "▁}": 8907,
      "▁الذاكرة": 8908,
      "خلة": 8909,
      "سمع": 8910,
      "▁لحزب": 8911,
      "▁الامريكية": 8912,
      "ؤاد": 8913,
      "▁نساء": 8914,
      "▁المذكورة": 8915,
      "قارنة": 8916,
      "ليح": 8917,
      "▁جين": 8918,
      "ory": 8919,
      "▁التطورات": 8920,
      "▁Arabic": 8921,
      "سيوط": 8922,
      "▁وتعد": 8923,
      "▁الدقة": 8924,
      "ليها": 8925,
      "▁الني": 8926,
      "▁الأسماء": 8927,
      "▁أسس": 8928,
      "▁سيطرة": 8929,
      "▁بعيدا": 8930,
      "▁المخرج": 8931,
      "▁المؤقت": 8932,
      "ركم": 8933,
      "▁محور": 8934,
      "▁اجت": 8935,
      "▁غضب": 8936,
      "▁ذاتها": 8937,
      "▁قوانين": 8938,
      "ليت": 8939,
      "▁الجبل": 8940,
      "▁باللون": 8941,
      "ولون": 8942,
      "▁السهل": 8943,
      "راكش": 8944,
      "لقد": 8945,
      "▁باله": 8946,
      "واي": 8947,
      "▁الطائف": 8948,
      "لس": 8949,
      "رازية": 8950,
      "ضحى": 8951,
      "▁الحسابات": 8952,
      "▁صباحًا": 8953,
      "▁أصدرت": 8954,
      "ارها": 8955,
      "لادي": 8956,
      "▁لاحت": 8957,
      "تيك": 8958,
      "بارك": 8959,
      "وثيق": 8960,
      "▁الفاع": 8961,
      "▁الذكرى": 8962,
      "▁ولقد": 8963,
      "▁مِنْ": 8964,
      "▁الكويتي": 8965,
      "ناقش": 8966,
      "▁الوظيف": 8967,
      "▁التحول": 8968,
      "▁مدونة": 8969,
      "▁فعالية": 8970,
      "▁التكنولوج": 8971,
      "مور": 8972,
      "▁المفتوحة": 8973,
      "▁سعادة": 8974,
      "▁موافقة": 8975,
      "▁بشار": 8976,
      "َّا": 8977,
      "▁والده": 8978,
      "▁السلبية": 8979,
      "▁أنّه": 8980,
      "▁الرياح": 8981,
      "▁z": 8982,
      "▁الكا": 8983,
      "موت": 8984,
      "واص": 8985,
      "ويج": 8986,
      "▁it": 8987,
      "فش": 8988,
      "▁والتص": 8989,
      "ندسين": 8990,
      "▁أنش": 8991,
      "▁أريد": 8992,
      "▁الحش": 8993,
      "▁هوت": 8994,
      "▁التعريف": 8995,
      "▁الشرك": 8996,
      "▁this": 8997,
      "▁حينها": 8998,
      "▁تتكون": 8999,
      "▁جيداً": 9000,
      "▁نماذج": 9001,
      "▁وحماية": 9002,
      "كوك": 9003,
      "▁الفات": 9004,
      "▁العيون": 9005,
      "▁فرح": 9006,
      "▁الفحص": 9007,
      "فراد": 9008,
      "▁بحجم": 9009,
      "▁سات": 9010,
      "▁مخالفة": 9011,
      "تهما": 9012,
      "▁هرم": 9013,
      "أسيس": 9014,
      "▁تقدمها": 9015,
      "▁إصابات": 9016,
      "▁تصادمية": 9017,
      "صارات": 9018,
      "جمهور": 9019,
      "▁عصير": 9020,
      "▁كهربائية": 9021,
      "▁المواقف": 9022,
      "لكم": 9023,
      "▁سياسات": 9024,
      "▁التجار": 9025,
      "لاسي": 9026,
      "▁بتق": 9027,
      "▁قنا": 9028,
      "▁لتت": 9029,
      "▁الإعلانات": 9030,
      "▁المكسيك": 9031,
      "قيمت": 9032,
      "▁المجر": 9033,
      "▁إيمان": 9034,
      "▁تسوق": 9035,
      "▁العاط": 9036,
      "▁as": 9037,
      "▁٤": 9038,
      "▁المشكلات": 9039,
      "▁الاخبارية": 9040,
      "▁اللحوم": 9041,
      "▁مخصصة": 9042,
      "▁ملاحظة": 9043,
      "▁البيئية": 9044,
      "▁التاسعة": 9045,
      "كبة": 9046,
      "وماً": 9047,
      "يمكن": 9048,
      "▁تنتهي": 9049,
      "▁بالات": 9050,
      "▁تقدر": 9051,
      "▁المركبات": 9052,
      "▁توك": 9053,
      "▁وطني": 9054,
      "كاليف": 9055,
      "غذية": 9056,
      "قسم": 9057,
      "رشح": 9058,
      "اعيات": 9059,
      "▁السريعة": 9060,
      "▁Ltd": 9061,
      "الر": 9062,
      "ult": 9063,
      "▁جس": 9064,
      "▁الكبار": 9065,
      "▁بمصر": 9066,
      "▁وعي": 9067,
      "▁قريبا": 9068,
      "erv": 9069,
      "▁ميش": 9070,
      "▁تحكم": 9071,
      "▁وكم": 9072,
      "سباني": 9073,
      "لاط": 9074,
      "▁والرياضة": 9075,
      "▁الأحوال": 9076,
      "بور": 9077,
      "ضائع": 9078,
      "▁قار": 9079,
      "▁انتهى": 9080,
      "▁الذكي": 9081,
      "▁قيادات": 9082,
      "▁والتطوير": 9083,
      "جمهورية": 9084,
      "صدارات": 9085,
      "كاسب": 9086,
      "▁متحف": 9087,
      "▁نشره": 9088,
      "▁وجعل": 9089,
      "▁التهديد": 9090,
      "▁هات": 9091,
      "خراج": 9092,
      "رجاع": 9093,
      "▁الاتفاقية": 9094,
      "▁مزود": 9095,
      "▁الخطأ": 9096,
      "حمام": 9097,
      "ert": 9098,
      "▁داف": 9099,
      "▁حديثه": 9100,
      "▁شو": 9101,
      "ولوجية": 9102,
      "سيمة": 9103,
      "▁شعبنا": 9104,
      "▁الفنانين": 9105,
      "▁مرشح": 9106,
      "▁دورات": 9107,
      "حكم": 9108,
      "▁للشعب": 9109,
      "ستيكية": 9110,
      "▁والاعت": 9111,
      "▁اليابانية": 9112,
      "▁الاستمرار": 9113,
      "▁الزوار": 9114,
      "▁فرانس": 9115,
      "▁رائحة": 9116,
      "فتر": 9117,
      "▁الفعاليات": 9118,
      "▁النقابة": 9119,
      "▁نه": 9120,
      "▁وبن": 9121,
      "جلترا": 9122,
      "▁الضرائب": 9123,
      "▁تكريم": 9124,
      "ممة": 9125,
      "هههه": 9126,
      "▁الدوائر": 9127,
      "سيقية": 9128,
      "▁القومية": 9129,
      "▁بصفة": 9130,
      "▁الإضاف": 9131,
      "▁كونها": 9132,
      "▁ابتداء": 9133,
      "▁الإفطار": 9134,
      "▁الصار": 9135,
      "▁جوائز": 9136,
      "▁أطول": 9137,
      "▁حياتك": 9138,
      "وَ": 9139,
      "ولار": 9140,
      "▁باتت": 9141,
      "▁التجارب": 9142,
      "▁وحول": 9143,
      "▁الخطاب": 9144,
      ".,": 9145,
      "▁والتش": 9146,
      "▁غرام": 9147,
      "▁الاخيرة": 9148,
      "▁sp": 9149,
      "يمباب": 9150,
      "▁اثناء": 9151,
      "▁القبول": 9152,
      "▁مسير": 9153,
      "رود": 9154,
      "▁mill": 9155,
      "▁أجواء": 9156,
      "▁فكان": 9157,
      "ساتين": 9158,
      "ريز": 9159,
      "٢٠": 9160,
      "موية": 9161,
      "▁استعراض": 9162,
      "▁شمس": 9163,
      "▁الجدد": 9164,
      "▁بطاقات": 9165,
      "▁ارتفعت": 9166,
      "طيات": 9167,
      "▁الساحل": 9168,
      "يادين": 9169,
      "▁الكبد": 9170,
      "ىء": 9171,
      "▁بنتيجة": 9172,
      "▁خاض": 9173,
      "▁تتعرض": 9174,
      "▁الأكاديمية": 9175,
      "يدز": 9176,
      "▁الرط": 9177,
      "▁نوعها": 9178,
      "ديب": 9179,
      "▁لمتابعة": 9180,
      "▁الكريمة": 9181,
      "▁معك": 9182,
      "▁فاس": 9183,
      "▁الساخن": 9184,
      "▁الهجمات": 9185,
      "oh": 9186,
      "▁زوار": 9187,
      "▁الجمهوري": 9188,
      "ولو": 9189,
      "▁حفاضات": 9190,
      "▁فإنها": 9191,
      "▁اكس": 9192,
      "ave": 9193,
      "▁قيمتها": 9194,
      "▁وأيض": 9195,
      "▁الجماعات": 9196,
      "▁البسيطة": 9197,
      "▁والمل": 9198,
      "▁لفريق": 9199,
      "▁شريف": 9200,
      "▁المستويات": 9201,
      "▁بالمغرب": 9202,
      "▁الناحية": 9203,
      "فاد": 9204,
      "▁بالان": 9205,
      "▁المواجهة": 9206,
      "▁الجرائم": 9207,
      "▁حبيب": 9208,
      "▁حقيبة": 9209,
      "▁بولاية": 9210,
      "▁العنوان": 9211,
      "▁والتج": 9212,
      "▁مقعد": 9213,
      "عار": 9214,
      "▁بمت": 9215,
      "anu": 9216,
      "▁احتمال": 9217,
      "▁إنسان": 9218,
      "ann": 9219,
      "▁معسكر": 9220,
      "▁بوست": 9221,
      "▁يمكنه": 9222,
      "▁الحفر": 9223,
      "▁العضلات": 9224,
      "▁حسام": 9225,
      "ساوي": 9226,
      "▁الاز": 9227,
      "▁اليمين": 9228,
      "▁محاجر": 9229,
      "▁حوادث": 9230,
      "▁خريطة": 9231,
      "▁العقارية": 9232,
      "▁متاح": 9233,
      "▁للإن": 9234,
      "قيد": 9235,
      "▁تغطية": 9236,
      "▁اكد": 9237,
      "سوارات": 9238,
      "▁لاسيما": 9239,
      "ُه": 9240,
      "▁محدد": 9241,
      "▁الجامعية": 9242,
      "▁التلقائي": 9243,
      "▁صحفية": 9244,
      "▁وسيط": 9245,
      "▁وسب": 9246,
      "▁تقسيم": 9247,
      "▁الجوال": 9248,
      "ork": 9249,
      "▁بقدر": 9250,
      "▁أشارت": 9251,
      "▁الأسط": 9252,
      "▁أفادت": 9253,
      "▁لأحد": 9254,
      "▁لعملية": 9255,
      "▁تايمز": 9256,
      "▁فِي": 9257,
      "▁ومدير": 9258,
      "▁توليد": 9259,
      "▁إعطاء": 9260,
      "اتيح": 9261,
      "▁سانت": 9262,
      "▁فين": 9263,
      "▁القانوني": 9264,
      "▁بزيادة": 9265,
      "▁بكافة": 9266,
      "▁الجان": 9267,
      "▁يَ": 9268,
      "▁اللقاح": 9269,
      "▁المفر": 9270,
      "▁شخصيات": 9271,
      "▁تايل": 9272,
      "صام": 9273,
      "▁العثم": 9274,
      "مكانيات": 9275,
      "▁وثيقة": 9276,
      "▁تجري": 9277,
      "▁مرسي": 9278,
      "▁علما": 9279,
      "ومين": 9280,
      "▁شقة": 9281,
      "قدار": 9282,
      "تس": 9283,
      "▁المخروطية": 9284,
      "▁يواصل": 9285,
      "▁تحب": 9286,
      "والى": 9287,
      "ومن": 9288,
      "▁فضي": 9289,
      "▁الجافة": 9290,
      "▁أوضاع": 9291,
      "ضراب": 9292,
      "▁فد": 9293,
      "▁بالمع": 9294,
      "ودع": 9295,
      "▁بجودة": 9296,
      "▁الهيد": 9297,
      "خرية": 9298,
      "▁عقوبات": 9299,
      "▁الجاف": 9300,
      "هدت": 9301,
      "▁علاء": 9302,
      "▁كونه": 9303,
      "hai": 9304,
      "▁حصان": 9305,
      "▁تنتج": 9306,
      "▁حافظ": 9307,
      "ويلا": 9308,
      "▁وغرب": 9309,
      "▁سهم": 9310,
      "فقد": 9311,
      "▁فكل": 9312,
      "▁للنساء": 9313,
      "▁الجائزة": 9314,
      "▁الرؤ": 9315,
      "▁القتال": 9316,
      "▁وام": 9317,
      "بعا": 9318,
      "▁هاتفك": 9319,
      "▁التحقق": 9320,
      "▁البشري": 9321,
      "▁تفشي": 9322,
      "▁أدت": 9323,
      "هتزاز": 9324,
      "▁التمثيل": 9325,
      "جددة": 9326,
      "▁ربح": 9327,
      "▁حبي": 9328,
      "▁مفتاح": 9329,
      "▁وإد": 9330,
      "▁للمعدات": 9331,
      "▁ساخ": 9332,
      "▁المباشرة": 9333,
      "ايت": 9334,
      "ens": 9335,
      "▁بالز": 9336,
      "▁فائقة": 9337,
      "▁مدف": 9338,
      "▁للطلاب": 9339,
      "▁أبيض": 9340,
      "▁لث": 9341,
      "▁اللقب": 9342,
      "▁البري": 9343,
      "▁الإصدار": 9344,
      "▁لوضع": 9345,
      "▁حارس": 9346,
      "▁بالعاصمة": 9347,
      "▁يلتقي": 9348,
      "▁الذكاء": 9349,
      "▁أصدق": 9350,
      "▁الحوادث": 9351,
      "يء": 9352,
      "▁ممثلة": 9353,
      "▁ثابتة": 9354,
      "▁مند": 9355,
      "غهاي": 9356,
      "▁الذهبي": 9357,
      "نق": 9358,
      "اوية": 9359,
      "▁مستخدمي": 9360,
      "فاضة": 9361,
      "▁الوص": 9362,
      "بدا": 9363,
      "▁الرواية": 9364,
      "اطع": 9365,
      "طلح": 9366,
      "▁بالمملكة": 9367,
      "▁الجميل": 9368,
      "▁خالية": 9369,
      "▁تحدد": 9370,
      "▁get": 9371,
      "▁الفوائد": 9372,
      "▁السر": 9373,
      "▁الإسبانية": 9374,
      "▁الزب": 9375,
      "▁باخت": 9376,
      "▁موردين": 9377,
      "غن": 9378,
      "▁طمو": 9379,
      "▁المجانية": 9380,
      "▁الفرا": 9381,
      "كييف": 9382,
      "▁تناسب": 9383,
      "▁بمركز": 9384,
      "▁جول": 9385,
      "ريش": 9386,
      "▁اذ": 9387,
      "▁حصة": 9388,
      "▁الخصوصية": 9389,
      "▁الإماراتية": 9390,
      "▁نو": 9391,
      "▁المنخفض": 9392,
      "▁الماك": 9393,
      "▁يحدد": 9394,
      "▁والاقتصادية": 9395,
      "▁سرطان": 9396,
      "▁لإجراء": 9397,
      "كاف": 9398,
      "▁والتط": 9399,
      "▁غربال": 9400,
      "▁الفتيات": 9401,
      "▁شهور": 9402,
      "▁الساخنة": 9403,
      "جلب": 9404,
      "خات": 9405,
      "▁تطالب": 9406,
      "▁موضحا": 9407,
      "لاوة": 9408,
      "▁مكاتب": 9409,
      "بيات": 9410,
      "▁نظراً": 9411,
      "▁المسلم": 9412,
      "▁الصوم": 9413,
      "▁الريف": 9414,
      "لها": 9415,
      "▁شوارع": 9416,
      "▁بتهمة": 9417,
      "▁بُ": 9418,
      "وايا": 9419,
      "▁الأرباح": 9420,
      "ck": 9421,
      "▁تتمثل": 9422,
      "▁المجاورة": 9423,
      "▁مختبر": 9424,
      "▁المؤشر": 9425,
      "سيع": 9426,
      "▁شقيق": 9427,
      "▁روما": 9428,
      "▁لرفع": 9429,
      "▁وبلغ": 9430,
      "gy": 9431,
      "▁المحيطة": 9432,
      "حيط": 9433,
      "▁السياسات": 9434,
      "▁الولاية": 9435,
      "▁عبدالرحمن": 9436,
      "ْد": 9437,
      "صوص": 9438,
      "▁تصنع": 9439,
      "▁سلطات": 9440,
      "فاه": 9441,
      "▁الذاتي": 9442,
      "واليد": 9443,
      "وافقة": 9444,
      "▁الترفيه": 9445,
      "▁الكلنكر": 9446,
      "اليوم": 9447,
      "▁حققت": 9448,
      "تون": 9449,
      "خان": 9450,
      "تبة": 9451,
      "▁un": 9452,
      "▁هيل": 9453,
      "التها": 9454,
      "▁فريدة": 9455,
      "▁جب": 9456,
      "▁آليات": 9457,
      "عايير": 9458,
      "▁لتج": 9459,
      "أب": 9460,
      "▁فيهم": 9461,
      "▁القتل": 9462,
      "▁التقديم": 9463,
      "▁آلام": 9464,
      "▁فهناك": 9465,
      "▁القليل": 9466,
      "▁نقد": 9467,
      "▁السبع": 9468,
      "▁اللازم": 9469,
      "اتذة": 9470,
      "▁هجمات": 9471,
      "▁المساحة": 9472,
      "▁الاحد": 9473,
      "▁خبير": 9474,
      "▁التدريبية": 9475,
      "▁وحده": 9476,
      "▁المستقلة": 9477,
      "ّ،": 9478,
      "▁المهارات": 9479,
      "▁للاسمنت": 9480,
      "وجات": 9481,
      "▁للتعليم": 9482,
      "هلى": 9483,
      "▁وإدارة": 9484,
      "مودي": 9485,
      "▁اعتمد": 9486,
      "دمج": 9487,
      "BC": 9488,
      "▁العمالة": 9489,
      "▁ومتابعة": 9490,
      "▁إله": 9491,
      "▁موز": 9492,
      "▁أفغانستان": 9493,
      "▁السيراميك": 9494,
      "▁لكافة": 9495,
      "▁مفتوح": 9496,
      "▁وأول": 9497,
      "▁مساح": 9498,
      "▁سنويا": 9499,
      "▁ذروة": 9500,
      "▁البرازيلي": 9501,
      "▁الفج": 9502,
      "▁وبط": 9503,
      "▁أحيان": 9504,
      "▁المبر": 9505,
      "▁الاعمال": 9506,
      "▁الإث": 9507,
      "▁الأند": 9508,
      "▁اجمل": 9509,
      "ّها": 9510,
      "▁المراحل": 9511,
      "▁أفاد": 9512,
      "صلي": 9513,
      "▁داخلية": 9514,
      "▁الدوا": 9515,
      "▁صيد": 9516,
      "▁الحظ": 9517,
[...]
